{
  "version": "1.0",
  "truncation": null,
  "padding": null,
  "added_tokens": [
    {
      "id": 0,
      "content": "[PAD]",
      "single_word": false,
      "lstrip": false,
      "rstrip": false,
      "normalized": false,
      "special": true
    },
    {
      "id": 1,
      "content": "[UNK]",
      "single_word": false,
      "lstrip": false,
      "rstrip": false,
      "normalized": false,
      "special": true
    },
    {
      "id": 2,
      "content": "[BOS]",
      "single_word": false,
      "lstrip": false,
      "rstrip": false,
      "normalized": false,
      "special": true
    },
    {
      "id": 3,
      "content": "[EOS]",
      "single_word": false,
      "lstrip": false,
      "rstrip": false,
      "normalized": false,
      "special": true
    }
  ],
  "normalizer": null,
  "pre_tokenizer": {
    "type": "Whitespace"
  },
  "post_processor": null,
  "decoder": null,
  "model": {
    "type": "BPE",
    "dropout": null,
    "unk_token": "[UNK]",
    "continuing_subword_prefix": null,
    "end_of_word_suffix": null,
    "fuse_unk": false,
    "byte_fallback": false,
    "ignore_merges": false,
    "vocab": {
      "[PAD]": 0,
      "[UNK]": 1,
      "[BOS]": 2,
      "[EOS]": 3,
      "!": 4,
      "\"": 5,
      "#": 6,
      "$": 7,
      "%": 8,
      "&": 9,
      "'": 10,
      "(": 11,
      ")": 12,
      ",": 13,
      "-": 14,
      ".": 15,
      "0": 16,
      "1": 17,
      "2": 18,
      "3": 19,
      "4": 20,
      "5": 21,
      "6": 22,
      "7": 23,
      "8": 24,
      "9": 25,
      ":": 26,
      ";": 27,
      "=": 28,
      "?": 29,
      "A": 30,
      "B": 31,
      "C": 32,
      "D": 33,
      "E": 34,
      "F": 35,
      "G": 36,
      "H": 37,
      "I": 38,
      "J": 39,
      "K": 40,
      "L": 41,
      "M": 42,
      "N": 43,
      "O": 44,
      "P": 45,
      "Q": 46,
      "R": 47,
      "S": 48,
      "T": 49,
      "U": 50,
      "V": 51,
      "W": 52,
      "X": 53,
      "Y": 54,
      "Z": 55,
      "`": 56,
      "a": 57,
      "b": 58,
      "c": 59,
      "d": 60,
      "e": 61,
      "f": 62,
      "g": 63,
      "h": 64,
      "i": 65,
      "j": 66,
      "k": 67,
      "l": 68,
      "m": 69,
      "n": 70,
      "o": 71,
      "p": 72,
      "q": 73,
      "r": 74,
      "s": 75,
      "t": 76,
      "u": 77,
      "v": 78,
      "w": 79,
      "x": 80,
      "y": 81,
      "z": 82,
      "in": 83,
      "an": 84,
      "ing": 85,
      "th": 86,
      "re": 87,
      "er": 88,
      "on": 89,
      "le": 90,
      "ar": 91,
      "hi": 92,
      "man": 93,
      "the": 94,
      "ou": 95,
      "and": 96,
      "at": 97,
      "st": 98,
      "wo": 99,
      "al": 100,
      "is": 101,
      "la": 102,
      "en": 103,
      "of": 104,
      "it": 105,
      "wi": 106,
      "ow": 107,
      "ck": 108,
      "with": 109,
      "to": 110,
      "ld": 111,
      "or": 112,
      "ir": 113,
      "es": 114,
      "et": 115,
      "ch": 116,
      "op": 117,
      "id": 118,
      "oun": 119,
      "are": 120,
      "whi": 121,
      "bo": 122,
      "ed": 123,
      "king": 124,
      "gr": 125,
      "ear": 126,
      "woman": 127,
      "as": 128,
      "oo": 129,
      "pla": 130,
      "all": 131,
      "te": 132,
      "ic": 133,
      "men": 134,
      "do": 135,
      "pe": 136,
      "ople": 137,
      "Two": 138,
      "play": 139,
      "ro": 140,
      "ho": 141,
      "ers": 142,
      "he": 143,
      "un": 144,
      "ge": 145,
      "ting": 146,
      "ts": 147,
      "shi": 148,
      "ss": 149,
      "bl": 150,
      "wear": 151,
      "wal": 152,
      "shir": 153,
      "red": 154,
      "sit": 155,
      "wearing": 156,
      "stand": 157,
      "ad": 158,
      "people": 159,
      "shirt": 160,
      "ll": 161,
      "own": 162,
      "ide": 163,
      "ra": 164,
      "oung": 165,
      "gh": 166,
      "me": 167,
      "white": 168,
      "be": 169,
      "irl": 170,
      "young": 171,
      "his": 172,
      "ue": 173,
      "ce": 174,
      "girl": 175,
      "boy": 176,
      "dog": 177,
      "bla": 178,
      "ri": 179,
      "black": 180,
      "lding": 181,
      "ack": 182,
      "co": 183,
      "while": 184,
      "ther": 185,
      "for": 186,
      "wat": 187,
      "oup": 188,
      "mp": 189,
      "one": 190,
      "blue": 191,
      "sh": 192,
      "ta": 193,
      "ur": 194,
      "ver": 195,
      "se": 196,
      "sitting": 197,
      "ve": 198,
      "ball": 199,
      "air": 200,
      "loo": 201,
      "ound": 202,
      "hild": 203,
      "li": 204,
      "standing": 205,
      "stre": 206,
      "so": 207,
      "playing": 208,
      "fr": 209,
      "bu": 210,
      "child": 211,
      "ard": 212,
      "by": 213,
      "group": 214,
      "lo": 215,
      "street": 216,
      "down": 217,
      "ree": 218,
      "out": 219,
      "ne": 220,
      "am": 221,
      "her": 222,
      "walking": 223,
      "il": 224,
      "ont": 225,
      "ay": 226,
      "walk": 227,
      "ti": 228,
      "sm": 229,
      "front": 230,
      "up": 231,
      "other": 232,
      "br": 233,
      "ap": 234,
      "The": 235,
      "holding": 236,
      "ke": 237,
      "car": 238,
      "ma": 239,
      "po": 240,
      "ress": 241,
      "water": 242,
      "tle": 243,
      "ju": 244,
      "dress": 245,
      "fi": 246,
      "side": 247,
      "run": 248,
      "ach": 249,
      "ying": 250,
      "thr": 251,
      "wor": 252,
      "par": 253,
      "some": 254,
      "back": 255,
      "reen": 256,
      "hat": 257,
      "ru": 258,
      "sk": 259,
      "jump": 260,
      "uit": 261,
      "looking": 262,
      "lit": 263,
      "green": 264,
      "An": 265,
      "ind": 266,
      "bi": 267,
      "women": 268,
      "ga": 269,
      "ght": 270,
      "ren": 271,
      "lar": 272,
      "form": 273,
      "Th": 274,
      "outs": 275,
      "si": 276,
      "rid": 277,
      "ble": 278,
      "ell": 279,
      "outside": 280,
      "sing": 281,
      "ough": 282,
      "cle": 283,
      "sn": 284,
      "Three": 285,
      "ks": 286,
      "ground": 287,
      "little": 288,
      "fe": 289,
      "pa": 290,
      "large": 291,
      "through": 292,
      "ong": 293,
      "cr": 294,
      "ass": 295,
      "ellow": 296,
      "ba": 297,
      "snow": 298,
      "old": 299,
      "di": 300,
      "yellow": 301,
      "brown": 302,
      "two": 303,
      "erson": 304,
      "over": 305,
      "tu": 306,
      "ul": 307,
      "board": 308,
      "lass": 309,
      "fro": 310,
      "eld": 311,
      "mb": 312,
      "from": 313,
      "their": 314,
      "ter": 315,
      "con": 316,
      "ly": 317,
      "into": 318,
      "person": 319,
      "ning": 320,
      "hand": 321,
      "foo": 322,
      "watch": 323,
      "xt": 324,
      "thing": 325,
      "ac": 326,
      "bui": 327,
      "tra": 328,
      "ate": 329,
      "ink": 330,
      "building": 331,
      "children": 332,
      "next": 333,
      "owd": 334,
      "our": 335,
      "small": 336,
      "mo": 337,
      "near": 338,
      "dressed": 339,
      "jack": 340,
      "crowd": 341,
      "jacket": 342,
      "glass": 343,
      "grass": 344,
      "ving": 345,
      "dy": 346,
      "wa": 347,
      "pu": 348,
      "male": 349,
      "sc": 350,
      "Pe": 351,
      "riding": 352,
      "running": 353,
      "ange": 354,
      "People": 355,
      "pi": 356,
      "ture": 357,
      "ha": 358,
      "ion": 359,
      "bas": 360,
      "off": 361,
      "sw": 362,
      "another": 363,
      "around": 364,
      "cli": 365,
      "sta": 366,
      "field": 367,
      "eat": 368,
      "tr": 369,
      "ycle": 370,
      "cer": 371,
      "table": 372,
      "per": 373,
      "tal": 374,
      "sidewalk": 375,
      "ket": 376,
      "top": 377,
      "work": 378,
      "clo": 379,
      "Man": 380,
      "read": 381,
      "ep": 382,
      "glasses": 383,
      "ity": 384,
      "orange": 385,
      "head": 386,
      "beach": 387,
      "ore": 388,
      "ans": 389,
      "ine": 390,
      "hone": 391,
      "ross": 392,
      "way": 393,
      "hair": 394,
      "hind": 395,
      "stands": 396,
      "pink": 397,
      "sits": 398,
      "jumping": 399,
      "je": 400,
      "behind": 401,
      "sun": 402,
      "stru": 403,
      "ice": 404,
      "iling": 405,
      "sp": 406,
      "go": 407,
      "der": 408,
      "tain": 409,
      "park": 410,
      "pic": 411,
      "door": 412,
      "gu": 413,
      "bike": 414,
      "background": 415,
      "cam": 416,
      "ond": 417,
      "fa": 418,
      "od": 419,
      "ment": 420,
      "de": 421,
      "mar": 422,
      "rock": 423,
      "wall": 424,
      "ten": 425,
      "city": 426,
      "suit": 427,
      "player": 428,
      "bic": 429,
      "girls": 430,
      "dan": 431,
      "dle": 432,
      "fl": 433,
      "perform": 434,
      "picture": 435,
      "ben": 436,
      "ool": 437,
      "looks": 438,
      "camer": 439,
      "mu": 440,
      "sur": 441,
      "tion": 442,
      "ves": 443,
      "met": 444,
      "shor": 445,
      "uitar": 446,
      "rop": 447,
      "guitar": 448,
      "dogs": 449,
      "veral": 450,
      "that": 451,
      "camera": 452,
      "wood": 453,
      "ct": 454,
      "get": 455,
      "ant": 456,
      "irt": 457,
      "oom": 458,
      "ountain": 459,
      "ped": 460,
      "hold": 461,
      "mid": 462,
      "hel": 463,
      "talking": 464,
      "tor": 465,
      "something": 466,
      "sho": 467,
      "cing": 468,
      "el": 469,
      "ccer": 470,
      "older": 471,
      "ick": 472,
      "ff": 473,
      "pan": 474,
      "ca": 475,
      "stu": 476,
      "along": 477,
      "walks": 478,
      "road": 479,
      "ish": 480,
      "bus": 481,
      "food": 482,
      "boys": 483,
      "working": 484,
      "bri": 485,
      "lady": 486,
      "cu": 487,
      "gg": 488,
      "toge": 489,
      "soccer": 490,
      "together": 491,
      "blond": 492,
      "gn": 493,
      "skate": 494,
      "gray": 495,
      "hor": 496,
      "les": 497,
      "end": 498,
      "him": 499,
      "bicycle": 500,
      "Asi": 501,
      "smiling": 502,
      "kes": 503,
      "uni": 504,
      "ey": 505,
      "plays": 506,
      "has": 507,
      "game": 508,
      "jo": 509,
      "stri": 510,
      "dr": 511,
      "mer": 512,
      "bench": 513,
      "comp": 514,
      "boo": 515,
      "guy": 516,
      "pre": 517,
      "them": 518,
      "uniform": 519,
      "qu": 520,
      "Asian": 521,
      "che": 522,
      "its": 523,
      "foot": 524,
      "led": 525,
      "holds": 526,
      "ms": 527,
      "sand": 528,
      "ation": 529,
      "face": 530,
      "ction": 531,
      "ol": 532,
      "atch": 533,
      "sa": 534,
      "swi": 535,
      "Four": 536,
      "Se": 537,
      "carr": 538,
      "climb": 539,
      "pants": 540,
      "chair": 541,
      "skateboard": 542,
      "room": 543,
      "col": 544,
      "ling": 545,
      "kid": 546,
      "pain": 547,
      "gs": 548,
      "under": 549,
      "stage": 550,
      "pur": 551,
      "shorts": 552,
      "coup": 553,
      "ping": 554,
      "umb": 555,
      "ent": 556,
      "boat": 557,
      "carrying": 558,
      "dirt": 559,
      "ming": 560,
      "pl": 561,
      "ful": 562,
      "set": 563,
      "ses": 564,
      "spe": 565,
      "baby": 566,
      "couple": 567,
      "tri": 568,
      "race": 569,
      "long": 570,
      "tan": 571,
      "tree": 572,
      "outdoor": 573,
      "base": 574,
      "band": 575,
      "ark": 576,
      "look": 577,
      "female": 578,
      "swim": 579,
      "mic": 580,
      "mountain": 581,
      "coat": 582,
      "day": 583,
      "Several": 584,
      "ple": 585,
      "pool": 586,
      "shop": 587,
      "each": 588,
      "sign": 589,
      "pro": 590,
      "owing": 591,
      "taking": 592,
      "phone": 593,
      "tow": 594,
      "basket": 595,
      "lling": 596,
      "au": 597,
      "doing": 598,
      "dark": 599,
      "cor": 600,
      "ty": 601,
      "hoto": 602,
      "across": 603,
      "watching": 604,
      "bar": 605,
      "iting": 606,
      "ican": 607,
      "jeans": 608,
      "ex": 609,
      "area": 610,
      "team": 611,
      "outh": 612,
      "middle": 613,
      "who": 614,
      "photo": 615,
      "store": 616,
      "sl": 617,
      "vi": 618,
      "jumps": 619,
      "fore": 620,
      "hands": 621,
      "cross": 622,
      "helmet": 623,
      "sic": 624,
      "horse": 625,
      "flo": 626,
      "ence": 627,
      "wind": 628,
      "su": 629,
      "sts": 630,
      "swing": 631,
      "eating": 632,
      "performing": 633,
      "toy": 634,
      "ni": 635,
      "we": 636,
      "being": 637,
      "sweat": 638,
      "light": 639,
      "striped": 640,
      "cks": 641,
      "uring": 642,
      "motor": 643,
      "baseball": 644,
      "cre": 645,
      "using": 646,
      "color": 647,
      "mouth": 648,
      "music": 649,
      "Wo": 650,
      "whe": 651,
      "football": 652,
      "rel": 653,
      "cl": 654,
      "ired": 655,
      "ding": 656,
      "itch": 657,
      "purple": 658,
      "ab": 659,
      "sle": 660,
      "microp": 661,
      "ag": 662,
      "app": 663,
      "hu": 664,
      "ating": 665,
      "tre": 666,
      "ob": 667,
      "haired": 668,
      "toward": 669,
      "fla": 670,
      "gi": 671,
      "nis": 672,
      "enjo": 673,
      "aper": 674,
      "posing": 675,
      "runs": 676,
      "train": 677,
      "window": 678,
      "fu": 679,
      "adul": 680,
      "struction": 681,
      "surf": 682,
      "Young": 683,
      "reading": 684,
      "tennis": 685,
      "na": 686,
      "she": 687,
      "sunglasses": 688,
      "des": 689,
      "ner": 690,
      "tru": 691,
      "can": 692,
      "clothing": 693,
      "dri": 694,
      "three": 695,
      "stick": 696,
      "players": 697,
      "microphone": 698,
      "bow": 699,
      "cean": 700,
      "vered": 701,
      "There": 702,
      "past": 703,
      "flow": 704,
      "fish": 705,
      "ash": 706,
      "ade": 707,
      "covered": 708,
      "ted": 709,
      "erly": 710,
      "catch": 711,
      "ive": 712,
      "tting": 713,
      "inst": 714,
      "basketball": 715,
      "ocean": 716,
      "fire": 717,
      "hill": 718,
      "ouch": 719,
      "watches": 720,
      "during": 721,
      "climbing": 722,
      "motorc": 723,
      "ian": 724,
      "staur": 725,
      "dancing": 726,
      "restaur": 727,
      "bag": 728,
      "bright": 729,
      "kids": 730,
      "aga": 731,
      "ev": 732,
      "round": 733,
      "restaurant": 734,
      "cap": 735,
      "no": 736,
      "ley": 737,
      "roll": 738,
      "outf": 739,
      "smi": 740,
      "ski": 741,
      "against": 742,
      "bal": 743,
      "pack": 744,
      "shirts": 745,
      "ines": 746,
      "full": 747,
      "ated": 748,
      "rides": 749,
      "umbrel": 750,
      "umbrella": 751,
      "um": 752,
      "high": 753,
      "ath": 754,
      "ft": 755,
      "open": 756,
      "elderly": 757,
      "ak": 758,
      "vers": 759,
      "arm": 760,
      "very": 761,
      "lored": 762,
      "market": 763,
      "du": 764,
      "ouse": 765,
      "One": 766,
      "So": 767,
      "wooden": 768,
      "about": 769,
      "trees": 770,
      "ang": 771,
      "having": 772,
      "cell": 773,
      "floor": 774,
      "waiting": 775,
      "instru": 776,
      "they": 777,
      "thers": 778,
      "drin": 779,
      "line": 780,
      "swimming": 781,
      "ew": 782,
      "getting": 783,
      "book": 784,
      "costu": 785,
      "truck": 786,
      "bear": 787,
      "aning": 788,
      "lea": 789,
      "cket": 790,
      "ily": 791,
      "cart": 792,
      "construction": 793,
      "trying": 794,
      "workers": 795,
      "shing": 796,
      "night": 797,
      "motorcycle": 798,
      "ces": 799,
      "rest": 800,
      "ycli": 801,
      "busy": 802,
      "colorful": 803,
      "ows": 804,
      "singing": 805,
      "bes": 806,
      "fence": 807,
      "ride": 808,
      "age": 809,
      "pie": 810,
      "Woman": 811,
      "This": 812,
      "dis": 813,
      "ler": 814,
      "ous": 815,
      "new": 816,
      "ance": 817,
      "stair": 818,
      "body": 819,
      "eps": 820,
      "ip": 821,
      "path": 822,
      "ci": 823,
      "mach": 824,
      "clothe": 825,
      "compet": 826,
      "pol": 827,
      "ons": 828,
      "laying": 829,
      "hats": 830,
      "itchen": 831,
      "Some": 832,
      "pass": 833,
      "ser": 834,
      "less": 835,
      "lau": 836,
      "track": 837,
      "Men": 838,
      "paper": 839,
      "stic": 840,
      "beard": 841,
      "kitchen": 842,
      "others": 843,
      "inside": 844,
      "cour": 845,
      "kick": 846,
      "grassy": 847,
      "eping": 848,
      "gging": 849,
      "cellphone": 850,
      "im": 851,
      "art": 852,
      "river": 853,
      "making": 854,
      "ject": 855,
      "surround": 856,
      "ort": 857,
      "aff": 858,
      "tur": 859,
      "sha": 860,
      "backpack": 861,
      "brick": 862,
      "clothes": 863,
      "mas": 864,
      "als": 865,
      "grap": 866,
      "takes": 867,
      "bik": 868,
      "metal": 869,
      "outfit": 870,
      "fac": 871,
      "rain": 872,
      "big": 873,
      "towards": 874,
      "laugh": 875,
      "ban": 876,
      "ckey": 877,
      "fli": 878,
      "stone": 879,
      "vest": 880,
      "enjoying": 881,
      "coun": 882,
      "cking": 883,
      "ood": 884,
      "box": 885,
      "colored": 886,
      "ny": 887,
      "tic": 888,
      "mes": 889,
      "ope": 890,
      "ready": 891,
      "piece": 892,
      "lap": 893,
      "raw": 894,
      "cas": 895,
      "dd": 896,
      "hard": 897,
      "ates": 898,
      "tank": 899,
      "inter": 900,
      "ster": 901,
      "ors": 902,
      "house": 903,
      "ition": 904,
      "unch": 905,
      "painting": 906,
      "Five": 907,
      "abo": 908,
      "cow": 909,
      "dru": 910,
      "hang": 911,
      "ite": 912,
      "Child": 913,
      "ring": 914,
      "lake": 915,
      "tire": 916,
      "sweater": 917,
      "pare": 918,
      "iti": 919,
      "trick": 920,
      "sub": 921,
      "several": 922,
      "photograp": 923,
      "above": 924,
      "af": 925,
      "frican": 926,
      "brid": 927,
      "bles": 928,
      "view": 929,
      "kne": 930,
      "vol": 931,
      "thered": 932,
      "lot": 933,
      "going": 934,
      "police": 935,
      "fri": 936,
      "lec": 937,
      "many": 938,
      "chas": 939,
      "like": 940,
      "class": 941,
      "onto": 942,
      "ird": 943,
      "bot": 944,
      "snowy": 945,
      "dance": 946,
      "gy": 947,
      "ones": 948,
      "temp": 949,
      "wave": 950,
      "worker": 951,
      "shopping": 952,
      "wheel": 953,
      "cal": 954,
      "coo": 955,
      "fo": 956,
      "gen": 957,
      "ill": 958,
      "sto": 959,
      "uniforms": 960,
      "surrounded": 961,
      "gather": 962,
      "crowded": 963,
      "In": 964,
      "gear": 965,
      "poin": 966,
      "snowboard": 967,
      "teen": 968,
      "smiles": 969,
      "pra": 970,
      "vel": 971,
      "pole": 972,
      "outdoors": 973,
      "beside": 974,
      "friend": 975,
      "todd": 976,
      "convers": 977,
      "adults": 978,
      "roller": 979,
      "Amer": 980,
      "cur": 981,
      "plan": 982,
      "drinking": 983,
      "fam": 984,
      "yard": 985,
      "shoes": 986,
      "den": 987,
      "mon": 988,
      "ments": 989,
      "after": 990,
      "bridge": 991,
      "fall": 992,
      "scar": 993,
      "star": 994,
      "flowers": 995,
      "fountain": 996,
      "ys": 997,
      "gathered": 998,
      "prepar": 999,
      "auti": 1000,
      "leap": 1001,
      "arms": 1002,
      "event": 1003,
      "hanging": 1004,
      "away": 1005,
      "ary": 1006,
      "lder": 1007,
      "prepare": 1008,
      "subway": 1009,
      "African": 1010,
      "carri": 1011,
      "gym": 1012,
      "family": 1013,
      "autiful": 1014,
      "xing": 1015,
      "ening": 1016,
      "graff": 1017,
      "rap": 1018,
      "ballo": 1019,
      "smo": 1020,
      "rope": 1021,
      "preparing": 1022,
      "ph": 1023,
      "leaning": 1024,
      "steps": 1025,
      "hockey": 1026,
      "take": 1027,
      "object": 1028,
      "costume": 1029,
      "toddler": 1030,
      "mat": 1031,
      "attemp": 1032,
      "racing": 1033,
      "offic": 1034,
      "Many": 1035,
      "short": 1036,
      "compu": 1037,
      "forest": 1038,
      "sleeping": 1039,
      "fishing": 1040,
      "does": 1041,
      "make": 1042,
      "trail": 1043,
      "guys": 1044,
      "appear": 1045,
      "graffiti": 1046,
      "pr": 1047,
      "plaid": 1048,
      "machine": 1049,
      "Children": 1050,
      "kis": 1051,
      "beautiful": 1052,
      "sky": 1053,
      "stairs": 1054,
      "cup": 1055,
      "four": 1056,
      "ved": 1057,
      "dies": 1058,
      "American": 1059,
      "bat": 1060,
      "bed": 1061,
      "rail": 1062,
      "chairs": 1063,
      "adult": 1064,
      "gar": 1065,
      "asian": 1066,
      "try": 1067,
      "bre": 1068,
      "bee": 1069,
      "Ch": 1070,
      "fil": 1071,
      "ven": 1072,
      "ined": 1073,
      "too": 1074,
      "ersey": 1075,
      "shirtless": 1076,
      "selling": 1077,
      "pract": 1078,
      "bet": 1079,
      "jersey": 1080,
      "tall": 1081,
      "ste": 1082,
      "stat": 1083,
      "list": 1084,
      "sunny": 1085,
      "rocks": 1086,
      "setting": 1087,
      "aged": 1088,
      "equ": 1089,
      "ari": 1090,
      "lls": 1091,
      "pose": 1092,
      "just": 1093,
      "yclist": 1094,
      "iv": 1095,
      "net": 1096,
      "stance": 1097,
      "ise": 1098,
      "shou": 1099,
      "pot": 1100,
      "scarf": 1101,
      "land": 1102,
      "match": 1103,
      "ron": 1104,
      "tch": 1105,
      "wet": 1106,
      "ery": 1107,
      "lead": 1108,
      "both": 1109,
      "ramp": 1110,
      "putting": 1111,
      "corner": 1112,
      "volley": 1113,
      "gentle": 1114,
      "equip": 1115,
      "numb": 1116,
      "isbee": 1117,
      "throwing": 1118,
      "pushing": 1119,
      "tent": 1120,
      "clu": 1121,
      "flip": 1122,
      "bor": 1123,
      "fet": 1124,
      "sed": 1125,
      "blic": 1126,
      "time": 1127,
      "parade": 1128,
      "public": 1129,
      "have": 1130,
      "drink": 1131,
      "slide": 1132,
      "ween": 1133,
      "between": 1134,
      "volleyball": 1135,
      "couch": 1136,
      "row": 1137,
      "hicle": 1138,
      "stop": 1139,
      "ladies": 1140,
      "scen": 1141,
      "laughing": 1142,
      "lf": 1143,
      "med": 1144,
      "show": 1145,
      "fruit": 1146,
      "someone": 1147,
      "reads": 1148,
      "flag": 1149,
      "instruments": 1150,
      "computer": 1151,
      "equipment": 1152,
      "squ": 1153,
      "vend": 1154,
      "chool": 1155,
      "home": 1156,
      "vehicle": 1157,
      "bikes": 1158,
      "pictures": 1159,
      "where": 1160,
      "cra": 1161,
      "glo": 1162,
      "happ": 1163,
      "plastic": 1164,
      "woods": 1165,
      "spea": 1166,
      "photograph": 1167,
      "bottle": 1168,
      "bird": 1169,
      "pat": 1170,
      "pad": 1171,
      "ure": 1172,
      "reach": 1173,
      "which": 1174,
      "ally": 1175,
      "playground": 1176,
      "poses": 1177,
      "works": 1178,
      "party": 1179,
      "concre": 1180,
      "sweatshirt": 1181,
      "concrete": 1182,
      "ctor": 1183,
      "gold": 1184,
      "dock": 1185,
      "feren": 1186,
      "statue": 1187,
      "low": 1188,
      "ward": 1189,
      "winter": 1190,
      "midair": 1191,
      "ggles": 1192,
      "Bo": 1193,
      "ium": 1194,
      "sil": 1195,
      "wr": 1196,
      "suits": 1197,
      "ini": 1198,
      "bucket": 1199,
      "skirt": 1200,
      "scope": 1201,
      "cowboy": 1202,
      "number": 1203,
      "emp": 1204,
      "ix": 1205,
      "tat": 1206,
      "ators": 1207,
      "blo": 1208,
      "veget": 1209,
      "tive": 1210,
      "distance": 1211,
      "Gr": 1212,
      "din": 1213,
      "ki": 1214,
      "tte": 1215,
      "what": 1216,
      "anim": 1217,
      "attire": 1218,
      "place": 1219,
      "right": 1220,
      "shes": 1221,
      "seated": 1222,
      "bags": 1223,
      "prote": 1224,
      "cream": 1225,
      "school": 1226,
      "ins": 1227,
      "left": 1228,
      "lad": 1229,
      "site": 1230,
      "rist": 1231,
      "spor": 1232,
      "spect": 1233,
      "slid": 1234,
      "lined": 1235,
      "ps": 1236,
      "enter": 1237,
      "edge": 1238,
      "blan": 1239,
      "beer": 1240,
      "vests": 1241,
      "wait": 1242,
      "struc": 1243,
      "cutting": 1244,
      "kneel": 1245,
      "cooking": 1246,
      "filled": 1247,
      "Fr": 1248,
      "draw": 1249,
      "mil": 1250,
      "ned": 1251,
      "ops": 1252,
      "buildings": 1253,
      "pulling": 1254,
      "cliff": 1255,
      "newsp": 1256,
      "Lit": 1257,
      "gare": 1258,
      "kers": 1259,
      "ry": 1260,
      "let": 1261,
      "station": 1262,
      "alley": 1263,
      "ese": 1264,
      "grill": 1265,
      "hot": 1266,
      "rider": 1267,
      "bowl": 1268,
      "cigare": 1269,
      "Little": 1270,
      "Girl": 1271,
      "bare": 1272,
      "ters": 1273,
      "wrest": 1274,
      "roof": 1275,
      "but": 1276,
      "close": 1277,
      "cheer": 1278,
      "appears": 1279,
      "break": 1280,
      "practic": 1281,
      "tattoo": 1282,
      "vegeta": 1283,
      "ghts": 1284,
      "showing": 1285,
      "mountains": 1286,
      "crossing": 1287,
      "instrument": 1288,
      "court": 1289,
      "blanket": 1290,
      "mul": 1291,
      "bub": 1292,
      "fight": 1293,
      "bathing": 1294,
      "cut": 1295,
      "paint": 1296,
      "structure": 1297,
      "elec": 1298,
      "pet": 1299,
      "len": 1300,
      "offe": 1301,
      "ical": 1302,
      "dresses": 1303,
      "nearby": 1304,
      "performs": 1305,
      "horses": 1306,
      "Women": 1307,
      "Indi": 1308,
      "electr": 1309,
      "ham": 1310,
      "ign": 1311,
      "pair": 1312,
      "rela": 1313,
      "see": 1314,
      "apron": 1315,
      "few": 1316,
      "cert": 1317,
      "driving": 1318,
      "flower": 1319,
      "yclists": 1320,
      "country": 1321,
      "friends": 1322,
      "carries": 1323,
      "Frisbee": 1324,
      "ds": 1325,
      "ie": 1326,
      "por": 1327,
      "uses": 1328,
      "vari": 1329,
      "wing": 1330,
      "res": 1331,
      "sty": 1332,
      "tial": 1333,
      "goal": 1334,
      "shore": 1335,
      "bowling": 1336,
      "leaves": 1337,
      "Group": 1338,
      "offee": 1339,
      "hood": 1340,
      "iz": 1341,
      "arts": 1342,
      "key": 1343,
      "cars": 1344,
      "parked": 1345,
      "boots": 1346,
      "painted": 1347,
      "dents": 1348,
      "cigarette": 1349,
      "Person": 1350,
      "ker": 1351,
      "mir": 1352,
      "mother": 1353,
      "wash": 1354,
      "hit": 1355,
      "tele": 1356,
      "railing": 1357,
      "bru": 1358,
      "goggles": 1359,
      "mud": 1360,
      "shot": 1361,
      "cake": 1362,
      "smile": 1363,
      "display": 1364,
      "snowboarder": 1365,
      "vendor": 1366,
      "gun": 1367,
      "ight": 1368,
      "vis": 1369,
      "law": 1370,
      "talks": 1371,
      "martial": 1372,
      "flying": 1373,
      "skateboarder": 1374,
      "drums": 1375,
      "smoking": 1376,
      "phones": 1377,
      "av": 1378,
      "coffee": 1379,
      "lying": 1380,
      "wed": 1381,
      "gaz": 1382,
      "dire": 1383,
      "concert": 1384,
      "rocky": 1385,
      "eyes": 1386,
      "drum": 1387,
      "bunch": 1388,
      "fun": 1389,
      "fferen": 1390,
      "spla": 1391,
      "ghting": 1392,
      "younger": 1393,
      "coming": 1394,
      "tie": 1395,
      "jackets": 1396,
      "waves": 1397,
      "safet": 1398,
      "swinging": 1399,
      "flags": 1400,
      "kicking": 1401,
      "conversation": 1402,
      "prepares": 1403,
      "newspaper": 1404,
      "safety": 1405,
      "fen": 1406,
      "pitch": 1407,
      "use": 1408,
      "arti": 1409,
      "ats": 1410,
      "rode": 1411,
      "cement": 1412,
      "parking": 1413,
      "differen": 1414,
      "audi": 1415,
      "costumes": 1416,
      "case": 1417,
      "gentleman": 1418,
      "gloves": 1419,
      "spectators": 1420,
      "practicing": 1421,
      "mers": 1422,
      "this": 1423,
      "onlook": 1424,
      "there": 1425,
      "cleaning": 1426,
      "scoo": 1427,
      "pres": 1428,
      "surfer": 1429,
      "competition": 1430,
      "bearded": 1431,
      "listening": 1432,
      "scene": 1433,
      "Boy": 1434,
      "ladder": 1435,
      "different": 1436,
      "ians": 1437,
      "pon": 1438,
      "say": 1439,
      "sting": 1440,
      "cha": 1441,
      "coll": 1442,
      "bull": 1443,
      "neck": 1444,
      "swe": 1445,
      "spra": 1446,
      "skateboarding": 1447,
      "mask": 1448,
      "items": 1449,
      "staring": 1450,
      "ids": 1451,
      "idu": 1452,
      "rais": 1453,
      "meal": 1454,
      "sion": 1455,
      "pile": 1456,
      "bicycles": 1457,
      "dry": 1458,
      "check": 1459,
      "plat": 1460,
      "giving": 1461,
      "surfboard": 1462,
      "desk": 1463,
      "turn": 1464,
      "bikini": 1465,
      "balloon": 1466,
      "empty": 1467,
      "various": 1468,
      "lawn": 1469,
      "audience": 1470,
      "Con": 1471,
      "port": 1472,
      "itary": 1473,
      "ette": 1474,
      "among": 1475,
      "gets": 1476,
      "drinks": 1477,
      "Someone": 1478,
      "leaps": 1479,
      "rodeo": 1480,
      "onlookers": 1481,
      "card": 1482,
      "ered": 1483,
      "ial": 1484,
      "kay": 1485,
      "nic": 1486,
      "zz": 1487,
      "lay": 1488,
      "gathering": 1489,
      "pointing": 1490,
      "silver": 1491,
      "sliding": 1492,
      "vegetables": 1493,
      "platform": 1494,
      "bb": 1495,
      "cers": 1496,
      "fing": 1497,
      "made": 1498,
      "sof": 1499,
      "eng": 1500,
      "ess": 1501,
      "shoo": 1502,
      "ural": 1503,
      "sold": 1504,
      "streets": 1505,
      "feet": 1506,
      "screen": 1507,
      "trad": 1508,
      "viol": 1509,
      "obser": 1510,
      "iness": 1511,
      "facing": 1512,
      "counter": 1513,
      "chasing": 1514,
      "teenag": 1515,
      "sports": 1516,
      "Indian": 1517,
      "cy": 1518,
      "cir": 1519,
      "que": 1520,
      "before": 1521,
      "waters": 1522,
      "stretch": 1523,
      "nel": 1524,
      "indiv": 1525,
      "ulp": 1526,
      "helmets": 1527,
      "competing": 1528,
      "biker": 1529,
      "happy": 1530,
      "speaking": 1531,
      "wedding": 1532,
      "individu": 1533,
      "Six": 1534,
      "eth": 1535,
      "ken": 1536,
      "mall": 1537,
      "ining": 1538,
      "lights": 1539,
      "sculp": 1540,
      "shovel": 1541,
      "tries": 1542,
      "teams": 1543,
      "huge": 1544,
      "surfing": 1545,
      "cano": 1546,
      "athle": 1547,
      "laptop": 1548,
      "classroom": 1549,
      "tradition": 1550,
      "ast": 1551,
      "ced": 1552,
      "pes": 1553,
      "ton": 1554,
      "tun": 1555,
      "vide": 1556,
      "wrap": 1557,
      "memb": 1558,
      "bride": 1559,
      "fighting": 1560,
      "sings": 1561,
      "waits": 1562,
      "decor": 1563,
      "students": 1564,
      "business": 1565,
      "climbs": 1566,
      "purse": 1567,
      "produ": 1568,
      "sticks": 1569,
      "athon": 1570,
      "traditional": 1571,
      "mi": 1572,
      "sled": 1573,
      "shad": 1574,
      "seen": 1575,
      "part": 1576,
      "crouch": 1577,
      "clown": 1578,
      "plane": 1579,
      "kissing": 1580,
      "animal": 1581,
      "military": 1582,
      "cts": 1583,
      "son": 1584,
      "town": 1585,
      "trun": 1586,
      "well": 1587,
      "stroller": 1588,
      "oper": 1589,
      "hole": 1590,
      "cover": 1591,
      "urban": 1592,
      "walkway": 1593,
      "throw": 1594,
      "skating": 1595,
      "chef": 1596,
      "same": 1597,
      "writing": 1598,
      "Wor": 1599,
      "ked": 1600,
      "allow": 1601,
      "sea": 1602,
      "diving": 1603,
      "sunset": 1604,
      "females": 1605,
      "exam": 1606,
      "skier": 1607,
      "shoulder": 1608,
      "kneeling": 1609,
      "video": 1610,
      "bur": 1611,
      "chi": 1612,
      "cand": 1613,
      "gard": 1614,
      "hoo": 1615,
      "ror": 1616,
      "sup": 1617,
      "sort": 1618,
      "indoor": 1619,
      "ator": 1620,
      "life": 1621,
      "runner": 1622,
      "partic": 1623,
      "waving": 1624,
      "talk": 1625,
      "golf": 1626,
      "chest": 1627,
      "attempting": 1628,
      "ristmas": 1629,
      "barefoot": 1630,
      "scooter": 1631,
      "soldi": 1632,
      "ges": 1633,
      "ien": 1634,
      "lan": 1635,
      "pas": 1636,
      "rink": 1637,
      "touch": 1638,
      "leash": 1639,
      "blowing": 1640,
      "com": 1641,
      "makes": 1642,
      "tables": 1643,
      "cloth": 1644,
      "father": 1645,
      "marathon": 1646,
      "camp": 1647,
      "signs": 1648,
      "clou": 1649,
      "enjoy": 1650,
      "outfits": 1651,
      "balan": 1652,
      "resting": 1653,
      "course": 1654,
      "electric": 1655,
      "violin": 1656,
      "cat": 1657,
      "ies": 1658,
      "leg": 1659,
      "lebr": 1660,
      "adver": 1661,
      "celebr": 1662,
      "lies": 1663,
      "five": 1664,
      "overlooking": 1665,
      "cuss": 1666,
      "bald": 1667,
      "inese": 1668,
      "fully": 1669,
      "officer": 1670,
      "multic": 1671,
      "bubbles": 1672,
      "mirror": 1673,
      "says": 1674,
      "advert": 1675,
      "cont": 1676,
      "gre": 1677,
      "har": 1678,
      "leans": 1679,
      "atten": 1680,
      "stun": 1681,
      "ching": 1682,
      "rolling": 1683,
      "fixing": 1684,
      "pier": 1685,
      "custo": 1686,
      "foll": 1687,
      "gymna": 1688,
      "balloons": 1689,
      "collar": 1690,
      "able": 1691,
      "fin": 1692,
      "ist": 1693,
      "pen": 1694,
      "tack": 1695,
      "ative": 1696,
      "alone": 1697,
      "tool": 1698,
      "gro": 1699,
      "rol": 1700,
      "helping": 1701,
      "micro": 1702,
      "foreground": 1703,
      "musicians": 1704,
      "deser": 1705,
      "brightly": 1706,
      "not": 1707,
      "umbrellas": 1708,
      "leather": 1709,
      "discuss": 1710,
      "faces": 1711,
      "artist": 1712,
      "Construction": 1713,
      "dau": 1714,
      "good": 1715,
      "ners": 1716,
      "vice": 1717,
      "leep": 1718,
      "legs": 1719,
      "stad": 1720,
      "asleep": 1721,
      "meat": 1722,
      "load": 1723,
      "die": 1724,
      "headphones": 1725,
      "ffic": 1726,
      "plate": 1727,
      "giant": 1728,
      "prin": 1729,
      "sculpture": 1730,
      "canoe": 1731,
      "particip": 1732,
      "daught": 1733,
      "Do": 1734,
      "ctive": 1735,
      "dra": 1736,
      "dish": 1737,
      "olored": 1738,
      "sy": 1739,
      "van": 1740,
      "repair": 1741,
      "str": 1742,
      "ched": 1743,
      "chur": 1744,
      "heav": 1745,
      "wears": 1746,
      "mel": 1747,
      "tail": 1748,
      "office": 1749,
      "trash": 1750,
      "doorway": 1751,
      "guard": 1752,
      "sandals": 1753,
      "swings": 1754,
      "slee": 1755,
      "falling": 1756,
      "drawing": 1757,
      "washing": 1758,
      "passing": 1759,
      "grocer": 1760,
      "stadium": 1761,
      "He": 1762,
      "ddle": 1763,
      "fts": 1764,
      "lu": 1765,
      "val": 1766,
      "ref": 1767,
      "hiking": 1768,
      "string": 1769,
      "held": 1770,
      "accor": 1771,
      "move": 1772,
      "heads": 1773,
      "stuff": 1774,
      "comple": 1775,
      "toys": 1776,
      "musical": 1777,
      "skiing": 1778,
      "officers": 1779,
      "hammer": 1780,
      "multicolored": 1781,
      "accordi": 1782,
      "fur": 1783,
      "hall": 1784,
      "kn": 1785,
      "min": 1786,
      "py": 1787,
      "inclu": 1788,
      "mance": 1789,
      "formance": 1790,
      "sel": 1791,
      "throws": 1792,
      "males": 1793,
      "sca": 1794,
      "picking": 1795,
      "performance": 1796,
      "spend": 1797,
      "shoe": 1798,
      "booth": 1799,
      "dirty": 1800,
      "photographer": 1801,
      "teenage": 1802,
      "prof": 1803,
      "reaching": 1804,
      "finish": 1805,
      "church": 1806,
      "accordion": 1807,
      "Whi": 1808,
      "cting": 1809,
      "fan": 1810,
      "fra": 1811,
      "hear": 1812,
      "ima": 1813,
      "pond": 1814,
      "ering": 1815,
      "straw": 1816,
      "laun": 1817,
      "below": 1818,
      "shallow": 1819,
      "veling": 1820,
      "clean": 1821,
      "digging": 1822,
      "traffic": 1823,
      "most": 1824,
      "flu": 1825,
      "eye": 1826,
      "pati": 1827,
      "block": 1828,
      "present": 1829,
      "daughter": 1830,
      "gate": 1831,
      "how": 1832,
      "ige": 1833,
      "igh": 1834,
      "kha": 1835,
      "nap": 1836,
      "pour": 1837,
      "ater": 1838,
      "atop": 1839,
      "ature": 1840,
      "ens": 1841,
      "lders": 1842,
      "teach": 1843,
      "pea": 1844,
      "upside": 1845,
      "brun": 1846,
      "moving": 1847,
      "dancers": 1848,
      "project": 1849,
      "hugging": 1850,
      "gives": 1851,
      "catching": 1852,
      "catches": 1853,
      "passes": 1854,
      "relaxing": 1855,
      "direction": 1856,
      "soft": 1857,
      "tunnel": 1858,
      "microscope": 1859,
      "Bla": 1860,
      "Gu": 1861,
      "aster": 1862,
      "bro": 1863,
      "dun": 1864,
      "ele": 1865,
      "hou": 1866,
      "kar": 1867,
      "pup": 1868,
      "pul": 1869,
      "stor": 1870,
      "allen": 1871,
      "lab": 1872,
      "ession": 1873,
      "ches": 1874,
      "robe": 1875,
      "hoop": 1876,
      "bly": 1877,
      "beige": 1878,
      "shows": 1879,
      "self": 1880,
      "balls": 1881,
      "paved": 1882,
      "pill": 1883,
      "deep": 1884,
      "els": 1885,
      "cau": 1886,
      "cafe": 1887,
      "books": 1888,
      "sleeps": 1889,
      "flies": 1890,
      "leaping": 1891,
      "Christmas": 1892,
      "Chinese": 1893,
      "sweeping": 1894,
      "garden": 1895,
      "stunt": 1896,
      "brunette": 1897,
      "bin": 1898,
      "ber": 1899,
      "estri": 1900,
      "hur": 1901,
      "lone": 1902,
      "step": 1903,
      "teeth": 1904,
      "hose": 1905,
      "cold": 1906,
      "stream": 1907,
      "post": 1908,
      "skin": 1909,
      "singer": 1910,
      "fest": 1911,
      "scaff": 1912,
      "flat": 1913,
      "coats": 1914,
      "conversing": 1915,
      "wards": 1916,
      "chain": 1917,
      "circle": 1918,
      "trunks": 1919,
      "hoodie": 1920,
      "desert": 1921,
      "St": 1922,
      "cri": 1923,
      "cyclist": 1924,
      "fair": 1925,
      "lers": 1926,
      "ness": 1927,
      "war": 1928,
      "stack": 1929,
      "alls": 1930,
      "racket": 1931,
      "ried": 1932,
      "neath": 1933,
      "formal": 1934,
      "contain": 1935,
      "closed": 1936,
      "deck": 1937,
      "stud": 1938,
      "jogging": 1939,
      "underneath": 1940,
      "suspend": 1941,
      "wea": 1942,
      "balcon": 1943,
      "points": 1944,
      "plants": 1945,
      "square": 1946,
      "wrestling": 1947,
      "telescope": 1948,
      "splashing": 1949,
      "covering": 1950,
      "sleeve": 1951,
      "Black": 1952,
      "karate": 1953,
      "Kids": 1954,
      "fre": 1955,
      "fting": 1956,
      "fant": 1957,
      "ger": 1958,
      "us": 1959,
      "without": 1960,
      "cho": 1961,
      "ophone": 1962,
      "appro": 1963,
      "magaz": 1964,
      "gage": 1965,
      "tramp": 1966,
      "dances": 1967,
      "must": 1968,
      "ggling": 1969,
      "themsel": 1970,
      "oline": 1971,
      "sax": 1972,
      "nival": 1973,
      "hula": 1974,
      "cane": 1975,
      "passeng": 1976,
      "curly": 1977,
      "shoulders": 1978,
      "padd": 1979,
      "spray": 1980,
      "including": 1981,
      "themselves": 1982,
      "Co": 1983,
      "Old": 1984,
      "Small": 1985,
      "bun": 1986,
      "kind": 1987,
      "mural": 1988,
      "pin": 1989,
      "tong": 1990,
      "wine": 1991,
      "zed": 1992,
      "ina": 1993,
      "erman": 1994,
      "hiker": 1995,
      "atta": 1996,
      "entr": 1997,
      "opposing": 1998,
      "ung": 1999,
      "taken": 2000,
      "carnival": 2001,
      "clear": 2002,
      "crying": 2003,
      "bath": 2004,
      "moto": 2005,
      "bicyclist": 2006,
      "wooded": 2007,
      "tricks": 2008,
      "crosswalk": 2009,
      "sheet": 2010,
      "opening": 2011,
      "makeup": 2012,
      "matching": 2013,
      "dinner": 2014,
      "kayak": 2015,
      "individuals": 2016,
      "produce": 2017,
      "Workers": 2018,
      "heavy": 2019,
      "pulled": 2020,
      "trampoline": 2021,
      "fly": 2022,
      "nice": 2023,
      "spot": 2024,
      "inspe": 2025,
      "infant": 2026,
      "rece": 2027,
      "stroll": 2028,
      "ower": 2029,
      "eding": 2030,
      "gra": 2031,
      "seat": 2032,
      "sewing": 2033,
      "tub": 2034,
      "picnic": 2035,
      "dles": 2036,
      "performer": 2037,
      "surface": 2038,
      "help": 2039,
      "nose": 2040,
      "cial": 2041,
      "knee": 2042,
      "attempts": 2043,
      "leaders": 2044,
      "brush": 2045,
      "members": 2046,
      "stuffed": 2047,
      "profession": 2048,
      "Bl": 2049,
      "center": 2050,
      "drop": 2051,
      "ire": 2052,
      "lunch": 2053,
      "press": 2054,
      "vil": 2055,
      "inning": 2056,
      "third": 2057,
      "lays": 2058,
      "ital": 2059,
      "icycle": 2060,
      "blouse": 2061,
      "lly": 2062,
      "bel": 2063,
      "bever": 2064,
      "log": 2065,
      "rug": 2066,
      "These": 2067,
      "pushes": 2068,
      "goes": 2069,
      "himself": 2070,
      "exc": 2071,
      "slope": 2072,
      "driver": 2073,
      "chases": 2074,
      "botto": 2075,
      "button": 2076,
      "style": 2077,
      "softball": 2078,
      "estrians": 2079,
      "festiv": 2080,
      "balcony": 2081,
      "approach": 2082,
      "AT": 2083,
      "bble": 2084,
      "mop": 2085,
      "mate": 2086,
      "ot": 2087,
      "pal": 2088,
      "za": 2089,
      "ited": 2090,
      "ares": 2091,
      "ashi": 2092,
      "live": 2093,
      "lift": 2094,
      "waterfall": 2095,
      "skis": 2096,
      "put": 2097,
      "puts": 2098,
      "pulls": 2099,
      "sprink": 2100,
      "device": 2101,
      "bent": 2102,
      "sandy": 2103,
      "type": 2104,
      "staircase": 2105,
      "boxes": 2106,
      "steep": 2107,
      "club": 2108,
      "speaks": 2109,
      "athlete": 2110,
      "advertise": 2111,
      "Br": 2112,
      "Ma": 2113,
      "don": 2114,
      "fallen": 2115,
      "gon": 2116,
      "hal": 2117,
      "ka": 2118,
      "lid": 2119,
      "ns": 2120,
      "pit": 2121,
      "angs": 2122,
      "atting": 2123,
      "stool": 2124,
      "alk": 2125,
      "irts": 2126,
      "robes": 2127,
      "ship": 2128,
      "podi": 2129,
      "overalls": 2130,
      "puddle": 2131,
      "pick": 2132,
      "dancer": 2133,
      "swims": 2134,
      "boats": 2135,
      "enjoys": 2136,
      "design": 2137,
      "drives": 2138,
      "shaking": 2139,
      "wetsuit": 2140,
      "keyboard": 2141,
      "gymnast": 2142,
      "grocery": 2143,
      "scape": 2144,
      "Guy": 2145,
      "fresh": 2146,
      "festival": 2147,
      "New": 2148,
      "Older": 2149,
      "bs": 2150,
      "bou": 2151,
      "farm": 2152,
      "hangs": 2153,
      "jam": 2154,
      "mound": 2155,
      "sco": 2156,
      "onic": 2157,
      "hikers": 2158,
      "grind": 2159,
      "shar": 2160,
      "vement": 2161,
      "apan": 2162,
      "apers": 2163,
      "figu": 2164,
      "tracks": 2165,
      "pian": 2166,
      "headed": 2167,
      "jean": 2168,
      "marching": 2169,
      "bicyclists": 2170,
      "cted": 2171,
      "compan": 2172,
      "ledge": 2173,
      "barbe": 2174,
      "kicks": 2175,
      "shaving": 2176,
      "curb": 2177,
      "garb": 2178,
      "gentlemen": 2179,
      "birds": 2180,
      "porch": 2181,
      "pitcher": 2182,
      "fingers": 2183,
      "teenagers": 2184,
      "wrapped": 2185,
      "cloudy": 2186,
      "customers": 2187,
      "laundry": 2188,
      "pouring": 2189,
      "San": 2190,
      "amp": 2191,
      "bra": 2192,
      "care": 2193,
      "fashi": 2194,
      "ggage": 2195,
      "ls": 2196,
      "enga": 2197,
      "orien": 2198,
      "chalk": 2199,
      "oppo": 2200,
      "arena": 2201,
      "groom": 2202,
      "ears": 2203,
      "shap": 2204,
      "airplane": 2205,
      "lots": 2206,
      "local": 2207,
      "bric": 2208,
      "apart": 2209,
      "polo": 2210,
      "poles": 2211,
      "backyard": 2212,
      "moves": 2213,
      "scu": 2214,
      "shoveling": 2215,
      "cular": 2216,
      "checking": 2217,
      "saw": 2218,
      "sale": 2219,
      "foreign": 2220,
      "colors": 2221,
      "sheep": 2222,
      "evening": 2223,
      "chase": 2224,
      "reaches": 2225,
      "golden": 2226,
      "blocks": 2227,
      "protective": 2228,
      "shooting": 2229,
      "teenager": 2230,
      "Here": 2231,
      "khaki": 2232,
      "paddling": 2233,
      "attached": 2234,
      "palm": 2235,
      "podium": 2236,
      "piano": 2237,
      "oriental": 2238,
      "opposite": 2239,
      "\".": 2240,
      "Japan": 2241,
      "bit": 2242,
      "bread": 2243,
      "ef": 2244,
      "ei": 2245,
      "emb": 2246,
      "far": 2247,
      "gan": 2248,
      "ged": 2249,
      "olding": 2250,
      "range": 2251,
      "swor": 2252,
      "tou": 2253,
      "vac": 2254,
      "was": 2255,
      "yo": 2256,
      "inflat": 2257,
      "recor": 2258,
      "arrow": 2259,
      "oufla": 2260,
      "stle": 2261,
      "ising": 2262,
      "itor": 2263,
      "oppon": 2264,
      "grab": 2265,
      "sition": 2266,
      "rack": 2267,
      "raft": 2268,
      "oney": 2269,
      "sell": 2270,
      "bran": 2271,
      "poss": 2272,
      "poster": 2273,
      "position": 2274,
      "fix": 2275,
      "skirts": 2276,
      "pajam": 2277,
      "pavement": 2278,
      "bage": 2279,
      "cones": 2280,
      "camoufla": 2281,
      "fabric": 2282,
      "del": 2283,
      "tory": 2284,
      "bandan": 2285,
      "windows": 2286,
      "wheelchair": 2287,
      "denim": 2288,
      "fenced": 2289,
      "balancing": 2290,
      "luggage": 2291,
      "saxophone": 2292,
      "tongue": 2293,
      "fashion": 2294,
      "inflatable": 2295,
      "camouflage": 2296,
      "aks": 2297,
      "cool": 2298,
      "flight": 2299,
      "mmer": 2300,
      "tro": 2301,
      "ane": 2302,
      "refe": 2303,
      "ork": 2304,
      "escal": 2305,
      "char": 2306,
      "test": 2307,
      "meet": 2308,
      "beam": 2309,
      "shade": 2310,
      "buying": 2311,
      "amer": 2312,
      "juggling": 2313,
      "tractor": 2314,
      "pipe": 2315,
      "eats": 2316,
      "tops": 2317,
      "fast": 2318,
      "married": 2319,
      "walls": 2320,
      "flor": 2321,
      "swimsuit": 2322,
      "tyard": 2323,
      "floating": 2324,
      "rollers": 2325,
      "motorcycles": 2326,
      "courtyard": 2327,
      "laughs": 2328,
      "kiss": 2329,
      "railroad": 2330,
      "leading": 2331,
      "goalie": 2332,
      "ized": 2333,
      "raised": 2334,
      "finger": 2335,
      "frame": 2336,
      "image": 2337,
      "skinned": 2338,
      "professional": 2339,
      "bottom": 2340,
      "cue": 2341,
      "fir": 2342,
      "fold": 2343,
      "lines": 2344,
      "my": 2345,
      "map": 2346,
      "mix": 2347,
      "spo": 2348,
      "tar": 2349,
      "wk": 2350,
      "wel": 2351,
      "oustic": 2352,
      "toss": 2353,
      "eds": 2354,
      "rac": 2355,
      "rists": 2356,
      "shown": 2357,
      "socks": 2358,
      "bucking": 2359,
      "tiple": 2360,
      "carpet": 2361,
      "achu": 2362,
      "backwards": 2363,
      "six": 2364,
      "riders": 2365,
      "tube": 2366,
      "action": 2367,
      "acoustic": 2368,
      "trans": 2369,
      "ggy": 2370,
      "sail": 2371,
      "plant": 2372,
      "speak": 2373,
      "towel": 2374,
      "float": 2375,
      "musician": 2376,
      "ages": 2377,
      "firefight": 2378,
      "eved": 2379,
      "marketplace": 2380,
      "casu": 2381,
      "carriage": 2382,
      "garbage": 2383,
      "jerseys": 2384,
      "happily": 2385,
      "entertain": 2386,
      "cheering": 2387,
      "relax": 2388,
      "stretched": 2389,
      "soldier": 2390,
      "soldiers": 2391,
      "touching": 2392,
      "tools": 2393,
      "goods": 2394,
      "Dog": 2395,
      "peace": 2396,
      "hurdle": 2397,
      "scaffolding": 2398,
      "suspended": 2399,
      "mustach": 2400,
      "Santa": 2401,
      "either": 2402,
      "pajamas": 2403,
      "bandanna": 2404,
      "american": 2405,
      "floral": 2406,
      "rollersk": 2407,
      "At": 2408,
      "boun": 2409,
      "da": 2410,
      "egg": 2411,
      "emer": 2412,
      "fans": 2413,
      "ging": 2414,
      "hers": 2415,
      "hay": 2416,
      "hones": 2417,
      "if": 2418,
      "oc": 2419,
      "sal": 2420,
      "ze": 2421,
      "invol": 2422,
      "thumb": 2423,
      "isher": 2424,
      "orn": 2425,
      "chop": 2426,
      "gri": 2427,
      "plaza": 2428,
      "ics": 2429,
      "doctor": 2430,
      "bling": 2431,
      "coach": 2432,
      "mpet": 2433,
      "airport": 2434,
      "living": 2435,
      "broom": 2436,
      "parachu": 2437,
      "rubb": 2438,
      "snack": 2439,
      "lymp": 2440,
      "act": 2441,
      "acting": 2442,
      "stacle": 2443,
      "odd": 2444,
      "ations": 2445,
      "Seven": 2446,
      "colle": 2447,
      "paints": 2448,
      "underwater": 2449,
      "corn": 2450,
      "barrel": 2451,
      "welding": 2452,
      "sleeved": 2453,
      "obstacle": 2454,
      "desc": 2455,
      "serving": 2456,
      "backpacks": 2457,
      "stove": 2458,
      "landscape": 2459,
      "dining": 2460,
      "animals": 2461,
      "kneels": 2462,
      "bubble": 2463,
      "hooded": 2464,
      "athletic": 2465,
      "White": 2466,
      "caught": 2467,
      "magazine": 2468,
      "rugby": 2469,
      "advertisement": 2470,
      "Male": 2471,
      "escalator": 2472,
      ".\"": 2473,
      "Ar": 2474,
      "Cr": 2475,
      "Che": 2476,
      "German": 2477,
      "cling": 2478,
      "free": 2479,
      "money": 2480,
      "nu": 2481,
      "sid": 2482,
      "vy": 2483,
      "vic": 2484,
      "inters": 2485,
      "rests": 2486,
      "iron": 2487,
      "heels": 2488,
      "cere": 2489,
      "liqu": 2490,
      "neon": 2491,
      "amuse": 2492,
      "runners": 2493,
      "thrown": 2494,
      "tery": 2495,
      "mobi": 2496,
      "pige": 2497,
      "hawk": 2498,
      "bending": 2499,
      "ropes": 2500,
      "ffy": 2501,
      "jockey": 2502,
      "climber": 2503,
      "exer": 2504,
      "weight": 2505,
      "trumpet": 2506,
      "drive": 2507,
      "polka": 2508,
      "shaw": 2509,
      "casian": 2510,
      "rollerbla": 2511,
      "seems": 2512,
      "brushing": 2513,
      "pony": 2514,
      "neckla": 2515,
      "checkered": 2516,
      "decorated": 2517,
      "operating": 2518,
      "examining": 2519,
      "chestra": 2520,
      "participating": 2521,
      "student": 2522,
      "gravel": 2523,
      "half": 2524,
      "shaped": 2525,
      "referee": 2526,
      "grilling": 2527,
      "amusement": 2528,
      "Jo": 2529,
      "Lo": 2530,
      "Mo": 2531,
      "York": 2532,
      "aw": 2533,
      "cone": 2534,
      "cyclists": 2535,
      "ech": 2536,
      "fle": 2537,
      "gas": 2538,
      "hy": 2539,
      "hound": 2540,
      "jung": 2541,
      "pine": 2542,
      "rout": 2543,
      "rowing": 2544,
      "spa": 2545,
      "warm": 2546,
      "ye": 2547,
      "youth": 2548,
      "zer": 2549,
      "thin": 2550,
      "ars": 2551,
      "hitting": 2552,
      "wire": 2553,
      "wide": 2554,
      "order": 2555,
      "orchestra": 2556,
      "gestu": 2557,
      "beg": 2558,
      "ribb": 2559,
      "shed": 2560,
      "frisbee": 2561,
      "loc": 2562,
      "ilt": 2563,
      "throom": 2564,
      "feeding": 2565,
      "bathroom": 2566,
      "dio": 2567,
      "tum": 2568,
      "things": 2569,
      "model": 2570,
      "wagon": 2571,
      "pull": 2572,
      "headscarf": 2573,
      "haircut": 2574,
      "sport": 2575,
      "pedestrians": 2576,
      "camel": 2577,
      "studio": 2578,
      "ends": 2579,
      "benches": 2580,
      "sandwi": 2581,
      "sets": 2582,
      "summer": 2583,
      "sticking": 2584,
      "dump": 2585,
      "compete": 2586,
      "turning": 2587,
      "bank": 2588,
      "boxing": 2589,
      "attempt": 2590,
      "practice": 2591,
      "vehicles": 2592,
      "craft": 2593,
      "photographs": 2594,
      "patter": 2595,
      "protest": 2596,
      "muddy": 2597,
      "vision": 2598,
      "individual": 2599,
      "crouches": 2600,
      "candy": 2601,
      "control": 2602,
      "harness": 2603,
      "print": 2604,
      "reflec": 2605,
      "hallway": 2606,
      "knit": 2607,
      "heart": 2608,
      "presentation": 2609,
      "teacher": 2610,
      "recei": 2611,
      "excited": 2612,
      "sharing": 2613,
      "Japanese": 2614,
      "opponent": 2615,
      "possi": 2616,
      "mobile": 2617,
      "exerc": 2618,
      "jungle": 2619,
      "Ho": 2620,
      "Mar": 2621,
      "Olymp": 2622,
      "ais": 2623,
      "ded": 2624,
      "een": 2625,
      "eli": 2626,
      "ext": 2627,
      "ig": 2628,
      "native": 2629,
      "pers": 2630,
      "sack": 2631,
      "sink": 2632,
      "xi": 2633,
      "you": 2634,
      "yhound": 2635,
      "iny": 2636,
      "inten": 2637,
      "inery": 2638,
      "only": 2639,
      "aters": 2640,
      "start": 2641,
      "also": 2642,
      "etrack": 2643,
      "racer": 2644,
      "ceiling": 2645,
      "neigh": 2646,
      "herd": 2647,
      "ility": 2648,
      "tiv": 2649,
      "tile": 2650,
      "jumpsuit": 2651,
      "rench": 2652,
      "sized": 2653,
      "cleans": 2654,
      "crash": 2655,
      "mom": 2656,
      "trop": 2657,
      "jewel": 2658,
      "doors": 2659,
      "muzz": 2660,
      "guitars": 2661,
      "elf": 2662,
      "gged": 2663,
      "skateboards": 2664,
      "speech": 2665,
      "bars": 2666,
      "cess": 2667,
      "ously": 2668,
      "machinery": 2669,
      "surrounding": 2670,
      "viewing": 2671,
      "policeman": 2672,
      "focu": 2673,
      "snowboarding": 2674,
      "garage": 2675,
      "fruits": 2676,
      "sporting": 2677,
      "slides": 2678,
      "drummer": 2679,
      "turns": 2680,
      "loading": 2681,
      "patio": 2682,
      "eleph": 2683,
      "passengers": 2684,
      "motocross": 2685,
      "Brown": 2686,
      "figure": 2687,
      "barbecue": 2688,
      "sword": 2689,
      "racetrack": 2690,
      "mustache": 2691,
      "BM": 2692,
      "Lad": 2693,
      "On": 2694,
      "aqu": 2695,
      "dread": 2696,
      "ection": 2697,
      "ience": 2698,
      "mor": 2699,
      "moun": 2700,
      "nas": 2701,
      "narrow": 2702,
      "prop": 2703,
      "rough": 2704,
      "song": 2705,
      "spi": 2706,
      "twi": 2707,
      "ump": 2708,
      "wad": 2709,
      "erial": 2710,
      "itten": 2711,
      "irth": 2712,
      "oping": 2713,
      "assi": 2714,
      "pee": 2715,
      "hosp": 2716,
      "blow": 2717,
      "rier": 2718,
      "cot": 2719,
      "come": 2720,
      "tag": 2721,
      "seum": 2722,
      "sells": 2723,
      "bushes": 2724,
      "locks": 2725,
      "brow": 2726,
      "dim": 2727,
      "boardwalk": 2728,
      "puck": 2729,
      "scre": 2730,
      "headband": 2731,
      "ways": 2732,
      "jects": 2733,
      "museum": 2734,
      "surg": 2735,
      "cape": 2736,
      "baskets": 2737,
      "exhi": 2738,
      "horseback": 2739,
      "nail": 2740,
      "hillside": 2741,
      "leaf": 2742,
      "leaving": 2743,
      "bikers": 2744,
      "paren": 2745,
      "borhood": 2746,
      "stopped": 2747,
      "petting": 2748,
      "electronic": 2749,
      "presen": 2750,
      "shoot": 2751,
      "observe": 2752,
      "member": 2753,
      "super": 2754,
      "lane": 2755,
      "discussion": 2756,
      "astern": 2757,
      "dune": 2758,
      "entrance": 2759,
      "Blond": 2760,
      "beverage": 2761,
      "ATV": 2762,
      "first": 2763,
      "herself": 2764,
      "ornate": 2765,
      "Crowd": 2766,
      "intersection": 2767,
      "ceremon": 2768,
      "routine": 2769,
      "sandwich": 2770,
      "possibly": 2771,
      "hospital": 2772,
      "Fire": 2773,
      "Lar": 2774,
      "She": 2775,
      "Stu": 2776,
      "aking": 2777,
      "ahead": 2778,
      "african": 2779,
      "clap": 2780,
      "clay": 2781,
      "loung": 2782,
      "nur": 2783,
      "oon": 2784,
      "pherd": 2785,
      "tes": 2786,
      "stones": 2787,
      "strap": 2788,
      "lamp": 2789,
      "wild": 2790,
      "iddle": 2791,
      "dot": 2792,
      "hoops": 2793,
      "cobble": 2794,
      "seas": 2795,
      "seats": 2796,
      "baller": 2797,
      "lip": 2798,
      "outstretched": 2799,
      "tight": 2800,
      "skates": 2801,
      "bill": 2802,
      "cond": 2803,
      "condu": 2804,
      "pig": 2805,
      "pipes": 2806,
      "maroon": 2807,
      "helps": 2808,
      "crew": 2809,
      "microphones": 2810,
      "navy": 2811,
      "motorcyclist": 2812,
      "akers": 2813,
      "pieces": 2814,
      "folding": 2815,
      "smoke": 2816,
      "nets": 2817,
      "squatting": 2818,
      "bottles": 2819,
      "ference": 2820,
      "silhou": 2821,
      "buckets": 2822,
      "tattooed": 2823,
      "fencing": 2824,
      "cardboard": 2825,
      "mixing": 2826,
      "indoors": 2827,
      "celebrating": 2828,
      "dishes": 2829,
      "tails": 2830,
      "complete": 2831,
      "fancy": 2832,
      "mostly": 2833,
      "patient": 2834,
      "puppy": 2835,
      "container": 2836,
      "villa": 2837,
      "rubber": 2838,
      "neighborhood": 2839,
      "Lady": 2840,
      "irthday": 2841,
      "Large": 2842,
      "Mu": 2843,
      "Stre": 2844,
      "ai": 2845,
      "bam": 2846,
      "cru": 2847,
      "fer": 2848,
      "gall": 2849,
      "ior": 2850,
      "kite": 2851,
      "nit": 2852,
      "os": 2853,
      "pop": 2854,
      "patch": 2855,
      "punch": 2856,
      "rural": 2857,
      "spar": 2858,
      "intent": 2859,
      "ants": 2860,
      "lection": 2861,
      "stro": 2862,
      "stra": 2863,
      "stares": 2864,
      "labor": 2865,
      "wife": 2866,
      "cked": 2867,
      "grand": 2868,
      "tel": 2869,
      "tex": 2870,
      "tered": 2871,
      "blows": 2872,
      "bean": 2873,
      "rick": 2874,
      "bul": 2875,
      "buy": 2876,
      "loye": 2877,
      "ames": 2878,
      "amid": 2879,
      "tially": 2880,
      "brary": 2881,
      "apple": 2882,
      "carving": 2883,
      "paras": 2884,
      "backs": 2885,
      "formation": 2886,
      "handstand": 2887,
      "activ": 2888,
      "travel": 2889,
      "more": 2890,
      "moment": 2891,
      "pump": 2892,
      "spinning": 2893,
      "got": 2894,
      "flops": 2895,
      "guitarist": 2896,
      "cuts": 2897,
      "stripes": 2898,
      "merch": 2899,
      "uniformed": 2900,
      "quet": 2901,
      "chee": 2902,
      "swimmer": 2903,
      "storefront": 2904,
      "coloring": 2905,
      "hugs": 2906,
      "firetruck": 2907,
      "balance": 2908,
      "newly": 2909,
      "item": 2910,
      "wheels": 2911,
      "calf": 2912,
      "gency": 2913,
      "monstr": 2914,
      "smokes": 2915,
      "flipping": 2916,
      "born": 2917,
      "scenery": 2918,
      "medical": 2919,
      "crafts": 2920,
      "bowls": 2921,
      "cheerleaders": 2922,
      "tattoos": 2923,
      "funny": 2924,
      "spraying": 2925,
      "stretching": 2926,
      "ethnic": 2927,
      "crouching": 2928,
      "comfor": 2929,
      "great": 2930,
      "cricket": 2931,
      "sleeveless": 2932,
      "choir": 2933,
      "inspecting": 2934,
      "belt": 2935,
      "grinding": 2936,
      "apartment": 2937,
      "scuba": 2938,
      "vacu": 2939,
      "isherman": 2940,
      "reflective": 2941,
      "dreadlocks": 2942,
      "Street": 2943,
      "niture": 2944,
      "Bu": 2945,
      "Le": 2946,
      "Middle": 2947,
      "Ro": 2948,
      "Run": 2949,
      "Spe": 2950,
      "US": 2951,
      "birthday": 2952,
      "cong": 2953,
      "ky": 2954,
      "pri": 2955,
      "rons": 2956,
      "sen": 2957,
      "sad": 2958,
      "tour": 2959,
      "zing": 2960,
      "lear": 2961,
      "organ": 2962,
      "tee": 2963,
      "unicycle": 2964,
      "races": 2965,
      "urope": 2966,
      "lifting": 2967,
      "library": 2968,
      "ilts": 2969,
      "ties": 2970,
      "tied": 2971,
      "bris": 2972,
      "partially": 2973,
      "simil": 2974,
      "crane": 2975,
      "boards": 2976,
      "conference": 2977,
      "moder": 2978,
      "spread": 2979,
      "derby": 2980,
      "ondon": 2981,
      "dead": 2982,
      "demonstr": 2983,
      "horn": 2984,
      "colum": 2985,
      "plu": 2986,
      "speed": 2987,
      "exper": 2988,
      "vig": 2989,
      "motorbike": 2990,
      "objects": 2991,
      "name": 2992,
      "naked": 2993,
      "balding": 2994,
      "dust": 2995,
      "duck": 2996,
      "nighttime": 2997,
      "stairway": 2998,
      "turned": 2999,
      "rainy": 3000,
      "banner": 3001,
      "calm": 3002,
      "gymnas": 3003,
      "computers": 3004,
      "batter": 3005,
      "listens": 3006,
      "letes": 3007,
      "Girls": 3008,
      "vegetable": 3009,
      "raises": 3010,
      "sofa": 3011,
      "chick": 3012,
      "candles": 3013,
      "balances": 3014,
      "greyhound": 3015,
      "following": 3016,
      "gymnastic": 3017,
      "discussing": 3018,
      "furniture": 3019,
      "fluffy": 3020,
      "broken": 3021,
      "houses": 3022,
      "approaching": 3023,
      "moped": 3024,
      "folded": 3025,
      "pigeons": 3026,
      "BMX": 3027,
      "dimly": 3028,
      "intently": 3029,
      "similar": 3030,
      "gymnasium": 3031,
      "12": 3032,
      "20": 3033,
      "ather": 3034,
      "ail": 3035,
      "bby": 3036,
      "bass": 3037,
      "cop": 3038,
      "cid": 3039,
      "clad": 3040,
      "dough": 3041,
      "eu": 3042,
      "eath": 3043,
      "ible": 3044,
      "jet": 3045,
      "kni": 3046,
      "om": 3047,
      "ocular": 3048,
      "pping": 3049,
      "papers": 3050,
      "sla": 3051,
      "sne": 3052,
      "slight": 3053,
      "zen": 3054,
      "inte": 3055,
      "arch": 3056,
      "hits": 3057,
      "theater": 3058,
      "ase": 3059,
      "ica": 3060,
      "doll": 3061,
      "unk": 3062,
      "adjust": 3063,
      "forward": 3064,
      "share": 3065,
      "taxi": 3066,
      "sem": 3067,
      "secur": 3068,
      "groups": 3069,
      "tist": 3070,
      "sive": 3071,
      "bleach": 3072,
      "boarder": 3073,
      "smaller": 3074,
      "motion": 3075,
      "push": 3076,
      "pies": 3077,
      "pizz": 3078,
      "beneath": 3079,
      "cameras": 3080,
      "castle": 3081,
      "ending": 3082,
      "merous": 3083,
      "pret": 3084,
      "carry": 3085,
      "plates": 3086,
      "barber": 3087,
      "teammate": 3088,
      "photos": 3089,
      "vie": 3090,
      "crosses": 3091,
      "training": 3092,
      "flowered": 3093,
      "catcher": 3094,
      "fireman": 3095,
      "note": 3096,
      "shaved": 3097,
      "rainbow": 3098,
      "called": 3099,
      "cook": 3100,
      "stomach": 3101,
      "point": 3102,
      "starting": 3103,
      "material": 3104,
      "trailer": 3105,
      "borne": 3106,
      "paddle": 3107,
      "wrestle": 3108,
      "television": 3109,
      "raising": 3110,
      "amongst": 3111,
      "observing": 3112,
      "shovels": 3113,
      "shades": 3114,
      "advertising": 3115,
      "follows": 3116,
      "participate": 3117,
      "While": 3118,
      "directions": 3119,
      "binocular": 3120,
      "engaged": 3121,
      "branch": 3122,
      "spoon": 3123,
      "college": 3124,
      "liquid": 3125,
      "necklace": 3126,
      "space": 3127,
      "ribbon": 3128,
      "jewelry": 3129,
      "elephant": 3130,
      "lounging": 3131,
      "village": 3132,
      "security": 3133,
      "City": 3134,
      "Cau": 3135,
      "Fe": 3136,
      "London": 3137,
      "Mul": 3138,
      "Red": 3139,
      "ax": 3140,
      "bad": 3141,
      "bound": 3142,
      "cree": 3143,
      "eled": 3144,
      "fted": 3145,
      "fisherman": 3146,
      "gers": 3147,
      "gown": 3148,
      "ia": 3149,
      "ike": 3150,
      "lst": 3151,
      "mis": 3152,
      "mates": 3153,
      "mini": 3154,
      "nature": 3155,
      "oes": 3156,
      "plo": 3157,
      "sor": 3158,
      "ut": 3159,
      "usi": 3160,
      "vo": 3161,
      "win": 3162,
      "thusi": 3163,
      "erleaders": 3164,
      "oned": 3165,
      "sters": 3166,
      "enthusi": 3167,
      "ites": 3168,
      "itors": 3169,
      "ounge": 3170,
      "whilst": 3171,
      "tech": 3172,
      "peering": 3173,
      "redheaded": 3174,
      "ador": 3175,
      "admir": 3176,
      "shining": 3177,
      "airborne": 3178,
      "bystand": 3179,
      "downtown": 3180,
      "upon": 3181,
      "keep": 3182,
      "poor": 3183,
      "rubs": 3184,
      "biking": 3185,
      "silly": 3186,
      "terrain": 3187,
      "consi": 3188,
      "angel": 3189,
      "tricycle": 3190,
      "fake": 3191,
      "tents": 3192,
      "job": 3193,
      "quick": 3194,
      "shops": 3195,
      "aud": 3196,
      "gift": 3197,
      "trucks": 3198,
      "caps": 3199,
      "Soccer": 3200,
      "newborn": 3201,
      "machines": 3202,
      "shakes": 3203,
      "factory": 3204,
      "interacting": 3205,
      "rings": 3206,
      "wheelbar": 3207,
      "scarves": 3208,
      "steel": 3209,
      "pottery": 3210,
      "leads": 3211,
      "glove": 3212,
      "photographed": 3213,
      "employe": 3214,
      "protesting": 3215,
      "closeup": 3216,
      "guns": 3217,
      "splashes": 3218,
      "cards": 3219,
      "engine": 3220,
      "trunk": 3221,
      "chefs": 3222,
      "follow": 3223,
      "repairs": 3224,
      "pillow": 3225,
      "weaving": 3226,
      "passenger": 3227,
      "sprinkler": 3228,
      "donkey": 3229,
      "tourists": 3230,
      "charac": 3231,
      "casual": 3232,
      "Cheerleaders": 3233,
      "receiving": 3234,
      "aisle": 3235,
      "wading": 3236,
      "scream": 3237,
      "Students": 3238,
      "cobblestone": 3239,
      "ballerina": 3240,
      "billboard": 3241,
      "straight": 3242,
      "congre": 3243,
      "modern": 3244,
      "slightly": 3245,
      "binoculars": 3246,
      "admiring": 3247,
      "Ad": 3248,
      "Europe": 3249,
      "Mc": 3250,
      "Pol": 3251,
      "Wal": 3252,
      "bing": 3253,
      "craw": 3254,
      "dro": 3255,
      "glid": 3256,
      "imp": 3257,
      "iff": 3258,
      "kin": 3259,
      "lounge": 3260,
      "mun": 3261,
      "may": 3262,
      "mmed": 3263,
      "oven": 3264,
      "pir": 3265,
      "pay": 3266,
      "rows": 3267,
      "sque": 3268,
      "tas": 3269,
      "ware": 3270,
      "xy": 3271,
      "incl": 3272,
      "leot": 3273,
      "arc": 3274,
      "tomat": 3275,
      "ets": 3276,
      "eter": 3277,
      "opes": 3278,
      "places": 3279,
      "robat": 3280,
      "been": 3281,
      "cock": 3282,
      "comb": 3283,
      "comes": 3284,
      "coaster": 3285,
      "tape": 3286,
      "tage": 3287,
      "lips": 3288,
      "lifted": 3289,
      "social": 3290,
      "ticket": 3291,
      "aps": 3292,
      "appl": 3293,
      "keys": 3294,
      "carts": 3295,
      "waterfront": 3296,
      "waterway": 3297,
      "filling": 3298,
      "world": 3299,
      "sniff": 3300,
      "feat": 3301,
      "dig": 3302,
      "overhead": 3303,
      "contest": 3304,
      "handle": 3305,
      "ately": 3306,
      "science": 3307,
      "debris": 3308,
      "tending": 3309,
      "checks": 3310,
      "sailing": 3311,
      "swimmers": 3312,
      "tower": 3313,
      "barrier": 3314,
      "express": 3315,
      "hug": 3316,
      "drill": 3317,
      "dusk": 3318,
      "mess": 3319,
      "messy": 3320,
      "tires": 3321,
      "lecture": 3322,
      "praying": 3323,
      "converse": 3324,
      "official": 3325,
      "cups": 3326,
      "landing": 3327,
      "flips": 3328,
      "paddles": 3329,
      "entering": 3330,
      "butter": 3331,
      "portra": 3332,
      "wings": 3333,
      "telephone": 3334,
      "gundy": 3335,
      "observes": 3336,
      "waterski": 3337,
      "laptops": 3338,
      "shadow": 3339,
      "examines": 3340,
      "burgundy": 3341,
      "lanter": 3342,
      "commun": 3343,
      "attention": 3344,
      "customer": 3345,
      "guards": 3346,
      "groceries": 3347,
      "flute": 3348,
      "teaching": 3349,
      "chainsaw": 3350,
      "studying": 3351,
      "bundle": 3352,
      "spotted": 3353,
      "meeting": 3354,
      "transport": 3355,
      "firefighters": 3356,
      "eggs": 3357,
      "thumbs": 3358,
      "gestures": 3359,
      "tumn": 3360,
      "tropical": 3361,
      "browsing": 3362,
      "ceremony": 3363,
      "rickshaw": 3364,
      "sneakers": 3365,
      "bleachers": 3366,
      "pizza": 3367,
      "pretty": 3368,
      "Caucasian": 3369,
      "Multiple": 3370,
      "consisting": 3371,
      "wheelbarrow": 3372,
      "Police": 3373,
      "leotard": 3374,
      "Don": 3375,
      "It": 3376,
      "Sk": 3377,
      "Su": 3378,
      "Tou": 3379,
      "biting": 3380,
      "bite": 3381,
      "call": 3382,
      "fit": 3383,
      "fed": 3384,
      "games": 3385,
      "hen": 3386,
      "iet": 3387,
      "ied": 3388,
      "iment": 3389,
      "ja": 3390,
      "mming": 3391,
      "poo": 3392,
      "rin": 3393,
      "rad": 3394,
      "shel": 3395,
      "trol": 3396,
      "ument": 3397,
      "ws": 3398,
      "wares": 3399,
      "ino": 3400,
      "anad": 3401,
      "ret": 3402,
      "recl": 3403,
      "arn": 3404,
      "arter": 3405,
      "oud": 3406,
      "andise": 3407,
      "attra": 3408,
      "stare": 3409,
      "still": 3410,
      "lacross": 3411,
      "wires": 3412,
      "ora": 3413,
      "chess": 3414,
      "teal": 3415,
      "rod": 3416,
      "hotel": 3417,
      "blur": 3418,
      "shirted": 3419,
      "ller": 3420,
      "cep": 3421,
      "covers": 3422,
      "semi": 3423,
      "loom": 3424,
      "bush": 3425,
      "love": 3426,
      "main": 3427,
      "watermel": 3428,
      "juice": 3429,
      "fier": 3430,
      "backdrop": 3431,
      "skaters": 3432,
      "bies": 3433,
      "crown": 3434,
      "snowsuit": 3435,
      "diver": 3436,
      "overweight": 3437,
      "tug": 3438,
      "ults": 3439,
      "conven": 3440,
      "handing": 3441,
      "acrobat": 3442,
      "tray": 3443,
      "movie": 3444,
      "ions": 3445,
      "heading": 3446,
      "def": 3447,
      "defen": 3448,
      "mart": 3449,
      "suitcase": 3450,
      "performers": 3451,
      "cause": 3452,
      "bricks": 3453,
      "brief": 3454,
      "horiz": 3455,
      "unique": 3456,
      "quo": 3457,
      "forehead": 3458,
      "wheeli": 3459,
      "give": 3460,
      "nament": 3461,
      "firemen": 3462,
      "bagpipes": 3463,
      "umin": 3464,
      "angle": 3465,
      "serves": 3466,
      "paperwork": 3467,
      "banan": 3468,
      "banjo": 3469,
      "ities": 3470,
      "knees": 3471,
      "monument": 3472,
      "falls": 3473,
      "venue": 3474,
      "listen": 3475,
      "stops": 3476,
      "vendors": 3477,
      "cray": 3478,
      "Boys": 3479,
      "newspapers": 3480,
      "alleyway": 3481,
      "wrestler": 3482,
      "blankets": 3483,
      "seem": 3484,
      "countryside": 3485,
      "izing": 3486,
      "visiting": 3487,
      "visible": 3488,
      "scooters": 3489,
      "sweeps": 3490,
      "kayaks": 3491,
      "shadows": 3492,
      "touches": 3493,
      "attending": 3494,
      "tackle": 3495,
      "strange": 3496,
      "story": 3497,
      "pillows": 3498,
      "scaffold": 3499,
      "inspects": 3500,
      "beverages": 3501,
      "boulder": 3502,
      "tourist": 3503,
      "yoga": 3504,
      "target": 3505,
      "tossing": 3506,
      "emergency": 3507,
      "sides": 3508,
      "Joh": 3509,
      "patterned": 3510,
      "exercise": 3511,
      "umpire": 3512,
      "exhibit": 3513,
      "presenting": 3514,
      "clapping": 3515,
      "pigtails": 3516,
      "bamboo": 3517,
      "beanie": 3518,
      "merchandise": 3519,
      "chicken": 3520,
      "gymnastics": 3521,
      "knife": 3522,
      "bystanders": 3523,
      "applying": 3524,
      "Donal": 3525,
      "trolley": 3526,
      "lacrosse": 3527,
      "wheelie": 3528,
      "Bear": 3529,
      "Ca": 3530,
      "Col": 3531,
      "El": 3532,
      "En": 3533,
      "Mex": 3534,
      "Play": 3535,
      "Teen": 3536,
      "We": 3537,
      "cil": 3538,
      "cans": 3539,
      "centr": 3540,
      "dad": 3541,
      "done": 3542,
      "eight": 3543,
      "fic": 3544,
      "link": 3545,
      "mur": 3546,
      "mower": 3547,
      "nam": 3548,
      "plies": 3549,
      "power": 3550,
      "ris": 3551,
      "rice": 3552,
      "tiny": 3553,
      "usu": 3554,
      "vin": 3555,
      "yarn": 3556,
      "inju": 3557,
      "ank": 3558,
      "any": 3559,
      "ings": 3560,
      "remo": 3561,
      "retri": 3562,
      "maneu": 3563,
      "stir": 3564,
      "lared": 3565,
      "chan": 3566,
      "christmas": 3567,
      "chatting": 3568,
      "assem": 3569,
      "placing": 3570,
      "placed": 3571,
      "tea": 3572,
      "played": 3573,
      "playfully": 3574,
      "ersby": 3575,
      "here": 3576,
      "unusu": 3577,
      "blind": 3578,
      "meas": 3579,
      "bead": 3580,
      "belong": 3581,
      "rized": 3582,
      "separ": 3583,
      "section": 3584,
      "second": 3585,
      "lifts": 3586,
      "soap": 3587,
      "soda": 3588,
      "lose": 3589,
      "logs": 3590,
      "ama": 3591,
      "tired": 3592,
      "tights": 3593,
      "bron": 3594,
      "pocket": 3595,
      "jud": 3596,
      "gathers": 3597,
      "larger": 3598,
      "snowshoes": 3599,
      "dives": 3600,
      "tux": 3601,
      "handrail": 3602,
      "watched": 3603,
      "accompan": 3604,
      "traveling": 3605,
      "mock": 3606,
      "wake": 3607,
      "picks": 3608,
      "sunlight": 3609,
      "bicy": 3610,
      "mug": 3611,
      "shorel": 3612,
      "cage": 3613,
      "gger": 3614,
      "joy": 3615,
      "quarter": 3616,
      "underwear": 3617,
      "trip": 3618,
      "swimsuits": 3619,
      "process": 3620,
      "explo": 3621,
      "slic": 3622,
      "crossed": 3623,
      "floats": 3624,
      "weap": 3625,
      "lighted": 3626,
      "hut": 3627,
      "huddle": 3628,
      "treat": 3629,
      "navig": 3630,
      "motorcyclists": 3631,
      "even": 3632,
      "skiers": 3633,
      "ballet": 3634,
      "highway": 3635,
      "athletes": 3636,
      "opens": 3637,
      "dusty": 3638,
      "anges": 3639,
      "cello": 3640,
      "news": 3641,
      "turquo": 3642,
      "cowboys": 3643,
      "planting": 3644,
      "rapids": 3645,
      "China": 3646,
      "potat": 3647,
      "medium": 3648,
      "homeless": 3649,
      "drawn": 3650,
      "closely": 3651,
      "practices": 3652,
      "multiple": 3653,
      "partment": 3654,
      "supplies": 3655,
      "camping": 3656,
      "celebration": 3657,
      "tackling": 3658,
      "printed": 3659,
      "syn": 3660,
      "repairing": 3661,
      "reflection": 3662,
      "finished": 3663,
      "laundro": 3664,
      "khakis": 3665,
      "elev": 3666,
      "puppies": 3667,
      "suspenders": 3668,
      "weather": 3669,
      "magazines": 3670,
      "motorized": 3671,
      "carefully": 3672,
      "farmer": 3673,
      "washer": 3674,
      "record": 3675,
      "itorium": 3676,
      "firefighter": 3677,
      "rollerskating": 3678,
      "salon": 3679,
      "involved": 3680,
      "parachute": 3681,
      "descent": 3682,
      "rollerblading": 3683,
      "ponytail": 3684,
      "location": 3685,
      "focused": 3686,
      "surgery": 3687,
      "parents": 3688,
      "cheek": 3689,
      "Runners": 3690,
      "learning": 3691,
      "2012": 3692,
      "adjusting": 3693,
      "Female": 3694,
      "creek": 3695,
      "auditorium": 3696,
      "screaming": 3697,
      "McDonal": 3698,
      "arcade": 3699,
      "shoreline": 3700,
      "turquoise": 3701,
      "laundromat": 3702,
      "00": 3703,
      "Am": 3704,
      "Band": 3705,
      "Coup": 3706,
      "Canad": 3707,
      "Close": 3708,
      "De": 3709,
      "Eld": 3710,
      "Ped": 3711,
      "Sm": 3712,
      "Squ": 3713,
      "TV": 3714,
      "Tex": 3715,
      "cul": 3716,
      "eastern": 3717,
      "fat": 3718,
      "floo": 3719,
      "fell": 3720,
      "late": 3721,
      "mit": 3722,
      "mill": 3723,
      "non": 3724,
      "overs": 3725,
      "ption": 3726,
      "pins": 3727,
      "ric": 3728,
      "rally": 3729,
      "spark": 3730,
      "tread": 3731,
      "va": 3732,
      "vas": 3733,
      "valley": 3734,
      "zes": 3735,
      "zens": 3736,
      "tho": 3737,
      "than": 3738,
      "rec": 3739,
      "reli": 3740,
      "erry": 3741,
      "lean": 3742,
      "legging": 3743,
      "ara": 3744,
      "arri": 3745,
      "hip": 3746,
      "hike": 3747,
      "hiding": 3748,
      "stall": 3749,
      "stilts": 3750,
      "launch": 3751,
      "laden": 3752,
      "ened": 3753,
      "ents": 3754,
      "will": 3755,
      "oranges": 3756,
      "opter": 3757,
      "gras": 3758,
      "earphones": 3759,
      "icy": 3760,
      "icopter": 3761,
      "blood": 3762,
      "raz": 3763,
      "racers": 3764,
      "rafting": 3765,
      "blazer": 3766,
      "riot": 3767,
      "coast": 3768,
      "fork": 3769,
      "lighting": 3770,
      "buff": 3771,
      "butch": 3772,
      "lock": 3773,
      "lobby": 3774,
      "walked": 3775,
      "timate": 3776,
      "upward": 3777,
      "pod": 3778,
      "pots": 3779,
      "posed": 3780,
      "juggles": 3781,
      "sideways": 3782,
      "skater": 3783,
      "indu": 3784,
      "single": 3785,
      "divers": 3786,
      "tutu": 3787,
      "ult": 3788,
      "frozen": 3789,
      "workout": 3790,
      "workshop": 3791,
      "headdress": 3792,
      "goat": 3793,
      "dec": 3794,
      "deli": 3795,
      "department": 3796,
      "march": 3797,
      "ctators": 3798,
      "torch": 3799,
      "cast": 3800,
      "roadside": 3801,
      "cute": 3802,
      "Asia": 3803,
      "cheese": 3804,
      "sau": 3805,
      "sage": 3806,
      "collared": 3807,
      "couples": 3808,
      "special": 3809,
      "tribal": 3810,
      "proje": 3811,
      "autumn": 3812,
      "whom": 3813,
      "creating": 3814,
      "ague": 3815,
      "human": 3816,
      "surfs": 3817,
      "shepherd": 3818,
      "canvas": 3819,
      "displaying": 3820,
      "displays": 3821,
      "passersby": 3822,
      "serve": 3823,
      "service": 3824,
      "artwork": 3825,
      "shape": 3826,
      "facility": 3827,
      "raining": 3828,
      "interview": 3829,
      "lecting": 3830,
      "cooks": 3831,
      "foli": 3832,
      "teens": 3833,
      "toddlers": 3834,
      "monitor": 3835,
      "raption": 3836,
      "numbers": 3837,
      "pads": 3838,
      "tively": 3839,
      "hotdog": 3840,
      "rooftop": 3841,
      "lens": 3842,
      "washes": 3843,
      "gaze": 3844,
      "gazes": 3845,
      "kayaking": 3846,
      "cycling": 3847,
      "decorative": 3848,
      "products": 3849,
      "crouched": 3850,
      "burning": 3851,
      "candle": 3852,
      "atory": 3853,
      "cloud": 3854,
      "celebrate": 3855,
      "contraption": 3856,
      "harvest": 3857,
      "trashcan": 3858,
      "furry": 3859,
      "finishing": 3860,
      "brother": 3861,
      "stepping": 3862,
      "sprayed": 3863,
      "belts": 3864,
      "approaches": 3865,
      "bouquet": 3866,
      "score": 3867,
      "chalkboard": 3868,
      "embracing": 3869,
      "branches": 3870,
      "fashioned": 3871,
      "speaker": 3872,
      "casually": 3873,
      "involving": 3874,
      "chopping": 3875,
      "driveway": 3876,
      "Olympics": 3877,
      "intenance": 3878,
      "twir": 3879,
      "silhouette": 3880,
      "Music": 3881,
      "gallery": 3882,
      "stroke": 3883,
      "amidst": 3884,
      "activity": 3885,
      "vacuu": 3886,
      "Roller": 3887,
      "Spectators": 3888,
      "experiment": 3889,
      "interesting": 3890,
      "quickly": 3891,
      "incline": 3892,
      "portrait": 3893,
      "transportation": 3894,
      "John": 3895,
      "Bearded": 3896,
      "injured": 3897,
      "retrie": 3898,
      "Closeup": 3899,
      "Elderly": 3900,
      "Pedestrians": 3901,
      "Square": 3902,
      "leggings": 3903,
      "Ba": 3904,
      "Be": 3905,
      "Bic": 3906,
      "DJ": 3907,
      "Eight": 3908,
      "Eastern": 3909,
      "Ha": 3910,
      "Photo": 3911,
      "School": 3912,
      "Ski": 3913,
      "Vari": 3914,
      "Wi": 3915,
      "ailing": 3916,
      "aband": 3917,
      "bbles": 3918,
      "cro": 3919,
      "eo": 3920,
      "eas": 3921,
      "esta": 3922,
      "every": 3923,
      "find": 3924,
      "gla": 3925,
      "harm": 3926,
      "ikers": 3927,
      "kilt": 3928,
      "now": 3929,
      "tress": 3930,
      "trench": 3931,
      "ues": 3932,
      "uts": 3933,
      "vine": 3934,
      "iner": 3935,
      "ination": 3936,
      "annel": 3937,
      "rele": 3938,
      "really": 3939,
      "arrange": 3940,
      "ouble": 3941,
      "ata": 3942,
      "ston": 3943,
      "sturing": 3944,
      "aling": 3945,
      "almost": 3946,
      "iss": 3947,
      "labe": 3948,
      "enti": 3949,
      "wig": 3950,
      "ldo": 3951,
      "orm": 3952,
      "ety": 3953,
      "chin": 3954,
      "chron": 3955,
      "chinese": 3956,
      "cherry": 3957,
      "opo": 3958,
      "edo": 3959,
      "grad": 3960,
      "ically": 3961,
      "menu": 3962,
      "domin": 3963,
      "peer": 3964,
      "unhappy": 3965,
      "gesturing": 3966,
      "blish": 3967,
      "adju": 3968,
      "mechan": 3969,
      "beret": 3970,
      "rifle": 3971,
      "mpy": 3972,
      "mple": 3973,
      "shiny": 3974,
      "tags": 3975,
      "sees": 3976,
      "lim": 3977,
      "built": 3978,
      "ney": 3979,
      "tiled": 3980,
      "tips": 3981,
      "smoo": 3982,
      "brass": 3983,
      "aprons": 3984,
      "jumper": 3985,
      "jumped": 3986,
      "pale": 3987,
      "ongo": 3988,
      "crates": 3989,
      "dive": 3990,
      "concentr": 3991,
      "handed": 3992,
      "wai": 3993,
      "waist": 3994,
      "scra": 3995,
      "scouts": 3996,
      "scent": 3997,
      "scien": 3998,
      "pilot": 3999
    },
    "merges": [
      [
        "i",
        "n"
      ],
      [
        "a",
        "n"
      ],
      [
        "in",
        "g"
      ],
      [
        "t",
        "h"
      ],
      [
        "r",
        "e"
      ],
      [
        "e",
        "r"
      ],
      [
        "o",
        "n"
      ],
      [
        "l",
        "e"
      ],
      [
        "a",
        "r"
      ],
      [
        "h",
        "i"
      ],
      [
        "m",
        "an"
      ],
      [
        "th",
        "e"
      ],
      [
        "o",
        "u"
      ],
      [
        "an",
        "d"
      ],
      [
        "a",
        "t"
      ],
      [
        "s",
        "t"
      ],
      [
        "w",
        "o"
      ],
      [
        "a",
        "l"
      ],
      [
        "i",
        "s"
      ],
      [
        "l",
        "a"
      ],
      [
        "e",
        "n"
      ],
      [
        "o",
        "f"
      ],
      [
        "i",
        "t"
      ],
      [
        "w",
        "i"
      ],
      [
        "o",
        "w"
      ],
      [
        "c",
        "k"
      ],
      [
        "wi",
        "th"
      ],
      [
        "t",
        "o"
      ],
      [
        "l",
        "d"
      ],
      [
        "o",
        "r"
      ],
      [
        "i",
        "r"
      ],
      [
        "e",
        "s"
      ],
      [
        "e",
        "t"
      ],
      [
        "c",
        "h"
      ],
      [
        "o",
        "p"
      ],
      [
        "i",
        "d"
      ],
      [
        "ou",
        "n"
      ],
      [
        "a",
        "re"
      ],
      [
        "w",
        "hi"
      ],
      [
        "b",
        "o"
      ],
      [
        "e",
        "d"
      ],
      [
        "k",
        "ing"
      ],
      [
        "g",
        "r"
      ],
      [
        "e",
        "ar"
      ],
      [
        "wo",
        "man"
      ],
      [
        "a",
        "s"
      ],
      [
        "o",
        "o"
      ],
      [
        "p",
        "la"
      ],
      [
        "al",
        "l"
      ],
      [
        "t",
        "e"
      ],
      [
        "i",
        "c"
      ],
      [
        "m",
        "en"
      ],
      [
        "d",
        "o"
      ],
      [
        "p",
        "e"
      ],
      [
        "op",
        "le"
      ],
      [
        "T",
        "wo"
      ],
      [
        "pla",
        "y"
      ],
      [
        "r",
        "o"
      ],
      [
        "h",
        "o"
      ],
      [
        "er",
        "s"
      ],
      [
        "h",
        "e"
      ],
      [
        "u",
        "n"
      ],
      [
        "g",
        "e"
      ],
      [
        "t",
        "ing"
      ],
      [
        "t",
        "s"
      ],
      [
        "s",
        "hi"
      ],
      [
        "s",
        "s"
      ],
      [
        "b",
        "l"
      ],
      [
        "w",
        "ear"
      ],
      [
        "w",
        "al"
      ],
      [
        "shi",
        "r"
      ],
      [
        "re",
        "d"
      ],
      [
        "s",
        "it"
      ],
      [
        "wear",
        "ing"
      ],
      [
        "st",
        "and"
      ],
      [
        "a",
        "d"
      ],
      [
        "pe",
        "ople"
      ],
      [
        "shir",
        "t"
      ],
      [
        "l",
        "l"
      ],
      [
        "ow",
        "n"
      ],
      [
        "id",
        "e"
      ],
      [
        "r",
        "a"
      ],
      [
        "oun",
        "g"
      ],
      [
        "g",
        "h"
      ],
      [
        "m",
        "e"
      ],
      [
        "whi",
        "te"
      ],
      [
        "b",
        "e"
      ],
      [
        "ir",
        "l"
      ],
      [
        "y",
        "oung"
      ],
      [
        "hi",
        "s"
      ],
      [
        "u",
        "e"
      ],
      [
        "c",
        "e"
      ],
      [
        "g",
        "irl"
      ],
      [
        "bo",
        "y"
      ],
      [
        "do",
        "g"
      ],
      [
        "b",
        "la"
      ],
      [
        "r",
        "i"
      ],
      [
        "bla",
        "ck"
      ],
      [
        "ld",
        "ing"
      ],
      [
        "a",
        "ck"
      ],
      [
        "c",
        "o"
      ],
      [
        "whi",
        "le"
      ],
      [
        "th",
        "er"
      ],
      [
        "f",
        "or"
      ],
      [
        "w",
        "at"
      ],
      [
        "ou",
        "p"
      ],
      [
        "m",
        "p"
      ],
      [
        "on",
        "e"
      ],
      [
        "bl",
        "ue"
      ],
      [
        "s",
        "h"
      ],
      [
        "t",
        "a"
      ],
      [
        "u",
        "r"
      ],
      [
        "v",
        "er"
      ],
      [
        "s",
        "e"
      ],
      [
        "sit",
        "ting"
      ],
      [
        "v",
        "e"
      ],
      [
        "b",
        "all"
      ],
      [
        "a",
        "ir"
      ],
      [
        "l",
        "oo"
      ],
      [
        "oun",
        "d"
      ],
      [
        "hi",
        "ld"
      ],
      [
        "l",
        "i"
      ],
      [
        "stand",
        "ing"
      ],
      [
        "st",
        "re"
      ],
      [
        "s",
        "o"
      ],
      [
        "play",
        "ing"
      ],
      [
        "f",
        "r"
      ],
      [
        "b",
        "u"
      ],
      [
        "c",
        "hild"
      ],
      [
        "ar",
        "d"
      ],
      [
        "b",
        "y"
      ],
      [
        "gr",
        "oup"
      ],
      [
        "l",
        "o"
      ],
      [
        "stre",
        "et"
      ],
      [
        "d",
        "own"
      ],
      [
        "re",
        "e"
      ],
      [
        "ou",
        "t"
      ],
      [
        "n",
        "e"
      ],
      [
        "a",
        "m"
      ],
      [
        "h",
        "er"
      ],
      [
        "wal",
        "king"
      ],
      [
        "i",
        "l"
      ],
      [
        "on",
        "t"
      ],
      [
        "a",
        "y"
      ],
      [
        "wal",
        "k"
      ],
      [
        "t",
        "i"
      ],
      [
        "s",
        "m"
      ],
      [
        "fr",
        "ont"
      ],
      [
        "u",
        "p"
      ],
      [
        "o",
        "ther"
      ],
      [
        "b",
        "r"
      ],
      [
        "a",
        "p"
      ],
      [
        "T",
        "he"
      ],
      [
        "ho",
        "lding"
      ],
      [
        "k",
        "e"
      ],
      [
        "c",
        "ar"
      ],
      [
        "m",
        "a"
      ],
      [
        "p",
        "o"
      ],
      [
        "re",
        "ss"
      ],
      [
        "wat",
        "er"
      ],
      [
        "t",
        "le"
      ],
      [
        "j",
        "u"
      ],
      [
        "d",
        "ress"
      ],
      [
        "f",
        "i"
      ],
      [
        "s",
        "ide"
      ],
      [
        "r",
        "un"
      ],
      [
        "a",
        "ch"
      ],
      [
        "y",
        "ing"
      ],
      [
        "th",
        "r"
      ],
      [
        "wo",
        "r"
      ],
      [
        "p",
        "ar"
      ],
      [
        "so",
        "me"
      ],
      [
        "b",
        "ack"
      ],
      [
        "re",
        "en"
      ],
      [
        "h",
        "at"
      ],
      [
        "r",
        "u"
      ],
      [
        "s",
        "k"
      ],
      [
        "ju",
        "mp"
      ],
      [
        "u",
        "it"
      ],
      [
        "loo",
        "king"
      ],
      [
        "l",
        "it"
      ],
      [
        "g",
        "reen"
      ],
      [
        "A",
        "n"
      ],
      [
        "in",
        "d"
      ],
      [
        "b",
        "i"
      ],
      [
        "wo",
        "men"
      ],
      [
        "g",
        "a"
      ],
      [
        "gh",
        "t"
      ],
      [
        "re",
        "n"
      ],
      [
        "l",
        "ar"
      ],
      [
        "for",
        "m"
      ],
      [
        "T",
        "h"
      ],
      [
        "ou",
        "ts"
      ],
      [
        "s",
        "i"
      ],
      [
        "r",
        "id"
      ],
      [
        "b",
        "le"
      ],
      [
        "e",
        "ll"
      ],
      [
        "outs",
        "ide"
      ],
      [
        "s",
        "ing"
      ],
      [
        "ou",
        "gh"
      ],
      [
        "c",
        "le"
      ],
      [
        "s",
        "n"
      ],
      [
        "Th",
        "ree"
      ],
      [
        "k",
        "s"
      ],
      [
        "gr",
        "ound"
      ],
      [
        "lit",
        "tle"
      ],
      [
        "f",
        "e"
      ],
      [
        "p",
        "a"
      ],
      [
        "lar",
        "ge"
      ],
      [
        "thr",
        "ough"
      ],
      [
        "on",
        "g"
      ],
      [
        "c",
        "r"
      ],
      [
        "as",
        "s"
      ],
      [
        "ell",
        "ow"
      ],
      [
        "b",
        "a"
      ],
      [
        "sn",
        "ow"
      ],
      [
        "o",
        "ld"
      ],
      [
        "d",
        "i"
      ],
      [
        "y",
        "ellow"
      ],
      [
        "br",
        "own"
      ],
      [
        "t",
        "wo"
      ],
      [
        "ers",
        "on"
      ],
      [
        "o",
        "ver"
      ],
      [
        "t",
        "u"
      ],
      [
        "u",
        "l"
      ],
      [
        "bo",
        "ard"
      ],
      [
        "la",
        "ss"
      ],
      [
        "f",
        "ro"
      ],
      [
        "e",
        "ld"
      ],
      [
        "m",
        "b"
      ],
      [
        "fro",
        "m"
      ],
      [
        "the",
        "ir"
      ],
      [
        "t",
        "er"
      ],
      [
        "c",
        "on"
      ],
      [
        "l",
        "y"
      ],
      [
        "in",
        "to"
      ],
      [
        "p",
        "erson"
      ],
      [
        "n",
        "ing"
      ],
      [
        "h",
        "and"
      ],
      [
        "f",
        "oo"
      ],
      [
        "wat",
        "ch"
      ],
      [
        "x",
        "t"
      ],
      [
        "th",
        "ing"
      ],
      [
        "a",
        "c"
      ],
      [
        "bu",
        "i"
      ],
      [
        "t",
        "ra"
      ],
      [
        "at",
        "e"
      ],
      [
        "in",
        "k"
      ],
      [
        "bui",
        "lding"
      ],
      [
        "child",
        "ren"
      ],
      [
        "ne",
        "xt"
      ],
      [
        "ow",
        "d"
      ],
      [
        "ou",
        "r"
      ],
      [
        "sm",
        "all"
      ],
      [
        "m",
        "o"
      ],
      [
        "n",
        "ear"
      ],
      [
        "dress",
        "ed"
      ],
      [
        "j",
        "ack"
      ],
      [
        "cr",
        "owd"
      ],
      [
        "jack",
        "et"
      ],
      [
        "g",
        "lass"
      ],
      [
        "gr",
        "ass"
      ],
      [
        "v",
        "ing"
      ],
      [
        "d",
        "y"
      ],
      [
        "w",
        "a"
      ],
      [
        "p",
        "u"
      ],
      [
        "ma",
        "le"
      ],
      [
        "s",
        "c"
      ],
      [
        "P",
        "e"
      ],
      [
        "rid",
        "ing"
      ],
      [
        "run",
        "ning"
      ],
      [
        "an",
        "ge"
      ],
      [
        "Pe",
        "ople"
      ],
      [
        "p",
        "i"
      ],
      [
        "tu",
        "re"
      ],
      [
        "h",
        "a"
      ],
      [
        "i",
        "on"
      ],
      [
        "b",
        "as"
      ],
      [
        "of",
        "f"
      ],
      [
        "s",
        "w"
      ],
      [
        "an",
        "other"
      ],
      [
        "ar",
        "ound"
      ],
      [
        "c",
        "li"
      ],
      [
        "st",
        "a"
      ],
      [
        "fi",
        "eld"
      ],
      [
        "e",
        "at"
      ],
      [
        "t",
        "r"
      ],
      [
        "y",
        "cle"
      ],
      [
        "c",
        "er"
      ],
      [
        "ta",
        "ble"
      ],
      [
        "p",
        "er"
      ],
      [
        "t",
        "al"
      ],
      [
        "side",
        "walk"
      ],
      [
        "k",
        "et"
      ],
      [
        "to",
        "p"
      ],
      [
        "wor",
        "k"
      ],
      [
        "c",
        "lo"
      ],
      [
        "M",
        "an"
      ],
      [
        "re",
        "ad"
      ],
      [
        "e",
        "p"
      ],
      [
        "glass",
        "es"
      ],
      [
        "it",
        "y"
      ],
      [
        "or",
        "ange"
      ],
      [
        "he",
        "ad"
      ],
      [
        "be",
        "ach"
      ],
      [
        "o",
        "re"
      ],
      [
        "an",
        "s"
      ],
      [
        "in",
        "e"
      ],
      [
        "h",
        "one"
      ],
      [
        "ro",
        "ss"
      ],
      [
        "w",
        "ay"
      ],
      [
        "h",
        "air"
      ],
      [
        "h",
        "ind"
      ],
      [
        "stand",
        "s"
      ],
      [
        "p",
        "ink"
      ],
      [
        "sit",
        "s"
      ],
      [
        "jump",
        "ing"
      ],
      [
        "j",
        "e"
      ],
      [
        "be",
        "hind"
      ],
      [
        "s",
        "un"
      ],
      [
        "st",
        "ru"
      ],
      [
        "ic",
        "e"
      ],
      [
        "il",
        "ing"
      ],
      [
        "s",
        "p"
      ],
      [
        "g",
        "o"
      ],
      [
        "d",
        "er"
      ],
      [
        "ta",
        "in"
      ],
      [
        "par",
        "k"
      ],
      [
        "p",
        "ic"
      ],
      [
        "do",
        "or"
      ],
      [
        "g",
        "u"
      ],
      [
        "bi",
        "ke"
      ],
      [
        "back",
        "ground"
      ],
      [
        "c",
        "am"
      ],
      [
        "on",
        "d"
      ],
      [
        "f",
        "a"
      ],
      [
        "o",
        "d"
      ],
      [
        "men",
        "t"
      ],
      [
        "d",
        "e"
      ],
      [
        "m",
        "ar"
      ],
      [
        "ro",
        "ck"
      ],
      [
        "w",
        "all"
      ],
      [
        "t",
        "en"
      ],
      [
        "c",
        "ity"
      ],
      [
        "s",
        "uit"
      ],
      [
        "play",
        "er"
      ],
      [
        "b",
        "ic"
      ],
      [
        "girl",
        "s"
      ],
      [
        "d",
        "an"
      ],
      [
        "d",
        "le"
      ],
      [
        "f",
        "l"
      ],
      [
        "per",
        "form"
      ],
      [
        "pic",
        "ture"
      ],
      [
        "b",
        "en"
      ],
      [
        "oo",
        "l"
      ],
      [
        "loo",
        "ks"
      ],
      [
        "cam",
        "er"
      ],
      [
        "m",
        "u"
      ],
      [
        "s",
        "ur"
      ],
      [
        "ti",
        "on"
      ],
      [
        "v",
        "es"
      ],
      [
        "m",
        "et"
      ],
      [
        "sh",
        "or"
      ],
      [
        "uit",
        "ar"
      ],
      [
        "r",
        "op"
      ],
      [
        "g",
        "uitar"
      ],
      [
        "dog",
        "s"
      ],
      [
        "ver",
        "al"
      ],
      [
        "th",
        "at"
      ],
      [
        "camer",
        "a"
      ],
      [
        "wo",
        "od"
      ],
      [
        "c",
        "t"
      ],
      [
        "g",
        "et"
      ],
      [
        "an",
        "t"
      ],
      [
        "ir",
        "t"
      ],
      [
        "oo",
        "m"
      ],
      [
        "oun",
        "tain"
      ],
      [
        "p",
        "ed"
      ],
      [
        "ho",
        "ld"
      ],
      [
        "m",
        "id"
      ],
      [
        "he",
        "l"
      ],
      [
        "tal",
        "king"
      ],
      [
        "to",
        "r"
      ],
      [
        "some",
        "thing"
      ],
      [
        "s",
        "ho"
      ],
      [
        "c",
        "ing"
      ],
      [
        "e",
        "l"
      ],
      [
        "c",
        "cer"
      ],
      [
        "old",
        "er"
      ],
      [
        "i",
        "ck"
      ],
      [
        "f",
        "f"
      ],
      [
        "p",
        "an"
      ],
      [
        "c",
        "a"
      ],
      [
        "st",
        "u"
      ],
      [
        "al",
        "ong"
      ],
      [
        "walk",
        "s"
      ],
      [
        "ro",
        "ad"
      ],
      [
        "is",
        "h"
      ],
      [
        "bu",
        "s"
      ],
      [
        "foo",
        "d"
      ],
      [
        "boy",
        "s"
      ],
      [
        "wor",
        "king"
      ],
      [
        "b",
        "ri"
      ],
      [
        "la",
        "dy"
      ],
      [
        "c",
        "u"
      ],
      [
        "g",
        "g"
      ],
      [
        "to",
        "ge"
      ],
      [
        "so",
        "ccer"
      ],
      [
        "toge",
        "ther"
      ],
      [
        "bl",
        "ond"
      ],
      [
        "g",
        "n"
      ],
      [
        "sk",
        "ate"
      ],
      [
        "gr",
        "ay"
      ],
      [
        "h",
        "or"
      ],
      [
        "le",
        "s"
      ],
      [
        "en",
        "d"
      ],
      [
        "hi",
        "m"
      ],
      [
        "bic",
        "ycle"
      ],
      [
        "A",
        "si"
      ],
      [
        "sm",
        "iling"
      ],
      [
        "k",
        "es"
      ],
      [
        "un",
        "i"
      ],
      [
        "e",
        "y"
      ],
      [
        "play",
        "s"
      ],
      [
        "h",
        "as"
      ],
      [
        "ga",
        "me"
      ],
      [
        "j",
        "o"
      ],
      [
        "st",
        "ri"
      ],
      [
        "d",
        "r"
      ],
      [
        "m",
        "er"
      ],
      [
        "ben",
        "ch"
      ],
      [
        "co",
        "mp"
      ],
      [
        "bo",
        "o"
      ],
      [
        "gu",
        "y"
      ],
      [
        "p",
        "re"
      ],
      [
        "the",
        "m"
      ],
      [
        "uni",
        "form"
      ],
      [
        "q",
        "u"
      ],
      [
        "Asi",
        "an"
      ],
      [
        "ch",
        "e"
      ],
      [
        "it",
        "s"
      ],
      [
        "foo",
        "t"
      ],
      [
        "le",
        "d"
      ],
      [
        "hold",
        "s"
      ],
      [
        "m",
        "s"
      ],
      [
        "s",
        "and"
      ],
      [
        "at",
        "ion"
      ],
      [
        "fa",
        "ce"
      ],
      [
        "c",
        "tion"
      ],
      [
        "o",
        "l"
      ],
      [
        "at",
        "ch"
      ],
      [
        "s",
        "a"
      ],
      [
        "s",
        "wi"
      ],
      [
        "F",
        "our"
      ],
      [
        "S",
        "e"
      ],
      [
        "car",
        "r"
      ],
      [
        "cli",
        "mb"
      ],
      [
        "pan",
        "ts"
      ],
      [
        "ch",
        "air"
      ],
      [
        "skate",
        "board"
      ],
      [
        "r",
        "oom"
      ],
      [
        "co",
        "l"
      ],
      [
        "l",
        "ing"
      ],
      [
        "k",
        "id"
      ],
      [
        "pa",
        "in"
      ],
      [
        "g",
        "s"
      ],
      [
        "un",
        "der"
      ],
      [
        "sta",
        "ge"
      ],
      [
        "p",
        "ur"
      ],
      [
        "shor",
        "ts"
      ],
      [
        "c",
        "oup"
      ],
      [
        "p",
        "ing"
      ],
      [
        "u",
        "mb"
      ],
      [
        "en",
        "t"
      ],
      [
        "bo",
        "at"
      ],
      [
        "carr",
        "ying"
      ],
      [
        "d",
        "irt"
      ],
      [
        "m",
        "ing"
      ],
      [
        "p",
        "l"
      ],
      [
        "f",
        "ul"
      ],
      [
        "s",
        "et"
      ],
      [
        "s",
        "es"
      ],
      [
        "s",
        "pe"
      ],
      [
        "ba",
        "by"
      ],
      [
        "coup",
        "le"
      ],
      [
        "t",
        "ri"
      ],
      [
        "ra",
        "ce"
      ],
      [
        "l",
        "ong"
      ],
      [
        "t",
        "an"
      ],
      [
        "t",
        "ree"
      ],
      [
        "out",
        "door"
      ],
      [
        "bas",
        "e"
      ],
      [
        "b",
        "and"
      ],
      [
        "ar",
        "k"
      ],
      [
        "loo",
        "k"
      ],
      [
        "fe",
        "male"
      ],
      [
        "swi",
        "m"
      ],
      [
        "m",
        "ic"
      ],
      [
        "m",
        "ountain"
      ],
      [
        "co",
        "at"
      ],
      [
        "d",
        "ay"
      ],
      [
        "Se",
        "veral"
      ],
      [
        "p",
        "le"
      ],
      [
        "p",
        "ool"
      ],
      [
        "sh",
        "op"
      ],
      [
        "e",
        "ach"
      ],
      [
        "si",
        "gn"
      ],
      [
        "p",
        "ro"
      ],
      [
        "ow",
        "ing"
      ],
      [
        "ta",
        "king"
      ],
      [
        "p",
        "hone"
      ],
      [
        "t",
        "ow"
      ],
      [
        "bas",
        "ket"
      ],
      [
        "ll",
        "ing"
      ],
      [
        "a",
        "u"
      ],
      [
        "do",
        "ing"
      ],
      [
        "d",
        "ark"
      ],
      [
        "c",
        "or"
      ],
      [
        "t",
        "y"
      ],
      [
        "ho",
        "to"
      ],
      [
        "ac",
        "ross"
      ],
      [
        "watch",
        "ing"
      ],
      [
        "b",
        "ar"
      ],
      [
        "it",
        "ing"
      ],
      [
        "ic",
        "an"
      ],
      [
        "je",
        "ans"
      ],
      [
        "e",
        "x"
      ],
      [
        "are",
        "a"
      ],
      [
        "te",
        "am"
      ],
      [
        "ou",
        "th"
      ],
      [
        "mid",
        "dle"
      ],
      [
        "w",
        "ho"
      ],
      [
        "p",
        "hoto"
      ],
      [
        "st",
        "ore"
      ],
      [
        "s",
        "l"
      ],
      [
        "v",
        "i"
      ],
      [
        "jump",
        "s"
      ],
      [
        "f",
        "ore"
      ],
      [
        "hand",
        "s"
      ],
      [
        "c",
        "ross"
      ],
      [
        "hel",
        "met"
      ],
      [
        "s",
        "ic"
      ],
      [
        "hor",
        "se"
      ],
      [
        "f",
        "lo"
      ],
      [
        "en",
        "ce"
      ],
      [
        "w",
        "ind"
      ],
      [
        "s",
        "u"
      ],
      [
        "st",
        "s"
      ],
      [
        "sw",
        "ing"
      ],
      [
        "eat",
        "ing"
      ],
      [
        "perform",
        "ing"
      ],
      [
        "to",
        "y"
      ],
      [
        "n",
        "i"
      ],
      [
        "w",
        "e"
      ],
      [
        "be",
        "ing"
      ],
      [
        "sw",
        "eat"
      ],
      [
        "li",
        "ght"
      ],
      [
        "stri",
        "ped"
      ],
      [
        "ck",
        "s"
      ],
      [
        "ur",
        "ing"
      ],
      [
        "mo",
        "tor"
      ],
      [
        "base",
        "ball"
      ],
      [
        "c",
        "re"
      ],
      [
        "u",
        "sing"
      ],
      [
        "col",
        "or"
      ],
      [
        "m",
        "outh"
      ],
      [
        "mu",
        "sic"
      ],
      [
        "W",
        "o"
      ],
      [
        "w",
        "he"
      ],
      [
        "foot",
        "ball"
      ],
      [
        "re",
        "l"
      ],
      [
        "c",
        "l"
      ],
      [
        "i",
        "red"
      ],
      [
        "d",
        "ing"
      ],
      [
        "it",
        "ch"
      ],
      [
        "pur",
        "ple"
      ],
      [
        "a",
        "b"
      ],
      [
        "s",
        "le"
      ],
      [
        "mic",
        "rop"
      ],
      [
        "a",
        "g"
      ],
      [
        "ap",
        "p"
      ],
      [
        "h",
        "u"
      ],
      [
        "at",
        "ing"
      ],
      [
        "t",
        "re"
      ],
      [
        "o",
        "b"
      ],
      [
        "ha",
        "ired"
      ],
      [
        "tow",
        "ard"
      ],
      [
        "f",
        "la"
      ],
      [
        "g",
        "i"
      ],
      [
        "n",
        "is"
      ],
      [
        "en",
        "jo"
      ],
      [
        "ap",
        "er"
      ],
      [
        "po",
        "sing"
      ],
      [
        "run",
        "s"
      ],
      [
        "tra",
        "in"
      ],
      [
        "wind",
        "ow"
      ],
      [
        "f",
        "u"
      ],
      [
        "ad",
        "ul"
      ],
      [
        "stru",
        "ction"
      ],
      [
        "sur",
        "f"
      ],
      [
        "Y",
        "oung"
      ],
      [
        "read",
        "ing"
      ],
      [
        "ten",
        "nis"
      ],
      [
        "n",
        "a"
      ],
      [
        "s",
        "he"
      ],
      [
        "sun",
        "glasses"
      ],
      [
        "d",
        "es"
      ],
      [
        "n",
        "er"
      ],
      [
        "t",
        "ru"
      ],
      [
        "c",
        "an"
      ],
      [
        "clo",
        "thing"
      ],
      [
        "d",
        "ri"
      ],
      [
        "th",
        "ree"
      ],
      [
        "st",
        "ick"
      ],
      [
        "play",
        "ers"
      ],
      [
        "microp",
        "hone"
      ],
      [
        "b",
        "ow"
      ],
      [
        "ce",
        "an"
      ],
      [
        "ve",
        "red"
      ],
      [
        "The",
        "re"
      ],
      [
        "pa",
        "st"
      ],
      [
        "fl",
        "ow"
      ],
      [
        "f",
        "ish"
      ],
      [
        "as",
        "h"
      ],
      [
        "ad",
        "e"
      ],
      [
        "co",
        "vered"
      ],
      [
        "t",
        "ed"
      ],
      [
        "er",
        "ly"
      ],
      [
        "c",
        "atch"
      ],
      [
        "i",
        "ve"
      ],
      [
        "t",
        "ting"
      ],
      [
        "in",
        "st"
      ],
      [
        "basket",
        "ball"
      ],
      [
        "o",
        "cean"
      ],
      [
        "fi",
        "re"
      ],
      [
        "hi",
        "ll"
      ],
      [
        "ou",
        "ch"
      ],
      [
        "watch",
        "es"
      ],
      [
        "d",
        "uring"
      ],
      [
        "climb",
        "ing"
      ],
      [
        "motor",
        "c"
      ],
      [
        "i",
        "an"
      ],
      [
        "sta",
        "ur"
      ],
      [
        "dan",
        "cing"
      ],
      [
        "re",
        "staur"
      ],
      [
        "ba",
        "g"
      ],
      [
        "bri",
        "ght"
      ],
      [
        "kid",
        "s"
      ],
      [
        "a",
        "ga"
      ],
      [
        "e",
        "v"
      ],
      [
        "r",
        "ound"
      ],
      [
        "restaur",
        "ant"
      ],
      [
        "c",
        "ap"
      ],
      [
        "n",
        "o"
      ],
      [
        "le",
        "y"
      ],
      [
        "ro",
        "ll"
      ],
      [
        "out",
        "f"
      ],
      [
        "sm",
        "i"
      ],
      [
        "sk",
        "i"
      ],
      [
        "aga",
        "inst"
      ],
      [
        "b",
        "al"
      ],
      [
        "p",
        "ack"
      ],
      [
        "shir",
        "ts"
      ],
      [
        "in",
        "es"
      ],
      [
        "fu",
        "ll"
      ],
      [
        "at",
        "ed"
      ],
      [
        "rid",
        "es"
      ],
      [
        "umb",
        "rel"
      ],
      [
        "umbrel",
        "la"
      ],
      [
        "u",
        "m"
      ],
      [
        "hi",
        "gh"
      ],
      [
        "a",
        "th"
      ],
      [
        "f",
        "t"
      ],
      [
        "op",
        "en"
      ],
      [
        "eld",
        "erly"
      ],
      [
        "a",
        "k"
      ],
      [
        "v",
        "ers"
      ],
      [
        "ar",
        "m"
      ],
      [
        "ver",
        "y"
      ],
      [
        "lo",
        "red"
      ],
      [
        "mar",
        "ket"
      ],
      [
        "d",
        "u"
      ],
      [
        "ou",
        "se"
      ],
      [
        "O",
        "ne"
      ],
      [
        "S",
        "o"
      ],
      [
        "wood",
        "en"
      ],
      [
        "ab",
        "out"
      ],
      [
        "tre",
        "es"
      ],
      [
        "an",
        "g"
      ],
      [
        "ha",
        "ving"
      ],
      [
        "ce",
        "ll"
      ],
      [
        "flo",
        "or"
      ],
      [
        "wa",
        "iting"
      ],
      [
        "in",
        "stru"
      ],
      [
        "the",
        "y"
      ],
      [
        "th",
        "ers"
      ],
      [
        "dr",
        "in"
      ],
      [
        "l",
        "ine"
      ],
      [
        "swim",
        "ming"
      ],
      [
        "e",
        "w"
      ],
      [
        "get",
        "ting"
      ],
      [
        "boo",
        "k"
      ],
      [
        "co",
        "stu"
      ],
      [
        "tru",
        "ck"
      ],
      [
        "b",
        "ear"
      ],
      [
        "an",
        "ing"
      ],
      [
        "le",
        "a"
      ],
      [
        "ck",
        "et"
      ],
      [
        "il",
        "y"
      ],
      [
        "car",
        "t"
      ],
      [
        "con",
        "struction"
      ],
      [
        "tr",
        "ying"
      ],
      [
        "work",
        "ers"
      ],
      [
        "sh",
        "ing"
      ],
      [
        "ni",
        "ght"
      ],
      [
        "motorc",
        "ycle"
      ],
      [
        "c",
        "es"
      ],
      [
        "re",
        "st"
      ],
      [
        "y",
        "cli"
      ],
      [
        "bus",
        "y"
      ],
      [
        "color",
        "ful"
      ],
      [
        "ow",
        "s"
      ],
      [
        "sing",
        "ing"
      ],
      [
        "b",
        "es"
      ],
      [
        "f",
        "ence"
      ],
      [
        "r",
        "ide"
      ],
      [
        "a",
        "ge"
      ],
      [
        "pi",
        "e"
      ],
      [
        "Wo",
        "man"
      ],
      [
        "T",
        "his"
      ],
      [
        "d",
        "is"
      ],
      [
        "l",
        "er"
      ],
      [
        "ou",
        "s"
      ],
      [
        "ne",
        "w"
      ],
      [
        "an",
        "ce"
      ],
      [
        "st",
        "air"
      ],
      [
        "bo",
        "dy"
      ],
      [
        "ep",
        "s"
      ],
      [
        "i",
        "p"
      ],
      [
        "pa",
        "th"
      ],
      [
        "c",
        "i"
      ],
      [
        "ma",
        "ch"
      ],
      [
        "clo",
        "the"
      ],
      [
        "comp",
        "et"
      ],
      [
        "po",
        "l"
      ],
      [
        "on",
        "s"
      ],
      [
        "la",
        "ying"
      ],
      [
        "hat",
        "s"
      ],
      [
        "itch",
        "en"
      ],
      [
        "So",
        "me"
      ],
      [
        "p",
        "ass"
      ],
      [
        "s",
        "er"
      ],
      [
        "le",
        "ss"
      ],
      [
        "la",
        "u"
      ],
      [
        "tra",
        "ck"
      ],
      [
        "M",
        "en"
      ],
      [
        "p",
        "aper"
      ],
      [
        "st",
        "ic"
      ],
      [
        "bear",
        "d"
      ],
      [
        "k",
        "itchen"
      ],
      [
        "o",
        "thers"
      ],
      [
        "in",
        "side"
      ],
      [
        "c",
        "our"
      ],
      [
        "k",
        "ick"
      ],
      [
        "grass",
        "y"
      ],
      [
        "ep",
        "ing"
      ],
      [
        "gg",
        "ing"
      ],
      [
        "cell",
        "phone"
      ],
      [
        "i",
        "m"
      ],
      [
        "ar",
        "t"
      ],
      [
        "ri",
        "ver"
      ],
      [
        "ma",
        "king"
      ],
      [
        "je",
        "ct"
      ],
      [
        "sur",
        "round"
      ],
      [
        "or",
        "t"
      ],
      [
        "a",
        "ff"
      ],
      [
        "t",
        "ur"
      ],
      [
        "sh",
        "a"
      ],
      [
        "back",
        "pack"
      ],
      [
        "bri",
        "ck"
      ],
      [
        "clothe",
        "s"
      ],
      [
        "m",
        "as"
      ],
      [
        "al",
        "s"
      ],
      [
        "gr",
        "ap"
      ],
      [
        "ta",
        "kes"
      ],
      [
        "bi",
        "k"
      ],
      [
        "met",
        "al"
      ],
      [
        "outf",
        "it"
      ],
      [
        "f",
        "ac"
      ],
      [
        "ra",
        "in"
      ],
      [
        "bi",
        "g"
      ],
      [
        "toward",
        "s"
      ],
      [
        "lau",
        "gh"
      ],
      [
        "b",
        "an"
      ],
      [
        "ck",
        "ey"
      ],
      [
        "f",
        "li"
      ],
      [
        "st",
        "one"
      ],
      [
        "ve",
        "st"
      ],
      [
        "enjo",
        "ying"
      ],
      [
        "c",
        "oun"
      ],
      [
        "ck",
        "ing"
      ],
      [
        "oo",
        "d"
      ],
      [
        "bo",
        "x"
      ],
      [
        "co",
        "lored"
      ],
      [
        "n",
        "y"
      ],
      [
        "t",
        "ic"
      ],
      [
        "m",
        "es"
      ],
      [
        "op",
        "e"
      ],
      [
        "read",
        "y"
      ],
      [
        "pie",
        "ce"
      ],
      [
        "la",
        "p"
      ],
      [
        "ra",
        "w"
      ],
      [
        "c",
        "as"
      ],
      [
        "d",
        "d"
      ],
      [
        "h",
        "ard"
      ],
      [
        "at",
        "es"
      ],
      [
        "tan",
        "k"
      ],
      [
        "in",
        "ter"
      ],
      [
        "st",
        "er"
      ],
      [
        "or",
        "s"
      ],
      [
        "h",
        "ouse"
      ],
      [
        "it",
        "ion"
      ],
      [
        "un",
        "ch"
      ],
      [
        "pain",
        "ting"
      ],
      [
        "F",
        "ive"
      ],
      [
        "a",
        "bo"
      ],
      [
        "c",
        "ow"
      ],
      [
        "d",
        "ru"
      ],
      [
        "h",
        "ang"
      ],
      [
        "it",
        "e"
      ],
      [
        "C",
        "hild"
      ],
      [
        "r",
        "ing"
      ],
      [
        "la",
        "ke"
      ],
      [
        "ti",
        "re"
      ],
      [
        "sweat",
        "er"
      ],
      [
        "p",
        "are"
      ],
      [
        "it",
        "i"
      ],
      [
        "tri",
        "ck"
      ],
      [
        "su",
        "b"
      ],
      [
        "se",
        "veral"
      ],
      [
        "photo",
        "grap"
      ],
      [
        "abo",
        "ve"
      ],
      [
        "a",
        "f"
      ],
      [
        "fr",
        "ican"
      ],
      [
        "br",
        "id"
      ],
      [
        "ble",
        "s"
      ],
      [
        "vi",
        "ew"
      ],
      [
        "k",
        "ne"
      ],
      [
        "v",
        "ol"
      ],
      [
        "the",
        "red"
      ],
      [
        "lo",
        "t"
      ],
      [
        "go",
        "ing"
      ],
      [
        "pol",
        "ice"
      ],
      [
        "f",
        "ri"
      ],
      [
        "le",
        "c"
      ],
      [
        "man",
        "y"
      ],
      [
        "ch",
        "as"
      ],
      [
        "li",
        "ke"
      ],
      [
        "c",
        "lass"
      ],
      [
        "on",
        "to"
      ],
      [
        "ir",
        "d"
      ],
      [
        "bo",
        "t"
      ],
      [
        "snow",
        "y"
      ],
      [
        "dan",
        "ce"
      ],
      [
        "g",
        "y"
      ],
      [
        "on",
        "es"
      ],
      [
        "te",
        "mp"
      ],
      [
        "wa",
        "ve"
      ],
      [
        "work",
        "er"
      ],
      [
        "shop",
        "ping"
      ],
      [
        "whe",
        "el"
      ],
      [
        "c",
        "al"
      ],
      [
        "c",
        "oo"
      ],
      [
        "f",
        "o"
      ],
      [
        "g",
        "en"
      ],
      [
        "i",
        "ll"
      ],
      [
        "st",
        "o"
      ],
      [
        "uniform",
        "s"
      ],
      [
        "surround",
        "ed"
      ],
      [
        "ga",
        "ther"
      ],
      [
        "crowd",
        "ed"
      ],
      [
        "I",
        "n"
      ],
      [
        "g",
        "ear"
      ],
      [
        "po",
        "in"
      ],
      [
        "snow",
        "board"
      ],
      [
        "te",
        "en"
      ],
      [
        "smi",
        "les"
      ],
      [
        "p",
        "ra"
      ],
      [
        "ve",
        "l"
      ],
      [
        "po",
        "le"
      ],
      [
        "outdoor",
        "s"
      ],
      [
        "bes",
        "ide"
      ],
      [
        "fri",
        "end"
      ],
      [
        "to",
        "dd"
      ],
      [
        "con",
        "vers"
      ],
      [
        "adul",
        "ts"
      ],
      [
        "roll",
        "er"
      ],
      [
        "A",
        "mer"
      ],
      [
        "c",
        "ur"
      ],
      [
        "pl",
        "an"
      ],
      [
        "drin",
        "king"
      ],
      [
        "f",
        "am"
      ],
      [
        "y",
        "ard"
      ],
      [
        "sho",
        "es"
      ],
      [
        "d",
        "en"
      ],
      [
        "m",
        "on"
      ],
      [
        "men",
        "ts"
      ],
      [
        "af",
        "ter"
      ],
      [
        "brid",
        "ge"
      ],
      [
        "f",
        "all"
      ],
      [
        "s",
        "car"
      ],
      [
        "st",
        "ar"
      ],
      [
        "flow",
        "ers"
      ],
      [
        "f",
        "ountain"
      ],
      [
        "y",
        "s"
      ],
      [
        "ga",
        "thered"
      ],
      [
        "pre",
        "par"
      ],
      [
        "au",
        "ti"
      ],
      [
        "le",
        "ap"
      ],
      [
        "ar",
        "ms"
      ],
      [
        "ev",
        "ent"
      ],
      [
        "hang",
        "ing"
      ],
      [
        "a",
        "way"
      ],
      [
        "ar",
        "y"
      ],
      [
        "ld",
        "er"
      ],
      [
        "pre",
        "pare"
      ],
      [
        "sub",
        "way"
      ],
      [
        "A",
        "frican"
      ],
      [
        "car",
        "ri"
      ],
      [
        "gy",
        "m"
      ],
      [
        "fam",
        "ily"
      ],
      [
        "auti",
        "ful"
      ],
      [
        "x",
        "ing"
      ],
      [
        "en",
        "ing"
      ],
      [
        "gr",
        "aff"
      ],
      [
        "ra",
        "p"
      ],
      [
        "ball",
        "o"
      ],
      [
        "sm",
        "o"
      ],
      [
        "rop",
        "e"
      ],
      [
        "prepar",
        "ing"
      ],
      [
        "p",
        "h"
      ],
      [
        "le",
        "aning"
      ],
      [
        "st",
        "eps"
      ],
      [
        "ho",
        "ckey"
      ],
      [
        "ta",
        "ke"
      ],
      [
        "ob",
        "ject"
      ],
      [
        "costu",
        "me"
      ],
      [
        "todd",
        "ler"
      ],
      [
        "m",
        "at"
      ],
      [
        "at",
        "temp"
      ],
      [
        "ra",
        "cing"
      ],
      [
        "off",
        "ic"
      ],
      [
        "Man",
        "y"
      ],
      [
        "shor",
        "t"
      ],
      [
        "comp",
        "u"
      ],
      [
        "fore",
        "st"
      ],
      [
        "sle",
        "eping"
      ],
      [
        "fish",
        "ing"
      ],
      [
        "do",
        "es"
      ],
      [
        "ma",
        "ke"
      ],
      [
        "tra",
        "il"
      ],
      [
        "guy",
        "s"
      ],
      [
        "app",
        "ear"
      ],
      [
        "graff",
        "iti"
      ],
      [
        "p",
        "r"
      ],
      [
        "pla",
        "id"
      ],
      [
        "mach",
        "ine"
      ],
      [
        "Child",
        "ren"
      ],
      [
        "k",
        "is"
      ],
      [
        "be",
        "autiful"
      ],
      [
        "sk",
        "y"
      ],
      [
        "stair",
        "s"
      ],
      [
        "c",
        "up"
      ],
      [
        "f",
        "our"
      ],
      [
        "v",
        "ed"
      ],
      [
        "di",
        "es"
      ],
      [
        "Amer",
        "ican"
      ],
      [
        "b",
        "at"
      ],
      [
        "b",
        "ed"
      ],
      [
        "ra",
        "il"
      ],
      [
        "chair",
        "s"
      ],
      [
        "adul",
        "t"
      ],
      [
        "g",
        "ar"
      ],
      [
        "as",
        "ian"
      ],
      [
        "tr",
        "y"
      ],
      [
        "b",
        "re"
      ],
      [
        "be",
        "e"
      ],
      [
        "C",
        "h"
      ],
      [
        "f",
        "il"
      ],
      [
        "v",
        "en"
      ],
      [
        "in",
        "ed"
      ],
      [
        "to",
        "o"
      ],
      [
        "ers",
        "ey"
      ],
      [
        "shirt",
        "less"
      ],
      [
        "se",
        "lling"
      ],
      [
        "pra",
        "ct"
      ],
      [
        "b",
        "et"
      ],
      [
        "j",
        "ersey"
      ],
      [
        "t",
        "all"
      ],
      [
        "st",
        "e"
      ],
      [
        "st",
        "at"
      ],
      [
        "li",
        "st"
      ],
      [
        "sun",
        "ny"
      ],
      [
        "rock",
        "s"
      ],
      [
        "set",
        "ting"
      ],
      [
        "ag",
        "ed"
      ],
      [
        "e",
        "qu"
      ],
      [
        "ar",
        "i"
      ],
      [
        "ll",
        "s"
      ],
      [
        "po",
        "se"
      ],
      [
        "ju",
        "st"
      ],
      [
        "ycli",
        "st"
      ],
      [
        "i",
        "v"
      ],
      [
        "n",
        "et"
      ],
      [
        "st",
        "ance"
      ],
      [
        "is",
        "e"
      ],
      [
        "sh",
        "ou"
      ],
      [
        "po",
        "t"
      ],
      [
        "scar",
        "f"
      ],
      [
        "l",
        "and"
      ],
      [
        "m",
        "atch"
      ],
      [
        "r",
        "on"
      ],
      [
        "t",
        "ch"
      ],
      [
        "w",
        "et"
      ],
      [
        "er",
        "y"
      ],
      [
        "le",
        "ad"
      ],
      [
        "bo",
        "th"
      ],
      [
        "ra",
        "mp"
      ],
      [
        "pu",
        "tting"
      ],
      [
        "cor",
        "ner"
      ],
      [
        "vol",
        "ley"
      ],
      [
        "gen",
        "tle"
      ],
      [
        "equ",
        "ip"
      ],
      [
        "n",
        "umb"
      ],
      [
        "is",
        "bee"
      ],
      [
        "thr",
        "owing"
      ],
      [
        "pu",
        "shing"
      ],
      [
        "ten",
        "t"
      ],
      [
        "cl",
        "u"
      ],
      [
        "fli",
        "p"
      ],
      [
        "b",
        "or"
      ],
      [
        "f",
        "et"
      ],
      [
        "s",
        "ed"
      ],
      [
        "bl",
        "ic"
      ],
      [
        "ti",
        "me"
      ],
      [
        "par",
        "ade"
      ],
      [
        "pu",
        "blic"
      ],
      [
        "ha",
        "ve"
      ],
      [
        "dr",
        "ink"
      ],
      [
        "sl",
        "ide"
      ],
      [
        "we",
        "en"
      ],
      [
        "bet",
        "ween"
      ],
      [
        "volley",
        "ball"
      ],
      [
        "c",
        "ouch"
      ],
      [
        "r",
        "ow"
      ],
      [
        "hi",
        "cle"
      ],
      [
        "st",
        "op"
      ],
      [
        "la",
        "dies"
      ],
      [
        "sc",
        "en"
      ],
      [
        "laugh",
        "ing"
      ],
      [
        "l",
        "f"
      ],
      [
        "m",
        "ed"
      ],
      [
        "sh",
        "ow"
      ],
      [
        "fr",
        "uit"
      ],
      [
        "some",
        "one"
      ],
      [
        "read",
        "s"
      ],
      [
        "fla",
        "g"
      ],
      [
        "instru",
        "ments"
      ],
      [
        "compu",
        "ter"
      ],
      [
        "equip",
        "ment"
      ],
      [
        "s",
        "qu"
      ],
      [
        "v",
        "end"
      ],
      [
        "ch",
        "ool"
      ],
      [
        "ho",
        "me"
      ],
      [
        "ve",
        "hicle"
      ],
      [
        "bi",
        "kes"
      ],
      [
        "picture",
        "s"
      ],
      [
        "whe",
        "re"
      ],
      [
        "c",
        "ra"
      ],
      [
        "g",
        "lo"
      ],
      [
        "h",
        "app"
      ],
      [
        "pla",
        "stic"
      ],
      [
        "wood",
        "s"
      ],
      [
        "spe",
        "a"
      ],
      [
        "photograp",
        "h"
      ],
      [
        "bot",
        "tle"
      ],
      [
        "b",
        "ird"
      ],
      [
        "p",
        "at"
      ],
      [
        "p",
        "ad"
      ],
      [
        "u",
        "re"
      ],
      [
        "re",
        "ach"
      ],
      [
        "whi",
        "ch"
      ],
      [
        "all",
        "y"
      ],
      [
        "play",
        "ground"
      ],
      [
        "po",
        "ses"
      ],
      [
        "wor",
        "ks"
      ],
      [
        "par",
        "ty"
      ],
      [
        "con",
        "cre"
      ],
      [
        "sweat",
        "shirt"
      ],
      [
        "concre",
        "te"
      ],
      [
        "c",
        "tor"
      ],
      [
        "g",
        "old"
      ],
      [
        "do",
        "ck"
      ],
      [
        "fe",
        "ren"
      ],
      [
        "stat",
        "ue"
      ],
      [
        "l",
        "ow"
      ],
      [
        "w",
        "ard"
      ],
      [
        "w",
        "inter"
      ],
      [
        "mid",
        "air"
      ],
      [
        "gg",
        "les"
      ],
      [
        "B",
        "o"
      ],
      [
        "i",
        "um"
      ],
      [
        "s",
        "il"
      ],
      [
        "w",
        "r"
      ],
      [
        "suit",
        "s"
      ],
      [
        "in",
        "i"
      ],
      [
        "bu",
        "cket"
      ],
      [
        "sk",
        "irt"
      ],
      [
        "sc",
        "ope"
      ],
      [
        "cow",
        "boy"
      ],
      [
        "numb",
        "er"
      ],
      [
        "e",
        "mp"
      ],
      [
        "i",
        "x"
      ],
      [
        "t",
        "at"
      ],
      [
        "at",
        "ors"
      ],
      [
        "bl",
        "o"
      ],
      [
        "ve",
        "get"
      ],
      [
        "ti",
        "ve"
      ],
      [
        "di",
        "stance"
      ],
      [
        "G",
        "r"
      ],
      [
        "d",
        "in"
      ],
      [
        "k",
        "i"
      ],
      [
        "t",
        "te"
      ],
      [
        "w",
        "hat"
      ],
      [
        "an",
        "im"
      ],
      [
        "at",
        "tire"
      ],
      [
        "pla",
        "ce"
      ],
      [
        "ri",
        "ght"
      ],
      [
        "sh",
        "es"
      ],
      [
        "se",
        "ated"
      ],
      [
        "ba",
        "gs"
      ],
      [
        "pro",
        "te"
      ],
      [
        "cre",
        "am"
      ],
      [
        "s",
        "chool"
      ],
      [
        "in",
        "s"
      ],
      [
        "le",
        "ft"
      ],
      [
        "la",
        "d"
      ],
      [
        "sit",
        "e"
      ],
      [
        "ri",
        "st"
      ],
      [
        "sp",
        "or"
      ],
      [
        "spe",
        "ct"
      ],
      [
        "sl",
        "id"
      ],
      [
        "l",
        "ined"
      ],
      [
        "p",
        "s"
      ],
      [
        "en",
        "ter"
      ],
      [
        "ed",
        "ge"
      ],
      [
        "bl",
        "an"
      ],
      [
        "be",
        "er"
      ],
      [
        "ve",
        "sts"
      ],
      [
        "wa",
        "it"
      ],
      [
        "stru",
        "c"
      ],
      [
        "cu",
        "tting"
      ],
      [
        "kne",
        "el"
      ],
      [
        "coo",
        "king"
      ],
      [
        "fil",
        "led"
      ],
      [
        "F",
        "r"
      ],
      [
        "d",
        "raw"
      ],
      [
        "m",
        "il"
      ],
      [
        "n",
        "ed"
      ],
      [
        "op",
        "s"
      ],
      [
        "building",
        "s"
      ],
      [
        "pu",
        "lling"
      ],
      [
        "cli",
        "ff"
      ],
      [
        "new",
        "sp"
      ],
      [
        "L",
        "it"
      ],
      [
        "g",
        "are"
      ],
      [
        "k",
        "ers"
      ],
      [
        "r",
        "y"
      ],
      [
        "le",
        "t"
      ],
      [
        "st",
        "ation"
      ],
      [
        "al",
        "ley"
      ],
      [
        "es",
        "e"
      ],
      [
        "gr",
        "ill"
      ],
      [
        "ho",
        "t"
      ],
      [
        "rid",
        "er"
      ],
      [
        "bow",
        "l"
      ],
      [
        "ci",
        "gare"
      ],
      [
        "Lit",
        "tle"
      ],
      [
        "G",
        "irl"
      ],
      [
        "b",
        "are"
      ],
      [
        "t",
        "ers"
      ],
      [
        "w",
        "rest"
      ],
      [
        "ro",
        "of"
      ],
      [
        "bu",
        "t"
      ],
      [
        "clo",
        "se"
      ],
      [
        "che",
        "er"
      ],
      [
        "appear",
        "s"
      ],
      [
        "bre",
        "ak"
      ],
      [
        "pract",
        "ic"
      ],
      [
        "tat",
        "too"
      ],
      [
        "veget",
        "a"
      ],
      [
        "gh",
        "ts"
      ],
      [
        "sh",
        "owing"
      ],
      [
        "mountain",
        "s"
      ],
      [
        "cross",
        "ing"
      ],
      [
        "instru",
        "ment"
      ],
      [
        "cour",
        "t"
      ],
      [
        "blan",
        "ket"
      ],
      [
        "m",
        "ul"
      ],
      [
        "bu",
        "b"
      ],
      [
        "fi",
        "ght"
      ],
      [
        "ba",
        "thing"
      ],
      [
        "cu",
        "t"
      ],
      [
        "pain",
        "t"
      ],
      [
        "struc",
        "ture"
      ],
      [
        "e",
        "lec"
      ],
      [
        "p",
        "et"
      ],
      [
        "le",
        "n"
      ],
      [
        "of",
        "fe"
      ],
      [
        "ic",
        "al"
      ],
      [
        "dress",
        "es"
      ],
      [
        "near",
        "by"
      ],
      [
        "perform",
        "s"
      ],
      [
        "hor",
        "ses"
      ],
      [
        "Wo",
        "men"
      ],
      [
        "In",
        "di"
      ],
      [
        "elec",
        "tr"
      ],
      [
        "h",
        "am"
      ],
      [
        "i",
        "gn"
      ],
      [
        "p",
        "air"
      ],
      [
        "re",
        "la"
      ],
      [
        "se",
        "e"
      ],
      [
        "ap",
        "ron"
      ],
      [
        "fe",
        "w"
      ],
      [
        "cer",
        "t"
      ],
      [
        "dri",
        "ving"
      ],
      [
        "flow",
        "er"
      ],
      [
        "ycli",
        "sts"
      ],
      [
        "coun",
        "try"
      ],
      [
        "friend",
        "s"
      ],
      [
        "carri",
        "es"
      ],
      [
        "Fr",
        "isbee"
      ],
      [
        "d",
        "s"
      ],
      [
        "i",
        "e"
      ],
      [
        "p",
        "or"
      ],
      [
        "u",
        "ses"
      ],
      [
        "v",
        "ari"
      ],
      [
        "w",
        "ing"
      ],
      [
        "re",
        "s"
      ],
      [
        "st",
        "y"
      ],
      [
        "ti",
        "al"
      ],
      [
        "go",
        "al"
      ],
      [
        "sho",
        "re"
      ],
      [
        "bow",
        "ling"
      ],
      [
        "lea",
        "ves"
      ],
      [
        "Gr",
        "oup"
      ],
      [
        "offe",
        "e"
      ],
      [
        "h",
        "ood"
      ],
      [
        "i",
        "z"
      ],
      [
        "ar",
        "ts"
      ],
      [
        "ke",
        "y"
      ],
      [
        "car",
        "s"
      ],
      [
        "park",
        "ed"
      ],
      [
        "boo",
        "ts"
      ],
      [
        "pain",
        "ted"
      ],
      [
        "den",
        "ts"
      ],
      [
        "cigare",
        "tte"
      ],
      [
        "P",
        "erson"
      ],
      [
        "k",
        "er"
      ],
      [
        "m",
        "ir"
      ],
      [
        "m",
        "other"
      ],
      [
        "w",
        "ash"
      ],
      [
        "hi",
        "t"
      ],
      [
        "te",
        "le"
      ],
      [
        "ra",
        "iling"
      ],
      [
        "br",
        "u"
      ],
      [
        "go",
        "ggles"
      ],
      [
        "mu",
        "d"
      ],
      [
        "sho",
        "t"
      ],
      [
        "ca",
        "ke"
      ],
      [
        "smi",
        "le"
      ],
      [
        "dis",
        "play"
      ],
      [
        "snowboard",
        "er"
      ],
      [
        "vend",
        "or"
      ],
      [
        "g",
        "un"
      ],
      [
        "i",
        "ght"
      ],
      [
        "v",
        "is"
      ],
      [
        "la",
        "w"
      ],
      [
        "tal",
        "ks"
      ],
      [
        "mar",
        "tial"
      ],
      [
        "fl",
        "ying"
      ],
      [
        "skateboard",
        "er"
      ],
      [
        "dru",
        "ms"
      ],
      [
        "smo",
        "king"
      ],
      [
        "ph",
        "ones"
      ],
      [
        "a",
        "v"
      ],
      [
        "c",
        "offee"
      ],
      [
        "l",
        "ying"
      ],
      [
        "w",
        "ed"
      ],
      [
        "ga",
        "z"
      ],
      [
        "di",
        "re"
      ],
      [
        "con",
        "cert"
      ],
      [
        "rock",
        "y"
      ],
      [
        "ey",
        "es"
      ],
      [
        "dru",
        "m"
      ],
      [
        "b",
        "unch"
      ],
      [
        "f",
        "un"
      ],
      [
        "f",
        "feren"
      ],
      [
        "s",
        "pla"
      ],
      [
        "gh",
        "ting"
      ],
      [
        "young",
        "er"
      ],
      [
        "co",
        "ming"
      ],
      [
        "ti",
        "e"
      ],
      [
        "jacket",
        "s"
      ],
      [
        "wa",
        "ves"
      ],
      [
        "sa",
        "fet"
      ],
      [
        "swing",
        "ing"
      ],
      [
        "fla",
        "gs"
      ],
      [
        "kick",
        "ing"
      ],
      [
        "convers",
        "ation"
      ],
      [
        "prepare",
        "s"
      ],
      [
        "newsp",
        "aper"
      ],
      [
        "safet",
        "y"
      ],
      [
        "f",
        "en"
      ],
      [
        "p",
        "itch"
      ],
      [
        "u",
        "se"
      ],
      [
        "ar",
        "ti"
      ],
      [
        "at",
        "s"
      ],
      [
        "ro",
        "de"
      ],
      [
        "ce",
        "ment"
      ],
      [
        "par",
        "king"
      ],
      [
        "di",
        "fferen"
      ],
      [
        "au",
        "di"
      ],
      [
        "costu",
        "mes"
      ],
      [
        "cas",
        "e"
      ],
      [
        "gentle",
        "man"
      ],
      [
        "glo",
        "ves"
      ],
      [
        "spect",
        "ators"
      ],
      [
        "practic",
        "ing"
      ],
      [
        "m",
        "ers"
      ],
      [
        "th",
        "is"
      ],
      [
        "on",
        "look"
      ],
      [
        "the",
        "re"
      ],
      [
        "cle",
        "aning"
      ],
      [
        "sc",
        "oo"
      ],
      [
        "pre",
        "s"
      ],
      [
        "surf",
        "er"
      ],
      [
        "compet",
        "ition"
      ],
      [
        "beard",
        "ed"
      ],
      [
        "list",
        "ening"
      ],
      [
        "scen",
        "e"
      ],
      [
        "Bo",
        "y"
      ],
      [
        "lad",
        "der"
      ],
      [
        "differen",
        "t"
      ],
      [
        "i",
        "ans"
      ],
      [
        "p",
        "on"
      ],
      [
        "s",
        "ay"
      ],
      [
        "st",
        "ing"
      ],
      [
        "ch",
        "a"
      ],
      [
        "co",
        "ll"
      ],
      [
        "bu",
        "ll"
      ],
      [
        "ne",
        "ck"
      ],
      [
        "sw",
        "e"
      ],
      [
        "sp",
        "ra"
      ],
      [
        "skateboard",
        "ing"
      ],
      [
        "mas",
        "k"
      ],
      [
        "ite",
        "ms"
      ],
      [
        "star",
        "ing"
      ],
      [
        "id",
        "s"
      ],
      [
        "id",
        "u"
      ],
      [
        "ra",
        "is"
      ],
      [
        "me",
        "al"
      ],
      [
        "si",
        "on"
      ],
      [
        "pi",
        "le"
      ],
      [
        "bicycle",
        "s"
      ],
      [
        "dr",
        "y"
      ],
      [
        "che",
        "ck"
      ],
      [
        "pl",
        "at"
      ],
      [
        "gi",
        "ving"
      ],
      [
        "surf",
        "board"
      ],
      [
        "des",
        "k"
      ],
      [
        "tur",
        "n"
      ],
      [
        "bik",
        "ini"
      ],
      [
        "ballo",
        "on"
      ],
      [
        "emp",
        "ty"
      ],
      [
        "vari",
        "ous"
      ],
      [
        "law",
        "n"
      ],
      [
        "audi",
        "ence"
      ],
      [
        "C",
        "on"
      ],
      [
        "p",
        "ort"
      ],
      [
        "it",
        "ary"
      ],
      [
        "et",
        "te"
      ],
      [
        "am",
        "ong"
      ],
      [
        "get",
        "s"
      ],
      [
        "drin",
        "ks"
      ],
      [
        "Some",
        "one"
      ],
      [
        "leap",
        "s"
      ],
      [
        "rode",
        "o"
      ],
      [
        "onlook",
        "ers"
      ],
      [
        "c",
        "ard"
      ],
      [
        "e",
        "red"
      ],
      [
        "i",
        "al"
      ],
      [
        "k",
        "ay"
      ],
      [
        "n",
        "ic"
      ],
      [
        "z",
        "z"
      ],
      [
        "la",
        "y"
      ],
      [
        "gather",
        "ing"
      ],
      [
        "poin",
        "ting"
      ],
      [
        "sil",
        "ver"
      ],
      [
        "slid",
        "ing"
      ],
      [
        "vegeta",
        "bles"
      ],
      [
        "plat",
        "form"
      ],
      [
        "b",
        "b"
      ],
      [
        "c",
        "ers"
      ],
      [
        "f",
        "ing"
      ],
      [
        "m",
        "ade"
      ],
      [
        "s",
        "of"
      ],
      [
        "en",
        "g"
      ],
      [
        "es",
        "s"
      ],
      [
        "sh",
        "oo"
      ],
      [
        "ur",
        "al"
      ],
      [
        "so",
        "ld"
      ],
      [
        "street",
        "s"
      ],
      [
        "fe",
        "et"
      ],
      [
        "sc",
        "reen"
      ],
      [
        "tr",
        "ad"
      ],
      [
        "vi",
        "ol"
      ],
      [
        "ob",
        "ser"
      ],
      [
        "ines",
        "s"
      ],
      [
        "fac",
        "ing"
      ],
      [
        "coun",
        "ter"
      ],
      [
        "chas",
        "ing"
      ],
      [
        "teen",
        "ag"
      ],
      [
        "spor",
        "ts"
      ],
      [
        "Indi",
        "an"
      ],
      [
        "c",
        "y"
      ],
      [
        "c",
        "ir"
      ],
      [
        "q",
        "ue"
      ],
      [
        "be",
        "fore"
      ],
      [
        "wat",
        "ers"
      ],
      [
        "stre",
        "tch"
      ],
      [
        "ne",
        "l"
      ],
      [
        "ind",
        "iv"
      ],
      [
        "ul",
        "p"
      ],
      [
        "helmet",
        "s"
      ],
      [
        "compet",
        "ing"
      ],
      [
        "bik",
        "er"
      ],
      [
        "happ",
        "y"
      ],
      [
        "spea",
        "king"
      ],
      [
        "wed",
        "ding"
      ],
      [
        "indiv",
        "idu"
      ],
      [
        "S",
        "ix"
      ],
      [
        "e",
        "th"
      ],
      [
        "k",
        "en"
      ],
      [
        "m",
        "all"
      ],
      [
        "in",
        "ing"
      ],
      [
        "li",
        "ghts"
      ],
      [
        "sc",
        "ulp"
      ],
      [
        "sho",
        "vel"
      ],
      [
        "tri",
        "es"
      ],
      [
        "team",
        "s"
      ],
      [
        "hu",
        "ge"
      ],
      [
        "surf",
        "ing"
      ],
      [
        "can",
        "o"
      ],
      [
        "ath",
        "le"
      ],
      [
        "lap",
        "top"
      ],
      [
        "class",
        "room"
      ],
      [
        "trad",
        "ition"
      ],
      [
        "a",
        "st"
      ],
      [
        "c",
        "ed"
      ],
      [
        "p",
        "es"
      ],
      [
        "t",
        "on"
      ],
      [
        "t",
        "un"
      ],
      [
        "v",
        "ide"
      ],
      [
        "w",
        "rap"
      ],
      [
        "me",
        "mb"
      ],
      [
        "br",
        "ide"
      ],
      [
        "fi",
        "ghting"
      ],
      [
        "sing",
        "s"
      ],
      [
        "wa",
        "its"
      ],
      [
        "de",
        "cor"
      ],
      [
        "stu",
        "dents"
      ],
      [
        "bus",
        "iness"
      ],
      [
        "climb",
        "s"
      ],
      [
        "pur",
        "se"
      ],
      [
        "pro",
        "du"
      ],
      [
        "stick",
        "s"
      ],
      [
        "ath",
        "on"
      ],
      [
        "tradition",
        "al"
      ],
      [
        "m",
        "i"
      ],
      [
        "s",
        "led"
      ],
      [
        "sh",
        "ad"
      ],
      [
        "se",
        "en"
      ],
      [
        "par",
        "t"
      ],
      [
        "cr",
        "ouch"
      ],
      [
        "cl",
        "own"
      ],
      [
        "plan",
        "e"
      ],
      [
        "kis",
        "sing"
      ],
      [
        "anim",
        "al"
      ],
      [
        "mil",
        "itary"
      ],
      [
        "c",
        "ts"
      ],
      [
        "s",
        "on"
      ],
      [
        "t",
        "own"
      ],
      [
        "t",
        "run"
      ],
      [
        "w",
        "ell"
      ],
      [
        "st",
        "roller"
      ],
      [
        "op",
        "er"
      ],
      [
        "ho",
        "le"
      ],
      [
        "co",
        "ver"
      ],
      [
        "ur",
        "ban"
      ],
      [
        "walk",
        "way"
      ],
      [
        "thr",
        "ow"
      ],
      [
        "sk",
        "ating"
      ],
      [
        "che",
        "f"
      ],
      [
        "sa",
        "me"
      ],
      [
        "wr",
        "iting"
      ],
      [
        "W",
        "or"
      ],
      [
        "k",
        "ed"
      ],
      [
        "all",
        "ow"
      ],
      [
        "se",
        "a"
      ],
      [
        "di",
        "ving"
      ],
      [
        "sun",
        "set"
      ],
      [
        "female",
        "s"
      ],
      [
        "ex",
        "am"
      ],
      [
        "ski",
        "er"
      ],
      [
        "shou",
        "lder"
      ],
      [
        "kneel",
        "ing"
      ],
      [
        "vide",
        "o"
      ],
      [
        "b",
        "ur"
      ],
      [
        "c",
        "hi"
      ],
      [
        "c",
        "and"
      ],
      [
        "g",
        "ard"
      ],
      [
        "h",
        "oo"
      ],
      [
        "r",
        "or"
      ],
      [
        "s",
        "up"
      ],
      [
        "s",
        "ort"
      ],
      [
        "in",
        "door"
      ],
      [
        "at",
        "or"
      ],
      [
        "li",
        "fe"
      ],
      [
        "run",
        "ner"
      ],
      [
        "par",
        "tic"
      ],
      [
        "wa",
        "ving"
      ],
      [
        "tal",
        "k"
      ],
      [
        "go",
        "lf"
      ],
      [
        "che",
        "st"
      ],
      [
        "attemp",
        "ting"
      ],
      [
        "rist",
        "mas"
      ],
      [
        "bare",
        "foot"
      ],
      [
        "scoo",
        "ter"
      ],
      [
        "sold",
        "i"
      ],
      [
        "g",
        "es"
      ],
      [
        "i",
        "en"
      ],
      [
        "l",
        "an"
      ],
      [
        "p",
        "as"
      ],
      [
        "r",
        "ink"
      ],
      [
        "t",
        "ouch"
      ],
      [
        "le",
        "ash"
      ],
      [
        "bl",
        "owing"
      ],
      [
        "co",
        "m"
      ],
      [
        "ma",
        "kes"
      ],
      [
        "table",
        "s"
      ],
      [
        "clo",
        "th"
      ],
      [
        "fa",
        "ther"
      ],
      [
        "mar",
        "athon"
      ],
      [
        "ca",
        "mp"
      ],
      [
        "sign",
        "s"
      ],
      [
        "cl",
        "ou"
      ],
      [
        "enjo",
        "y"
      ],
      [
        "outf",
        "its"
      ],
      [
        "bal",
        "an"
      ],
      [
        "rest",
        "ing"
      ],
      [
        "cour",
        "se"
      ],
      [
        "electr",
        "ic"
      ],
      [
        "viol",
        "in"
      ],
      [
        "c",
        "at"
      ],
      [
        "i",
        "es"
      ],
      [
        "le",
        "g"
      ],
      [
        "le",
        "br"
      ],
      [
        "ad",
        "ver"
      ],
      [
        "ce",
        "lebr"
      ],
      [
        "li",
        "es"
      ],
      [
        "fi",
        "ve"
      ],
      [
        "over",
        "looking"
      ],
      [
        "cu",
        "ss"
      ],
      [
        "bal",
        "d"
      ],
      [
        "ines",
        "e"
      ],
      [
        "full",
        "y"
      ],
      [
        "offic",
        "er"
      ],
      [
        "mul",
        "tic"
      ],
      [
        "bub",
        "bles"
      ],
      [
        "mir",
        "ror"
      ],
      [
        "say",
        "s"
      ],
      [
        "adver",
        "t"
      ],
      [
        "c",
        "ont"
      ],
      [
        "g",
        "re"
      ],
      [
        "h",
        "ar"
      ],
      [
        "le",
        "ans"
      ],
      [
        "at",
        "ten"
      ],
      [
        "st",
        "un"
      ],
      [
        "ch",
        "ing"
      ],
      [
        "ro",
        "lling"
      ],
      [
        "fi",
        "xing"
      ],
      [
        "pi",
        "er"
      ],
      [
        "cu",
        "sto"
      ],
      [
        "fo",
        "ll"
      ],
      [
        "gym",
        "na"
      ],
      [
        "ballo",
        "ons"
      ],
      [
        "coll",
        "ar"
      ],
      [
        "a",
        "ble"
      ],
      [
        "f",
        "in"
      ],
      [
        "i",
        "st"
      ],
      [
        "p",
        "en"
      ],
      [
        "t",
        "ack"
      ],
      [
        "at",
        "ive"
      ],
      [
        "al",
        "one"
      ],
      [
        "to",
        "ol"
      ],
      [
        "gr",
        "o"
      ],
      [
        "ro",
        "l"
      ],
      [
        "hel",
        "ping"
      ],
      [
        "mic",
        "ro"
      ],
      [
        "fore",
        "ground"
      ],
      [
        "music",
        "ians"
      ],
      [
        "des",
        "er"
      ],
      [
        "bright",
        "ly"
      ],
      [
        "no",
        "t"
      ],
      [
        "umbrella",
        "s"
      ],
      [
        "lea",
        "ther"
      ],
      [
        "dis",
        "cuss"
      ],
      [
        "fac",
        "es"
      ],
      [
        "arti",
        "st"
      ],
      [
        "Con",
        "struction"
      ],
      [
        "d",
        "au"
      ],
      [
        "g",
        "ood"
      ],
      [
        "n",
        "ers"
      ],
      [
        "v",
        "ice"
      ],
      [
        "le",
        "ep"
      ],
      [
        "le",
        "gs"
      ],
      [
        "st",
        "ad"
      ],
      [
        "as",
        "leep"
      ],
      [
        "me",
        "at"
      ],
      [
        "lo",
        "ad"
      ],
      [
        "di",
        "e"
      ],
      [
        "head",
        "phones"
      ],
      [
        "ff",
        "ic"
      ],
      [
        "pl",
        "ate"
      ],
      [
        "gi",
        "ant"
      ],
      [
        "pr",
        "in"
      ],
      [
        "sculp",
        "ture"
      ],
      [
        "cano",
        "e"
      ],
      [
        "partic",
        "ip"
      ],
      [
        "dau",
        "ght"
      ],
      [
        "D",
        "o"
      ],
      [
        "c",
        "tive"
      ],
      [
        "d",
        "ra"
      ],
      [
        "d",
        "ish"
      ],
      [
        "o",
        "lored"
      ],
      [
        "s",
        "y"
      ],
      [
        "v",
        "an"
      ],
      [
        "re",
        "pair"
      ],
      [
        "st",
        "r"
      ],
      [
        "ch",
        "ed"
      ],
      [
        "ch",
        "ur"
      ],
      [
        "he",
        "av"
      ],
      [
        "wear",
        "s"
      ],
      [
        "me",
        "l"
      ],
      [
        "ta",
        "il"
      ],
      [
        "off",
        "ice"
      ],
      [
        "tr",
        "ash"
      ],
      [
        "door",
        "way"
      ],
      [
        "gu",
        "ard"
      ],
      [
        "sand",
        "als"
      ],
      [
        "swing",
        "s"
      ],
      [
        "sle",
        "e"
      ],
      [
        "fall",
        "ing"
      ],
      [
        "draw",
        "ing"
      ],
      [
        "wash",
        "ing"
      ],
      [
        "pas",
        "sing"
      ],
      [
        "gro",
        "cer"
      ],
      [
        "stad",
        "ium"
      ],
      [
        "H",
        "e"
      ],
      [
        "d",
        "dle"
      ],
      [
        "f",
        "ts"
      ],
      [
        "l",
        "u"
      ],
      [
        "v",
        "al"
      ],
      [
        "re",
        "f"
      ],
      [
        "hi",
        "king"
      ],
      [
        "st",
        "ring"
      ],
      [
        "he",
        "ld"
      ],
      [
        "ac",
        "cor"
      ],
      [
        "mo",
        "ve"
      ],
      [
        "head",
        "s"
      ],
      [
        "stu",
        "ff"
      ],
      [
        "comp",
        "le"
      ],
      [
        "toy",
        "s"
      ],
      [
        "music",
        "al"
      ],
      [
        "ski",
        "ing"
      ],
      [
        "offic",
        "ers"
      ],
      [
        "ham",
        "mer"
      ],
      [
        "multic",
        "olored"
      ],
      [
        "accor",
        "di"
      ],
      [
        "f",
        "ur"
      ],
      [
        "h",
        "all"
      ],
      [
        "k",
        "n"
      ],
      [
        "m",
        "in"
      ],
      [
        "p",
        "y"
      ],
      [
        "in",
        "clu"
      ],
      [
        "man",
        "ce"
      ],
      [
        "for",
        "mance"
      ],
      [
        "se",
        "l"
      ],
      [
        "thr",
        "ows"
      ],
      [
        "male",
        "s"
      ],
      [
        "sc",
        "a"
      ],
      [
        "pi",
        "cking"
      ],
      [
        "per",
        "formance"
      ],
      [
        "sp",
        "end"
      ],
      [
        "sho",
        "e"
      ],
      [
        "boo",
        "th"
      ],
      [
        "dirt",
        "y"
      ],
      [
        "photograp",
        "her"
      ],
      [
        "teen",
        "age"
      ],
      [
        "pr",
        "of"
      ],
      [
        "reach",
        "ing"
      ],
      [
        "fin",
        "ish"
      ],
      [
        "chur",
        "ch"
      ],
      [
        "accordi",
        "on"
      ],
      [
        "W",
        "hi"
      ],
      [
        "c",
        "ting"
      ],
      [
        "f",
        "an"
      ],
      [
        "f",
        "ra"
      ],
      [
        "h",
        "ear"
      ],
      [
        "i",
        "ma"
      ],
      [
        "p",
        "ond"
      ],
      [
        "er",
        "ing"
      ],
      [
        "st",
        "raw"
      ],
      [
        "la",
        "un"
      ],
      [
        "be",
        "low"
      ],
      [
        "sh",
        "allow"
      ],
      [
        "ve",
        "ling"
      ],
      [
        "cle",
        "an"
      ],
      [
        "di",
        "gging"
      ],
      [
        "tra",
        "ffic"
      ],
      [
        "mo",
        "st"
      ],
      [
        "fl",
        "u"
      ],
      [
        "ey",
        "e"
      ],
      [
        "pat",
        "i"
      ],
      [
        "blo",
        "ck"
      ],
      [
        "pres",
        "ent"
      ],
      [
        "daught",
        "er"
      ],
      [
        "g",
        "ate"
      ],
      [
        "h",
        "ow"
      ],
      [
        "i",
        "ge"
      ],
      [
        "i",
        "gh"
      ],
      [
        "k",
        "ha"
      ],
      [
        "n",
        "ap"
      ],
      [
        "p",
        "our"
      ],
      [
        "at",
        "er"
      ],
      [
        "at",
        "op"
      ],
      [
        "at",
        "ure"
      ],
      [
        "en",
        "s"
      ],
      [
        "ld",
        "ers"
      ],
      [
        "te",
        "ach"
      ],
      [
        "pe",
        "a"
      ],
      [
        "up",
        "side"
      ],
      [
        "br",
        "un"
      ],
      [
        "mo",
        "ving"
      ],
      [
        "dan",
        "cers"
      ],
      [
        "pro",
        "ject"
      ],
      [
        "hu",
        "gging"
      ],
      [
        "gi",
        "ves"
      ],
      [
        "catch",
        "ing"
      ],
      [
        "catch",
        "es"
      ],
      [
        "pass",
        "es"
      ],
      [
        "rela",
        "xing"
      ],
      [
        "dire",
        "ction"
      ],
      [
        "sof",
        "t"
      ],
      [
        "tun",
        "nel"
      ],
      [
        "micro",
        "scope"
      ],
      [
        "B",
        "la"
      ],
      [
        "G",
        "u"
      ],
      [
        "a",
        "ster"
      ],
      [
        "b",
        "ro"
      ],
      [
        "d",
        "un"
      ],
      [
        "e",
        "le"
      ],
      [
        "h",
        "ou"
      ],
      [
        "k",
        "ar"
      ],
      [
        "p",
        "up"
      ],
      [
        "p",
        "ul"
      ],
      [
        "st",
        "or"
      ],
      [
        "al",
        "len"
      ],
      [
        "la",
        "b"
      ],
      [
        "es",
        "sion"
      ],
      [
        "ch",
        "es"
      ],
      [
        "ro",
        "be"
      ],
      [
        "ho",
        "op"
      ],
      [
        "bl",
        "y"
      ],
      [
        "be",
        "ige"
      ],
      [
        "sh",
        "ows"
      ],
      [
        "se",
        "lf"
      ],
      [
        "ball",
        "s"
      ],
      [
        "pa",
        "ved"
      ],
      [
        "pi",
        "ll"
      ],
      [
        "de",
        "ep"
      ],
      [
        "el",
        "s"
      ],
      [
        "ca",
        "u"
      ],
      [
        "ca",
        "fe"
      ],
      [
        "boo",
        "ks"
      ],
      [
        "sle",
        "eps"
      ],
      [
        "fli",
        "es"
      ],
      [
        "leap",
        "ing"
      ],
      [
        "Ch",
        "ristmas"
      ],
      [
        "Ch",
        "inese"
      ],
      [
        "swe",
        "eping"
      ],
      [
        "gard",
        "en"
      ],
      [
        "stun",
        "t"
      ],
      [
        "brun",
        "ette"
      ],
      [
        "b",
        "in"
      ],
      [
        "b",
        "er"
      ],
      [
        "e",
        "stri"
      ],
      [
        "h",
        "ur"
      ],
      [
        "l",
        "one"
      ],
      [
        "st",
        "ep"
      ],
      [
        "te",
        "eth"
      ],
      [
        "ho",
        "se"
      ],
      [
        "co",
        "ld"
      ],
      [
        "stre",
        "am"
      ],
      [
        "po",
        "st"
      ],
      [
        "sk",
        "in"
      ],
      [
        "sing",
        "er"
      ],
      [
        "fe",
        "st"
      ],
      [
        "sc",
        "aff"
      ],
      [
        "fl",
        "at"
      ],
      [
        "coat",
        "s"
      ],
      [
        "convers",
        "ing"
      ],
      [
        "ward",
        "s"
      ],
      [
        "cha",
        "in"
      ],
      [
        "cir",
        "cle"
      ],
      [
        "trun",
        "ks"
      ],
      [
        "hoo",
        "die"
      ],
      [
        "deser",
        "t"
      ],
      [
        "S",
        "t"
      ],
      [
        "c",
        "ri"
      ],
      [
        "c",
        "yclist"
      ],
      [
        "f",
        "air"
      ],
      [
        "l",
        "ers"
      ],
      [
        "n",
        "ess"
      ],
      [
        "w",
        "ar"
      ],
      [
        "st",
        "ack"
      ],
      [
        "all",
        "s"
      ],
      [
        "ra",
        "cket"
      ],
      [
        "ri",
        "ed"
      ],
      [
        "ne",
        "ath"
      ],
      [
        "form",
        "al"
      ],
      [
        "con",
        "tain"
      ],
      [
        "clo",
        "sed"
      ],
      [
        "de",
        "ck"
      ],
      [
        "stu",
        "d"
      ],
      [
        "jo",
        "gging"
      ],
      [
        "under",
        "neath"
      ],
      [
        "su",
        "spend"
      ],
      [
        "we",
        "a"
      ],
      [
        "bal",
        "con"
      ],
      [
        "poin",
        "ts"
      ],
      [
        "plan",
        "ts"
      ],
      [
        "squ",
        "are"
      ],
      [
        "wrest",
        "ling"
      ],
      [
        "tele",
        "scope"
      ],
      [
        "spla",
        "shing"
      ],
      [
        "cover",
        "ing"
      ],
      [
        "slee",
        "ve"
      ],
      [
        "Bla",
        "ck"
      ],
      [
        "kar",
        "ate"
      ],
      [
        "K",
        "ids"
      ],
      [
        "f",
        "re"
      ],
      [
        "f",
        "ting"
      ],
      [
        "f",
        "ant"
      ],
      [
        "g",
        "er"
      ],
      [
        "u",
        "s"
      ],
      [
        "with",
        "out"
      ],
      [
        "ch",
        "o"
      ],
      [
        "op",
        "hone"
      ],
      [
        "ap",
        "pro"
      ],
      [
        "ma",
        "gaz"
      ],
      [
        "ga",
        "ge"
      ],
      [
        "tra",
        "mp"
      ],
      [
        "dan",
        "ces"
      ],
      [
        "mu",
        "st"
      ],
      [
        "gg",
        "ling"
      ],
      [
        "them",
        "sel"
      ],
      [
        "ol",
        "ine"
      ],
      [
        "sa",
        "x"
      ],
      [
        "ni",
        "val"
      ],
      [
        "hu",
        "la"
      ],
      [
        "can",
        "e"
      ],
      [
        "pass",
        "eng"
      ],
      [
        "cur",
        "ly"
      ],
      [
        "shou",
        "lders"
      ],
      [
        "pad",
        "d"
      ],
      [
        "spra",
        "y"
      ],
      [
        "inclu",
        "ding"
      ],
      [
        "themsel",
        "ves"
      ],
      [
        "C",
        "o"
      ],
      [
        "O",
        "ld"
      ],
      [
        "S",
        "mall"
      ],
      [
        "b",
        "un"
      ],
      [
        "k",
        "ind"
      ],
      [
        "m",
        "ural"
      ],
      [
        "p",
        "in"
      ],
      [
        "t",
        "ong"
      ],
      [
        "w",
        "ine"
      ],
      [
        "z",
        "ed"
      ],
      [
        "in",
        "a"
      ],
      [
        "er",
        "man"
      ],
      [
        "hi",
        "ker"
      ],
      [
        "at",
        "ta"
      ],
      [
        "en",
        "tr"
      ],
      [
        "op",
        "posing"
      ],
      [
        "un",
        "g"
      ],
      [
        "ta",
        "ken"
      ],
      [
        "car",
        "nival"
      ],
      [
        "cle",
        "ar"
      ],
      [
        "cr",
        "ying"
      ],
      [
        "ba",
        "th"
      ],
      [
        "mo",
        "to"
      ],
      [
        "bic",
        "yclist"
      ],
      [
        "wood",
        "ed"
      ],
      [
        "tri",
        "cks"
      ],
      [
        "cross",
        "walk"
      ],
      [
        "she",
        "et"
      ],
      [
        "open",
        "ing"
      ],
      [
        "make",
        "up"
      ],
      [
        "match",
        "ing"
      ],
      [
        "din",
        "ner"
      ],
      [
        "kay",
        "ak"
      ],
      [
        "individu",
        "als"
      ],
      [
        "produ",
        "ce"
      ],
      [
        "Wor",
        "kers"
      ],
      [
        "heav",
        "y"
      ],
      [
        "pul",
        "led"
      ],
      [
        "tramp",
        "oline"
      ],
      [
        "f",
        "ly"
      ],
      [
        "n",
        "ice"
      ],
      [
        "s",
        "pot"
      ],
      [
        "in",
        "spe"
      ],
      [
        "in",
        "fant"
      ],
      [
        "re",
        "ce"
      ],
      [
        "st",
        "roll"
      ],
      [
        "ow",
        "er"
      ],
      [
        "ed",
        "ing"
      ],
      [
        "gr",
        "a"
      ],
      [
        "se",
        "at"
      ],
      [
        "se",
        "wing"
      ],
      [
        "tu",
        "b"
      ],
      [
        "pic",
        "nic"
      ],
      [
        "dle",
        "s"
      ],
      [
        "perform",
        "er"
      ],
      [
        "sur",
        "face"
      ],
      [
        "hel",
        "p"
      ],
      [
        "no",
        "se"
      ],
      [
        "ci",
        "al"
      ],
      [
        "kne",
        "e"
      ],
      [
        "attemp",
        "ts"
      ],
      [
        "lead",
        "ers"
      ],
      [
        "bru",
        "sh"
      ],
      [
        "memb",
        "ers"
      ],
      [
        "stuff",
        "ed"
      ],
      [
        "prof",
        "ession"
      ],
      [
        "B",
        "l"
      ],
      [
        "c",
        "enter"
      ],
      [
        "d",
        "rop"
      ],
      [
        "i",
        "re"
      ],
      [
        "l",
        "unch"
      ],
      [
        "p",
        "ress"
      ],
      [
        "v",
        "il"
      ],
      [
        "in",
        "ning"
      ],
      [
        "th",
        "ird"
      ],
      [
        "la",
        "ys"
      ],
      [
        "it",
        "al"
      ],
      [
        "ic",
        "ycle"
      ],
      [
        "bl",
        "ouse"
      ],
      [
        "ll",
        "y"
      ],
      [
        "be",
        "l"
      ],
      [
        "be",
        "ver"
      ],
      [
        "lo",
        "g"
      ],
      [
        "ru",
        "g"
      ],
      [
        "Th",
        "ese"
      ],
      [
        "pu",
        "shes"
      ],
      [
        "go",
        "es"
      ],
      [
        "him",
        "self"
      ],
      [
        "ex",
        "c"
      ],
      [
        "sl",
        "ope"
      ],
      [
        "dri",
        "ver"
      ],
      [
        "chas",
        "es"
      ],
      [
        "bot",
        "to"
      ],
      [
        "but",
        "ton"
      ],
      [
        "sty",
        "le"
      ],
      [
        "soft",
        "ball"
      ],
      [
        "estri",
        "ans"
      ],
      [
        "fest",
        "iv"
      ],
      [
        "balcon",
        "y"
      ],
      [
        "appro",
        "ach"
      ],
      [
        "A",
        "T"
      ],
      [
        "b",
        "ble"
      ],
      [
        "m",
        "op"
      ],
      [
        "m",
        "ate"
      ],
      [
        "o",
        "t"
      ],
      [
        "p",
        "al"
      ],
      [
        "z",
        "a"
      ],
      [
        "it",
        "ed"
      ],
      [
        "are",
        "s"
      ],
      [
        "as",
        "hi"
      ],
      [
        "li",
        "ve"
      ],
      [
        "li",
        "ft"
      ],
      [
        "water",
        "fall"
      ],
      [
        "sk",
        "is"
      ],
      [
        "pu",
        "t"
      ],
      [
        "pu",
        "ts"
      ],
      [
        "pu",
        "lls"
      ],
      [
        "sp",
        "rink"
      ],
      [
        "de",
        "vice"
      ],
      [
        "ben",
        "t"
      ],
      [
        "sand",
        "y"
      ],
      [
        "ty",
        "pe"
      ],
      [
        "stair",
        "case"
      ],
      [
        "box",
        "es"
      ],
      [
        "ste",
        "ep"
      ],
      [
        "clu",
        "b"
      ],
      [
        "spea",
        "ks"
      ],
      [
        "athle",
        "te"
      ],
      [
        "advert",
        "ise"
      ],
      [
        "B",
        "r"
      ],
      [
        "M",
        "a"
      ],
      [
        "d",
        "on"
      ],
      [
        "f",
        "allen"
      ],
      [
        "g",
        "on"
      ],
      [
        "h",
        "al"
      ],
      [
        "k",
        "a"
      ],
      [
        "l",
        "id"
      ],
      [
        "n",
        "s"
      ],
      [
        "p",
        "it"
      ],
      [
        "an",
        "gs"
      ],
      [
        "at",
        "ting"
      ],
      [
        "st",
        "ool"
      ],
      [
        "al",
        "k"
      ],
      [
        "ir",
        "ts"
      ],
      [
        "ro",
        "bes"
      ],
      [
        "shi",
        "p"
      ],
      [
        "po",
        "di"
      ],
      [
        "over",
        "alls"
      ],
      [
        "pu",
        "ddle"
      ],
      [
        "pi",
        "ck"
      ],
      [
        "dan",
        "cer"
      ],
      [
        "swi",
        "ms"
      ],
      [
        "boat",
        "s"
      ],
      [
        "enjo",
        "ys"
      ],
      [
        "des",
        "ign"
      ],
      [
        "dri",
        "ves"
      ],
      [
        "sha",
        "king"
      ],
      [
        "wet",
        "suit"
      ],
      [
        "key",
        "board"
      ],
      [
        "gymna",
        "st"
      ],
      [
        "grocer",
        "y"
      ],
      [
        "sca",
        "pe"
      ],
      [
        "Gu",
        "y"
      ],
      [
        "fre",
        "sh"
      ],
      [
        "festiv",
        "al"
      ],
      [
        "N",
        "ew"
      ],
      [
        "O",
        "lder"
      ],
      [
        "b",
        "s"
      ],
      [
        "b",
        "ou"
      ],
      [
        "f",
        "arm"
      ],
      [
        "h",
        "angs"
      ],
      [
        "j",
        "am"
      ],
      [
        "m",
        "ound"
      ],
      [
        "s",
        "co"
      ],
      [
        "on",
        "ic"
      ],
      [
        "hi",
        "kers"
      ],
      [
        "gr",
        "ind"
      ],
      [
        "sh",
        "ar"
      ],
      [
        "ve",
        "ment"
      ],
      [
        "ap",
        "an"
      ],
      [
        "ap",
        "ers"
      ],
      [
        "fi",
        "gu"
      ],
      [
        "tra",
        "cks"
      ],
      [
        "pi",
        "an"
      ],
      [
        "head",
        "ed"
      ],
      [
        "je",
        "an"
      ],
      [
        "mar",
        "ching"
      ],
      [
        "bic",
        "yclists"
      ],
      [
        "ct",
        "ed"
      ],
      [
        "comp",
        "an"
      ],
      [
        "led",
        "ge"
      ],
      [
        "bar",
        "be"
      ],
      [
        "kick",
        "s"
      ],
      [
        "sha",
        "ving"
      ],
      [
        "cur",
        "b"
      ],
      [
        "gar",
        "b"
      ],
      [
        "gentle",
        "men"
      ],
      [
        "bird",
        "s"
      ],
      [
        "por",
        "ch"
      ],
      [
        "pitch",
        "er"
      ],
      [
        "fing",
        "ers"
      ],
      [
        "teenag",
        "ers"
      ],
      [
        "wrap",
        "ped"
      ],
      [
        "clou",
        "dy"
      ],
      [
        "custo",
        "mers"
      ],
      [
        "laun",
        "dry"
      ],
      [
        "pour",
        "ing"
      ],
      [
        "S",
        "an"
      ],
      [
        "a",
        "mp"
      ],
      [
        "b",
        "ra"
      ],
      [
        "c",
        "are"
      ],
      [
        "f",
        "ashi"
      ],
      [
        "g",
        "gage"
      ],
      [
        "l",
        "s"
      ],
      [
        "en",
        "ga"
      ],
      [
        "or",
        "ien"
      ],
      [
        "ch",
        "alk"
      ],
      [
        "op",
        "po"
      ],
      [
        "are",
        "na"
      ],
      [
        "gr",
        "oom"
      ],
      [
        "ear",
        "s"
      ],
      [
        "sh",
        "ap"
      ],
      [
        "air",
        "plane"
      ],
      [
        "lo",
        "ts"
      ],
      [
        "lo",
        "cal"
      ],
      [
        "br",
        "ic"
      ],
      [
        "ap",
        "art"
      ],
      [
        "po",
        "lo"
      ],
      [
        "po",
        "les"
      ],
      [
        "back",
        "yard"
      ],
      [
        "mo",
        "ves"
      ],
      [
        "sc",
        "u"
      ],
      [
        "sho",
        "veling"
      ],
      [
        "cu",
        "lar"
      ],
      [
        "che",
        "cking"
      ],
      [
        "sa",
        "w"
      ],
      [
        "sa",
        "le"
      ],
      [
        "fore",
        "ign"
      ],
      [
        "color",
        "s"
      ],
      [
        "she",
        "ep"
      ],
      [
        "ev",
        "ening"
      ],
      [
        "chas",
        "e"
      ],
      [
        "reach",
        "es"
      ],
      [
        "gold",
        "en"
      ],
      [
        "blo",
        "cks"
      ],
      [
        "prote",
        "ctive"
      ],
      [
        "shoo",
        "ting"
      ],
      [
        "teenag",
        "er"
      ],
      [
        "He",
        "re"
      ],
      [
        "kha",
        "ki"
      ],
      [
        "padd",
        "ling"
      ],
      [
        "atta",
        "ched"
      ],
      [
        "pal",
        "m"
      ],
      [
        "podi",
        "um"
      ],
      [
        "pian",
        "o"
      ],
      [
        "orien",
        "tal"
      ],
      [
        "oppo",
        "site"
      ],
      [
        "\"",
        "."
      ],
      [
        "J",
        "apan"
      ],
      [
        "b",
        "it"
      ],
      [
        "b",
        "read"
      ],
      [
        "e",
        "f"
      ],
      [
        "e",
        "i"
      ],
      [
        "e",
        "mb"
      ],
      [
        "f",
        "ar"
      ],
      [
        "g",
        "an"
      ],
      [
        "g",
        "ed"
      ],
      [
        "o",
        "lding"
      ],
      [
        "r",
        "ange"
      ],
      [
        "s",
        "wor"
      ],
      [
        "t",
        "ou"
      ],
      [
        "v",
        "ac"
      ],
      [
        "w",
        "as"
      ],
      [
        "y",
        "o"
      ],
      [
        "in",
        "flat"
      ],
      [
        "re",
        "cor"
      ],
      [
        "ar",
        "row"
      ],
      [
        "ou",
        "fla"
      ],
      [
        "st",
        "le"
      ],
      [
        "is",
        "ing"
      ],
      [
        "it",
        "or"
      ],
      [
        "op",
        "pon"
      ],
      [
        "gr",
        "ab"
      ],
      [
        "sit",
        "ion"
      ],
      [
        "ra",
        "ck"
      ],
      [
        "ra",
        "ft"
      ],
      [
        "one",
        "y"
      ],
      [
        "se",
        "ll"
      ],
      [
        "br",
        "an"
      ],
      [
        "po",
        "ss"
      ],
      [
        "po",
        "ster"
      ],
      [
        "po",
        "sition"
      ],
      [
        "fi",
        "x"
      ],
      [
        "sk",
        "irts"
      ],
      [
        "pa",
        "jam"
      ],
      [
        "pa",
        "vement"
      ],
      [
        "ba",
        "ge"
      ],
      [
        "con",
        "es"
      ],
      [
        "cam",
        "oufla"
      ],
      [
        "fa",
        "bric"
      ],
      [
        "de",
        "l"
      ],
      [
        "tor",
        "y"
      ],
      [
        "band",
        "an"
      ],
      [
        "window",
        "s"
      ],
      [
        "wheel",
        "chair"
      ],
      [
        "den",
        "im"
      ],
      [
        "fen",
        "ced"
      ],
      [
        "balan",
        "cing"
      ],
      [
        "lu",
        "ggage"
      ],
      [
        "sax",
        "ophone"
      ],
      [
        "tong",
        "ue"
      ],
      [
        "fashi",
        "on"
      ],
      [
        "inflat",
        "able"
      ],
      [
        "camoufla",
        "ge"
      ],
      [
        "a",
        "ks"
      ],
      [
        "c",
        "ool"
      ],
      [
        "f",
        "light"
      ],
      [
        "m",
        "mer"
      ],
      [
        "t",
        "ro"
      ],
      [
        "an",
        "e"
      ],
      [
        "re",
        "fe"
      ],
      [
        "or",
        "k"
      ],
      [
        "es",
        "cal"
      ],
      [
        "ch",
        "ar"
      ],
      [
        "te",
        "st"
      ],
      [
        "me",
        "et"
      ],
      [
        "be",
        "am"
      ],
      [
        "sh",
        "ade"
      ],
      [
        "bu",
        "ying"
      ],
      [
        "am",
        "er"
      ],
      [
        "ju",
        "ggling"
      ],
      [
        "tra",
        "ctor"
      ],
      [
        "pi",
        "pe"
      ],
      [
        "eat",
        "s"
      ],
      [
        "top",
        "s"
      ],
      [
        "fa",
        "st"
      ],
      [
        "mar",
        "ried"
      ],
      [
        "wall",
        "s"
      ],
      [
        "fl",
        "or"
      ],
      [
        "swim",
        "suit"
      ],
      [
        "ty",
        "ard"
      ],
      [
        "flo",
        "ating"
      ],
      [
        "roll",
        "ers"
      ],
      [
        "motorcycle",
        "s"
      ],
      [
        "cour",
        "tyard"
      ],
      [
        "laugh",
        "s"
      ],
      [
        "kis",
        "s"
      ],
      [
        "rail",
        "road"
      ],
      [
        "lead",
        "ing"
      ],
      [
        "goal",
        "ie"
      ],
      [
        "iz",
        "ed"
      ],
      [
        "rais",
        "ed"
      ],
      [
        "fing",
        "er"
      ],
      [
        "fra",
        "me"
      ],
      [
        "ima",
        "ge"
      ],
      [
        "skin",
        "ned"
      ],
      [
        "profession",
        "al"
      ],
      [
        "botto",
        "m"
      ],
      [
        "c",
        "ue"
      ],
      [
        "f",
        "ir"
      ],
      [
        "f",
        "old"
      ],
      [
        "l",
        "ines"
      ],
      [
        "m",
        "y"
      ],
      [
        "m",
        "ap"
      ],
      [
        "m",
        "ix"
      ],
      [
        "s",
        "po"
      ],
      [
        "t",
        "ar"
      ],
      [
        "w",
        "k"
      ],
      [
        "w",
        "el"
      ],
      [
        "ou",
        "stic"
      ],
      [
        "to",
        "ss"
      ],
      [
        "ed",
        "s"
      ],
      [
        "ra",
        "c"
      ],
      [
        "ri",
        "sts"
      ],
      [
        "sh",
        "own"
      ],
      [
        "so",
        "cks"
      ],
      [
        "bu",
        "cking"
      ],
      [
        "ti",
        "ple"
      ],
      [
        "car",
        "pet"
      ],
      [
        "ach",
        "u"
      ],
      [
        "back",
        "wards"
      ],
      [
        "si",
        "x"
      ],
      [
        "rid",
        "ers"
      ],
      [
        "tu",
        "be"
      ],
      [
        "ac",
        "tion"
      ],
      [
        "ac",
        "oustic"
      ],
      [
        "tr",
        "ans"
      ],
      [
        "gg",
        "y"
      ],
      [
        "sa",
        "il"
      ],
      [
        "pl",
        "ant"
      ],
      [
        "spe",
        "ak"
      ],
      [
        "tow",
        "el"
      ],
      [
        "flo",
        "at"
      ],
      [
        "music",
        "ian"
      ],
      [
        "ag",
        "es"
      ],
      [
        "fire",
        "fight"
      ],
      [
        "ev",
        "ed"
      ],
      [
        "market",
        "place"
      ],
      [
        "cas",
        "u"
      ],
      [
        "carri",
        "age"
      ],
      [
        "gar",
        "bage"
      ],
      [
        "jersey",
        "s"
      ],
      [
        "happ",
        "ily"
      ],
      [
        "enter",
        "tain"
      ],
      [
        "cheer",
        "ing"
      ],
      [
        "rela",
        "x"
      ],
      [
        "stretch",
        "ed"
      ],
      [
        "soldi",
        "er"
      ],
      [
        "soldi",
        "ers"
      ],
      [
        "touch",
        "ing"
      ],
      [
        "tool",
        "s"
      ],
      [
        "good",
        "s"
      ],
      [
        "Do",
        "g"
      ],
      [
        "pea",
        "ce"
      ],
      [
        "hur",
        "dle"
      ],
      [
        "scaff",
        "olding"
      ],
      [
        "suspend",
        "ed"
      ],
      [
        "must",
        "ach"
      ],
      [
        "San",
        "ta"
      ],
      [
        "ei",
        "ther"
      ],
      [
        "pajam",
        "as"
      ],
      [
        "bandan",
        "na"
      ],
      [
        "amer",
        "ican"
      ],
      [
        "flor",
        "al"
      ],
      [
        "rollers",
        "k"
      ],
      [
        "A",
        "t"
      ],
      [
        "b",
        "oun"
      ],
      [
        "d",
        "a"
      ],
      [
        "e",
        "gg"
      ],
      [
        "e",
        "mer"
      ],
      [
        "f",
        "ans"
      ],
      [
        "g",
        "ing"
      ],
      [
        "h",
        "ers"
      ],
      [
        "h",
        "ay"
      ],
      [
        "h",
        "ones"
      ],
      [
        "i",
        "f"
      ],
      [
        "o",
        "c"
      ],
      [
        "s",
        "al"
      ],
      [
        "z",
        "e"
      ],
      [
        "in",
        "vol"
      ],
      [
        "th",
        "umb"
      ],
      [
        "is",
        "her"
      ],
      [
        "or",
        "n"
      ],
      [
        "ch",
        "op"
      ],
      [
        "gr",
        "i"
      ],
      [
        "pla",
        "za"
      ],
      [
        "ic",
        "s"
      ],
      [
        "do",
        "ctor"
      ],
      [
        "bl",
        "ing"
      ],
      [
        "co",
        "ach"
      ],
      [
        "mp",
        "et"
      ],
      [
        "air",
        "port"
      ],
      [
        "li",
        "ving"
      ],
      [
        "br",
        "oom"
      ],
      [
        "par",
        "achu"
      ],
      [
        "ru",
        "bb"
      ],
      [
        "sn",
        "ack"
      ],
      [
        "ly",
        "mp"
      ],
      [
        "ac",
        "t"
      ],
      [
        "ac",
        "ting"
      ],
      [
        "sta",
        "cle"
      ],
      [
        "od",
        "d"
      ],
      [
        "ation",
        "s"
      ],
      [
        "Se",
        "ven"
      ],
      [
        "col",
        "le"
      ],
      [
        "pain",
        "ts"
      ],
      [
        "under",
        "water"
      ],
      [
        "cor",
        "n"
      ],
      [
        "bar",
        "rel"
      ],
      [
        "we",
        "lding"
      ],
      [
        "sle",
        "eved"
      ],
      [
        "ob",
        "stacle"
      ],
      [
        "des",
        "c"
      ],
      [
        "ser",
        "ving"
      ],
      [
        "backpack",
        "s"
      ],
      [
        "sto",
        "ve"
      ],
      [
        "land",
        "scape"
      ],
      [
        "din",
        "ing"
      ],
      [
        "anim",
        "als"
      ],
      [
        "kneel",
        "s"
      ],
      [
        "bub",
        "ble"
      ],
      [
        "hood",
        "ed"
      ],
      [
        "athle",
        "tic"
      ],
      [
        "Whi",
        "te"
      ],
      [
        "cau",
        "ght"
      ],
      [
        "magaz",
        "ine"
      ],
      [
        "rug",
        "by"
      ],
      [
        "advertise",
        "ment"
      ],
      [
        "Ma",
        "le"
      ],
      [
        "escal",
        "ator"
      ],
      [
        ".",
        "\""
      ],
      [
        "A",
        "r"
      ],
      [
        "C",
        "r"
      ],
      [
        "C",
        "he"
      ],
      [
        "G",
        "erman"
      ],
      [
        "c",
        "ling"
      ],
      [
        "f",
        "ree"
      ],
      [
        "m",
        "oney"
      ],
      [
        "n",
        "u"
      ],
      [
        "s",
        "id"
      ],
      [
        "v",
        "y"
      ],
      [
        "v",
        "ic"
      ],
      [
        "in",
        "ters"
      ],
      [
        "re",
        "sts"
      ],
      [
        "ir",
        "on"
      ],
      [
        "he",
        "els"
      ],
      [
        "ce",
        "re"
      ],
      [
        "li",
        "qu"
      ],
      [
        "ne",
        "on"
      ],
      [
        "am",
        "use"
      ],
      [
        "run",
        "ners"
      ],
      [
        "thr",
        "own"
      ],
      [
        "ter",
        "y"
      ],
      [
        "mo",
        "bi"
      ],
      [
        "pi",
        "ge"
      ],
      [
        "ha",
        "wk"
      ],
      [
        "ben",
        "ding"
      ],
      [
        "rop",
        "es"
      ],
      [
        "ff",
        "y"
      ],
      [
        "jo",
        "ckey"
      ],
      [
        "climb",
        "er"
      ],
      [
        "ex",
        "er"
      ],
      [
        "we",
        "ight"
      ],
      [
        "tru",
        "mpet"
      ],
      [
        "dri",
        "ve"
      ],
      [
        "pol",
        "ka"
      ],
      [
        "sha",
        "w"
      ],
      [
        "cas",
        "ian"
      ],
      [
        "roller",
        "bla"
      ],
      [
        "see",
        "ms"
      ],
      [
        "bru",
        "shing"
      ],
      [
        "pon",
        "y"
      ],
      [
        "neck",
        "la"
      ],
      [
        "check",
        "ered"
      ],
      [
        "decor",
        "ated"
      ],
      [
        "oper",
        "ating"
      ],
      [
        "exam",
        "ining"
      ],
      [
        "chest",
        "ra"
      ],
      [
        "particip",
        "ating"
      ],
      [
        "stud",
        "ent"
      ],
      [
        "gra",
        "vel"
      ],
      [
        "hal",
        "f"
      ],
      [
        "shap",
        "ed"
      ],
      [
        "refe",
        "ree"
      ],
      [
        "gri",
        "lling"
      ],
      [
        "amuse",
        "ment"
      ],
      [
        "J",
        "o"
      ],
      [
        "L",
        "o"
      ],
      [
        "M",
        "o"
      ],
      [
        "Y",
        "ork"
      ],
      [
        "a",
        "w"
      ],
      [
        "c",
        "one"
      ],
      [
        "c",
        "yclists"
      ],
      [
        "e",
        "ch"
      ],
      [
        "f",
        "le"
      ],
      [
        "g",
        "as"
      ],
      [
        "h",
        "y"
      ],
      [
        "h",
        "ound"
      ],
      [
        "j",
        "ung"
      ],
      [
        "p",
        "ine"
      ],
      [
        "r",
        "out"
      ],
      [
        "r",
        "owing"
      ],
      [
        "s",
        "pa"
      ],
      [
        "w",
        "arm"
      ],
      [
        "y",
        "e"
      ],
      [
        "y",
        "outh"
      ],
      [
        "z",
        "er"
      ],
      [
        "th",
        "in"
      ],
      [
        "ar",
        "s"
      ],
      [
        "hi",
        "tting"
      ],
      [
        "wi",
        "re"
      ],
      [
        "wi",
        "de"
      ],
      [
        "or",
        "der"
      ],
      [
        "or",
        "chestra"
      ],
      [
        "ge",
        "stu"
      ],
      [
        "be",
        "g"
      ],
      [
        "ri",
        "bb"
      ],
      [
        "sh",
        "ed"
      ],
      [
        "fr",
        "isbee"
      ],
      [
        "lo",
        "c"
      ],
      [
        "il",
        "t"
      ],
      [
        "thr",
        "oom"
      ],
      [
        "fe",
        "eding"
      ],
      [
        "ba",
        "throom"
      ],
      [
        "di",
        "o"
      ],
      [
        "tu",
        "m"
      ],
      [
        "thing",
        "s"
      ],
      [
        "mo",
        "del"
      ],
      [
        "wa",
        "gon"
      ],
      [
        "pu",
        "ll"
      ],
      [
        "head",
        "scarf"
      ],
      [
        "hair",
        "cut"
      ],
      [
        "sp",
        "ort"
      ],
      [
        "ped",
        "estrians"
      ],
      [
        "ca",
        "mel"
      ],
      [
        "stu",
        "dio"
      ],
      [
        "end",
        "s"
      ],
      [
        "bench",
        "es"
      ],
      [
        "sand",
        "wi"
      ],
      [
        "set",
        "s"
      ],
      [
        "su",
        "mmer"
      ],
      [
        "stick",
        "ing"
      ],
      [
        "du",
        "mp"
      ],
      [
        "compet",
        "e"
      ],
      [
        "tur",
        "ning"
      ],
      [
        "ban",
        "k"
      ],
      [
        "box",
        "ing"
      ],
      [
        "attemp",
        "t"
      ],
      [
        "pract",
        "ice"
      ],
      [
        "vehicle",
        "s"
      ],
      [
        "cra",
        "ft"
      ],
      [
        "photograph",
        "s"
      ],
      [
        "pat",
        "ter"
      ],
      [
        "prote",
        "st"
      ],
      [
        "mud",
        "dy"
      ],
      [
        "vis",
        "ion"
      ],
      [
        "individu",
        "al"
      ],
      [
        "crouch",
        "es"
      ],
      [
        "cand",
        "y"
      ],
      [
        "cont",
        "rol"
      ],
      [
        "har",
        "ness"
      ],
      [
        "prin",
        "t"
      ],
      [
        "ref",
        "lec"
      ],
      [
        "hall",
        "way"
      ],
      [
        "kn",
        "it"
      ],
      [
        "hear",
        "t"
      ],
      [
        "present",
        "ation"
      ],
      [
        "teach",
        "er"
      ],
      [
        "rece",
        "i"
      ],
      [
        "exc",
        "ited"
      ],
      [
        "shar",
        "ing"
      ],
      [
        "Japan",
        "ese"
      ],
      [
        "oppon",
        "ent"
      ],
      [
        "poss",
        "i"
      ],
      [
        "mobi",
        "le"
      ],
      [
        "exer",
        "c"
      ],
      [
        "jung",
        "le"
      ],
      [
        "H",
        "o"
      ],
      [
        "M",
        "ar"
      ],
      [
        "O",
        "lymp"
      ],
      [
        "a",
        "is"
      ],
      [
        "d",
        "ed"
      ],
      [
        "e",
        "en"
      ],
      [
        "e",
        "li"
      ],
      [
        "e",
        "xt"
      ],
      [
        "i",
        "g"
      ],
      [
        "n",
        "ative"
      ],
      [
        "p",
        "ers"
      ],
      [
        "s",
        "ack"
      ],
      [
        "s",
        "ink"
      ],
      [
        "x",
        "i"
      ],
      [
        "y",
        "ou"
      ],
      [
        "y",
        "hound"
      ],
      [
        "in",
        "y"
      ],
      [
        "in",
        "ten"
      ],
      [
        "in",
        "ery"
      ],
      [
        "on",
        "ly"
      ],
      [
        "at",
        "ers"
      ],
      [
        "st",
        "art"
      ],
      [
        "al",
        "so"
      ],
      [
        "et",
        "rack"
      ],
      [
        "ra",
        "cer"
      ],
      [
        "ce",
        "iling"
      ],
      [
        "ne",
        "igh"
      ],
      [
        "her",
        "d"
      ],
      [
        "il",
        "ity"
      ],
      [
        "ti",
        "v"
      ],
      [
        "ti",
        "le"
      ],
      [
        "jump",
        "suit"
      ],
      [
        "ren",
        "ch"
      ],
      [
        "si",
        "zed"
      ],
      [
        "cle",
        "ans"
      ],
      [
        "cr",
        "ash"
      ],
      [
        "mo",
        "m"
      ],
      [
        "tr",
        "op"
      ],
      [
        "je",
        "wel"
      ],
      [
        "door",
        "s"
      ],
      [
        "mu",
        "zz"
      ],
      [
        "guitar",
        "s"
      ],
      [
        "el",
        "f"
      ],
      [
        "gg",
        "ed"
      ],
      [
        "skateboard",
        "s"
      ],
      [
        "spe",
        "ech"
      ],
      [
        "bar",
        "s"
      ],
      [
        "ces",
        "s"
      ],
      [
        "ous",
        "ly"
      ],
      [
        "mach",
        "inery"
      ],
      [
        "surround",
        "ing"
      ],
      [
        "view",
        "ing"
      ],
      [
        "police",
        "man"
      ],
      [
        "fo",
        "cu"
      ],
      [
        "snowboard",
        "ing"
      ],
      [
        "gar",
        "age"
      ],
      [
        "fruit",
        "s"
      ],
      [
        "spor",
        "ting"
      ],
      [
        "slid",
        "es"
      ],
      [
        "drum",
        "mer"
[...]
