{
  "version": "1.0",
  "truncation": null,
  "padding": null,
  "added_tokens": [
    {
      "id": 0,
      "content": "[PAD]",
      "single_word": false,
      "lstrip": false,
      "rstrip": false,
      "normalized": false,
      "special": true
    },
    {
      "id": 1,
      "content": "[UNK]",
      "single_word": false,
      "lstrip": false,
      "rstrip": false,
      "normalized": false,
      "special": true
    },
    {
      "id": 2,
      "content": "[BOS]",
      "single_word": false,
      "lstrip": false,
      "rstrip": false,
      "normalized": false,
      "special": true
    },
    {
      "id": 3,
      "content": "[EOS]",
      "single_word": false,
      "lstrip": false,
      "rstrip": false,
      "normalized": false,
      "special": true
    }
  ],
  "normalizer": null,
  "pre_tokenizer": {
    "type": "Whitespace"
  },
  "post_processor": null,
  "decoder": null,
  "model": {
    "type": "BPE",
    "dropout": null,
    "unk_token": "[UNK]",
    "continuing_subword_prefix": null,
    "end_of_word_suffix": null,
    "fuse_unk": false,
    "byte_fallback": false,
    "ignore_merges": false,
    "vocab": {
      "[PAD]": 0,
      "[UNK]": 1,
      "[BOS]": 2,
      "[EOS]": 3,
      "!": 4,
      "\"": 5,
      "#": 6,
      "%": 7,
      "&": 8,
      "'": 9,
      "(": 10,
      ")": 11,
      ",": 12,
      "-": 13,
      ".": 14,
      "/": 15,
      "0": 16,
      "1": 17,
      "2": 18,
      "3": 19,
      "4": 20,
      "5": 21,
      "6": 22,
      "7": 23,
      "8": 24,
      "9": 25,
      ":": 26,
      ";": 27,
      "?": 28,
      "@": 29,
      "A": 30,
      "B": 31,
      "C": 32,
      "D": 33,
      "E": 34,
      "F": 35,
      "G": 36,
      "H": 37,
      "I": 38,
      "J": 39,
      "K": 40,
      "L": 41,
      "M": 42,
      "N": 43,
      "O": 44,
      "P": 45,
      "Q": 46,
      "R": 47,
      "S": 48,
      "T": 49,
      "U": 50,
      "V": 51,
      "W": 52,
      "X": 53,
      "Y": 54,
      "Z": 55,
      "_": 56,
      "a": 57,
      "b": 58,
      "c": 59,
      "d": 60,
      "e": 61,
      "f": 62,
      "g": 63,
      "h": 64,
      "i": 65,
      "j": 66,
      "k": 67,
      "l": 68,
      "m": 69,
      "n": 70,
      "o": 71,
      "p": 72,
      "q": 73,
      "r": 74,
      "s": 75,
      "t": 76,
      "u": 77,
      "v": 78,
      "w": 79,
      "x": 80,
      "y": 81,
      "z": 82,
      "Ä": 83,
      "Ö": 84,
      "Ü": 85,
      "ß": 86,
      "à": 87,
      "ä": 88,
      "è": 89,
      "é": 90,
      "ñ": 91,
      "ö": 92,
      "ü": 93,
      "–": 94,
      "‘": 95,
      "’": 96,
      "“": 97,
      "”": 98,
      "„": 99,
      "in": 100,
      "en": 101,
      "er": 102,
      "ein": 103,
      "ch": 104,
      "au": 105,
      "an": 106,
      "eine": 107,
      "un": 108,
      "Ein": 109,
      "ei": 110,
      "einem": 111,
      "it": 112,
      "el": 113,
      "und": 114,
      "sch": 115,
      "st": 116,
      "auf": 117,
      "ge": 118,
      "mit": 119,
      "ar": 120,
      "der": 121,
      "ann": 122,
      "ie": 123,
      "Mann": 124,
      "einer": 125,
      "on": 126,
      "rau": 127,
      "hr": 128,
      "de": 129,
      "wei": 130,
      "Eine": 131,
      "ter": 132,
      "ten": 133,
      "as": 134,
      "or": 135,
      "al": 136,
      "te": 137,
      "Frau": 138,
      "ck": 139,
      "tr": 140,
      "sp": 141,
      "gen": 142,
      "ich": 143,
      "einen": 144,
      "eh": 145,
      "ro": 146,
      "iel": 147,
      "im": 148,
      "Mä": 149,
      "den": 150,
      "kl": 151,
      "die": 152,
      "zu": 153,
      "am": 154,
      "ben": 155,
      "em": 156,
      "gt": 157,
      "Sch": 158,
      "bei": 159,
      "Zwei": 160,
      "chen": 161,
      "ber": 162,
      "and": 163,
      "bl": 164,
      "spiel": 165,
      "itz": 166,
      "steh": 167,
      "ne": 168,
      "rei": 169,
      "be": 170,
      "ung": 171,
      "ers": 172,
      "ach": 173,
      "ier": 174,
      "sitz": 175,
      "vor": 176,
      "sich": 177,
      "all": 178,
      "et": 179,
      "ner": 180,
      "ft": 181,
      "ßen": 182,
      "Str": 183,
      "von": 184,
      "um": 185,
      "nen": 186,
      "at": 187,
      "unge": 188,
      "dem": 189,
      "war": 190,
      "ähr": 191,
      "ur": 192,
      "schen": 193,
      "äl": 194,
      "dchen": 195,
      "Mädchen": 196,
      "ße": 197,
      "pp": 198,
      "il": 199,
      "Hund": 200,
      "Gr": 201,
      "ut": 202,
      "sen": 203,
      "Kin": 204,
      "gr": 205,
      "ol": 206,
      "erson": 207,
      "warz": 208,
      "Person": 209,
      "ad": 210,
      "eu": 211,
      "eines": 212,
      "nner": 213,
      "schwarz": 214,
      "ot": 215,
      "St": 216,
      "Männer": 217,
      "blau": 218,
      "ahr": 219,
      "steht": 220,
      "ir": 221,
      "Stra": 222,
      "ppe": 223,
      "geh": 224,
      "aus": 225,
      "lä": 226,
      "Ge": 227,
      "le": 228,
      "gel": 229,
      "sitzt": 230,
      "ger": 231,
      "ander": 232,
      "über": 233,
      "isch": 234,
      "Junge": 235,
      "ass": 236,
      "men": 237,
      "end": 238,
      "es": 239,
      "Men": 240,
      "uppe": 241,
      "ält": 242,
      "ik": 243,
      "hält": 244,
      "Straße": 245,
      "Sp": 246,
      "än": 247,
      "ährend": 248,
      "spr": 249,
      "während": 250,
      "Menschen": 251,
      "Gruppe": 252,
      "ball": 253,
      "ist": 254,
      "spielt": 255,
      "re": 256,
      "Hem": 257,
      "Kl": 258,
      "ihr": 259,
      "unter": 260,
      "pf": 261,
      "ver": 262,
      "lan": 263,
      "tet": 264,
      "Hemd": 265,
      "ent": 266,
      "cke": 267,
      "Personen": 268,
      "se": 269,
      "schau": 270,
      "acht": 271,
      "inter": 272,
      "das": 273,
      "eid": 274,
      "ür": 275,
      "blauen": 276,
      "uft": 277,
      "asser": 278,
      "aar": 279,
      "eil": 280,
      "weißen": 281,
      "is": 282,
      "stehen": 283,
      "neben": 284,
      "ingt": 285,
      "Wasser": 286,
      "urch": 287,
      "Kinder": 288,
      "he": 289,
      "Frauen": 290,
      "af": 291,
      "durch": 292,
      "gro": 293,
      "roten": 294,
      "sitzen": 295,
      "ell": 296,
      "rad": 297,
      "we": 298,
      "Kind": 299,
      "brau": 300,
      "ho": 301,
      "spielen": 302,
      "geht": 303,
      "grü": 304,
      "Drei": 305,
      "fer": 306,
      "trä": 307,
      "la": 308,
      "arben": 309,
      "us": 310,
      "fähr": 311,
      "fahr": 312,
      "fährt": 313,
      "Hand": 314,
      "bo": 315,
      "Fahr": 316,
      "ab": 317,
      "lie": 318,
      "trägt": 319,
      "iert": 320,
      "äu": 321,
      "weiß": 322,
      "lich": 323,
      "kt": 324,
      "ehr": 325,
      "ren": 326,
      "teil": 327,
      "ick": 328,
      "lang": 329,
      "Leu": 330,
      "ah": 331,
      "elt": 332,
      "Kleid": 333,
      "Bo": 334,
      "Spiel": 335,
      "her": 336,
      "Ober": 337,
      "Ho": 338,
      "macht": 339,
      "kleines": 340,
      "imm": 341,
      "eide": 342,
      "springt": 343,
      "ind": 344,
      "zwei": 345,
      "sie": 346,
      "entlang": 347,
      "schwarzen": 348,
      "Ko": 349,
      "igen": 350,
      "junge": 351,
      "eln": 352,
      "arbei": 353,
      "kleiner": 354,
      "des": 355,
      "agen": 356,
      "os": 357,
      "ungen": 358,
      "gehen": 359,
      "zen": 360,
      "cht": 361,
      "Sh": 362,
      "ange": 363,
      "cken": 364,
      "ehrer": 365,
      "fen": 366,
      "Leute": 367,
      "ige": 368,
      "est": 369,
      "farben": 370,
      "nt": 371,
      "Fel": 372,
      "ler": 373,
      "uß": 374,
      "was": 375,
      "Ar": 376,
      "ischen": 377,
      "hal": 378,
      "kleide": 379,
      "wir": 380,
      "bäu": 381,
      "älter": 382,
      "br": 383,
      "hin": 384,
      "Fahrrad": 385,
      "om": 386,
      "Sk": 387,
      "uh": 388,
      "Oberteil": 389,
      "Br": 390,
      "läch": 391,
      "Fuß": 392,
      "Bl": 393,
      "eit": 394,
      "etwas": 395,
      "Ball": 396,
      "ig": 397,
      "ehrere": 398,
      "seinem": 399,
      "irt": 400,
      "großen": 401,
      "icht": 402,
      "amer": 403,
      "da": 404,
      "acke": 405,
      "fü": 406,
      "grünen": 407,
      "ul": 408,
      "weg": 409,
      "ieren": 410,
      "ille": 411,
      "Gebäu": 412,
      "schaut": 413,
      "ht": 414,
      "grund": 415,
      "gekleide": 416,
      "Hinter": 417,
      "ark": 418,
      "nee": 419,
      "zeu": 420,
      "tel": 421,
      "Frei": 422,
      "vers": 423,
      "bt": 424,
      "Bau": 425,
      "ehen": 426,
      "sam": 427,
      "ort": 428,
      "Luft": 429,
      "ern": 430,
      "boar": 431,
      "ih": 432,
      "läuft": 433,
      "Tr": 434,
      "aufen": 435,
      "Der": 436,
      "Mehrere": 437,
      "ild": 438,
      "Shirt": 439,
      "Strand": 440,
      "hat": 441,
      "ze": 442,
      "Bas": 443,
      "sind": 444,
      "üh": 445,
      "ate": 446,
      "nach": 447,
      "Hintergrund": 448,
      "für": 449,
      "sehen": 450,
      "Jungen": 451,
      "spieler": 452,
      "hinter": 453,
      "Jacke": 454,
      "gest": 455,
      "Kleidung": 456,
      "Freien": 457,
      "Die": 458,
      "ack": 459,
      "ros": 460,
      "anderen": 461,
      "oto": 462,
      "unger": 463,
      "ster": 464,
      "Kopf": 465,
      "gelben": 466,
      "zeug": 467,
      "ör": 468,
      "vorbei": 469,
      "junger": 470,
      "halten": 471,
      "hoch": 472,
      "wer": 473,
      "Tisch": 474,
      "zt": 475,
      "ück": 476,
      "zug": 477,
      "Haar": 478,
      "ag": 479,
      "tem": 480,
      "lat": 481,
      "An": 482,
      "Schnee": 483,
      "Son": 484,
      "len": 485,
      "stei": 486,
      "andere": 487,
      "menge": 488,
      "Nä": 489,
      "orange": 490,
      "ett": 491,
      "Hut": 492,
      "Gebäude": 493,
      "zei": 494,
      "itar": 495,
      "fon": 496,
      "str": 497,
      "ank": 498,
      "Fl": 499,
      "sche": 500,
      "bef": 501,
      "Fußball": 502,
      "schwarzer": 503,
      "Kamer": 504,
      "board": 505,
      "umen": 506,
      "schn": 507,
      "ap": 508,
      "wird": 509,
      "fahrer": 510,
      "Gras": 511,
      "blick": 512,
      "Nähe": 513,
      "Au": 514,
      "ade": 515,
      "ing": 516,
      "iat": 517,
      "iger": 518,
      "beim": 519,
      "wimm": 520,
      "ün": 521,
      "kleine": 522,
      "Hunde": 523,
      "üt": 524,
      "kleinen": 525,
      "Kamera": 526,
      "Gitar": 527,
      "einander": 528,
      "Stad": 529,
      "op": 530,
      "ans": 531,
      "weißer": 532,
      "ff": 533,
      "Menschenmenge": 534,
      "Park": 535,
      "blon": 536,
      "Geh": 537,
      "ahn": 538,
      "uck": 539,
      "art": 540,
      "ische": 541,
      "ock": 542,
      "enn": 543,
      "farbenen": 544,
      "otor": 545,
      "fahren": 546,
      "Boden": 547,
      "ow": 548,
      "etter": 549,
      "amm": 550,
      "Es": 551,
      "Skate": 552,
      "grau": 553,
      "Ber": 554,
      "deck": 555,
      "uch": 556,
      "liegt": 557,
      "det": 558,
      "führ": 559,
      "als": 560,
      "rennt": 561,
      "Feld": 562,
      "ink": 563,
      "ion": 564,
      "schä": 565,
      "Sonnen": 566,
      "Straßen": 567,
      "ihre": 568,
      "sieht": 569,
      "Stadt": 570,
      "ucht": 571,
      "schie": 572,
      "Vier": 573,
      "Foto": 574,
      "zusam": 575,
      "latz": 576,
      "Gitarre": 577,
      "ma": 578,
      "schauen": 579,
      "dern": 580,
      "ob": 581,
      "pos": 582,
      "alt": 583,
      "är": 584,
      "ihren": 585,
      "In": 586,
      "Zu": 587,
      "Aut": 588,
      "dun": 589,
      "kel": 590,
      "herum": 591,
      "zusammen": 592,
      "eans": 593,
      "dr": 594,
      "gl": 595,
      "braunen": 596,
      "steig": 597,
      "Pfer": 598,
      "asiat": 599,
      "tes": 600,
      "große": 601,
      "brauner": 602,
      "Sand": 603,
      "ingen": 604,
      "Büh": 605,
      "Motor": 606,
      "schäft": 607,
      "kleid": 608,
      "Dam": 609,
      "wach": 610,
      "rot": 611,
      "ang": 612,
      "sein": 613,
      "Er": 614,
      "vol": 615,
      "berei": 616,
      "älterer": 617,
      "Jeans": 618,
      "kauf": 619,
      "ert": 620,
      "raußen": 621,
      "sicht": 622,
      "bedeck": 623,
      "elle": 624,
      "Bühne": 625,
      "oh": 626,
      "draußen": 627,
      "befin": 628,
      "ischer": 629,
      "Base": 630,
      "elm": 631,
      "Brille": 632,
      "Gehweg": 633,
      "Skateboard": 634,
      "hell": 635,
      "seine": 636,
      "laufen": 637,
      "Arbei": 638,
      "blickt": 639,
      "kleidung": 640,
      "Te": 641,
      "aby": 642,
      "wachsen": 643,
      "ss": 644,
      "Gel": 645,
      "hinunter": 646,
      "Mik": 647,
      "wie": 648,
      "weiße": 649,
      "achtet": 650,
      "schlä": 651,
      "arbeitet": 652,
      "wagen": 653,
      "dabei": 654,
      "Essen": 655,
      "Baby": 656,
      "for": 657,
      "Re": 658,
      "seinen": 659,
      "olz": 660,
      "Schwimm": 661,
      "tan": 662,
      "tragen": 663,
      "brille": 664,
      "Hän": 665,
      "Ver": 666,
      "bel": 667,
      "angen": 668,
      "gegen": 669,
      "arkt": 670,
      "aft": 671,
      "versucht": 672,
      "Be": 673,
      "haar": 674,
      "kur": 675,
      "lächeln": 676,
      "Paar": 677,
      "Bank": 678,
      "arbeiten": 679,
      "Wand": 680,
      "dar": 681,
      "üst": 682,
      "zeigt": 683,
      "Se": 684,
      "kletter": 685,
      "Auf": 686,
      "Un": 687,
      "reif": 688,
      "Baseball": 689,
      "Holz": 690,
      "per": 691,
      "stü": 692,
      "lag": 693,
      "Baum": 694,
      "utz": 695,
      "Dame": 696,
      "ant": 697,
      "machen": 698,
      "Bür": 699,
      "Rei": 700,
      "betr": 701,
      "gestreif": 702,
      "Me": 703,
      "ll": 704,
      "itt": 705,
      "uss": 706,
      "lichen": 707,
      "lächelt": 708,
      "lo": 709,
      "irm": 710,
      "Mau": 711,
      "orangefarbenen": 712,
      "ket": 713,
      "Bürger": 714,
      "iz": 715,
      "uhl": 716,
      "ke": 717,
      "che": 718,
      "ikot": 719,
      "ihrem": 720,
      "usik": 721,
      "rennen": 722,
      "Mikro": 723,
      "Hü": 724,
      "Wal": 725,
      "hen": 726,
      "geb": 727,
      "ihm": 728,
      "Rad": 729,
      "Schl": 730,
      "Gesicht": 731,
      "of": 732,
      "unst": 733,
      "assen": 734,
      "Bürgersteig": 735,
      "liest": 736,
      "Motorrad": 737,
      "kom": 738,
      "aum": 739,
      "junges": 740,
      "Hose": 741,
      "ältere": 742,
      "rä": 743,
      "antel": 744,
      "spricht": 745,
      "hän": 746,
      "anderer": 747,
      "aff": 748,
      "Trikot": 749,
      "Boot": 750,
      "führt": 751,
      "eg": 752,
      "ikan": 753,
      "unterhalten": 754,
      "Kr": 755,
      "ast": 756,
      "schaft": 757,
      "Pf": 758,
      "zie": 759,
      "braun": 760,
      "efon": 761,
      "platz": 762,
      "afarben": 763,
      "Tenn": 764,
      "ßer": 765,
      "Bild": 766,
      "Fr": 767,
      "drei": 768,
      "zer": 769,
      "ütze": 770,
      "aur": 771,
      "eich": 772,
      "Hosen": 773,
      "ine": 774,
      "weißem": 775,
      "Haaren": 776,
      "Wald": 777,
      "Musik": 778,
      "Sei": 779,
      "qu": 780,
      "rosa": 781,
      "Band": 782,
      "Bahn": 783,
      "schl": 784,
      "Spieler": 785,
      "Auto": 786,
      "mer": 787,
      "viel": 788,
      "schw": 789,
      "Meer": 790,
      "ßt": 791,
      "zum": 792,
      "Pferd": 793,
      "Tennis": 794,
      "Helm": 795,
      "Kunst": 796,
      "amp": 797,
      "grauen": 798,
      "aben": 799,
      "fr": 800,
      "Sonnenbrille": 801,
      "Fo": 802,
      "aurant": 803,
      "Rest": 804,
      "sst": 805,
      "Basket": 806,
      "orts": 807,
      "blauem": 808,
      "gekleidete": 809,
      "seiner": 810,
      "Restaurant": 811,
      "Basketball": 812,
      "Tag": 813,
      "beob": 814,
      "euer": 815,
      "Felsen": 816,
      "Arm": 817,
      "ien": 818,
      "Zuschau": 819,
      "Pul": 820,
      "Ta": 821,
      "wä": 822,
      "Gelän": 823,
      "anz": 824,
      "unten": 825,
      "Spr": 826,
      "form": 827,
      "arbeiter": 828,
      "singt": 829,
      "ät": 830,
      "otball": 831,
      "klettert": 832,
      "Football": 833,
      "gend": 834,
      "grün": 835,
      "ill": 836,
      "ihnen": 837,
      "Erwachsen": 838,
      "dunkel": 839,
      "Mantel": 840,
      "ak": 841,
      "tern": 842,
      "Eis": 843,
      "Fen": 844,
      "uhen": 845,
      "Berg": 846,
      "Mikrofon": 847,
      "anzug": 848,
      "pfen": 849,
      "ug": 850,
      "Shorts": 851,
      "posiert": 852,
      "Pol": 853,
      "uchen": 854,
      "asen": 855,
      "darauf": 856,
      "Feuer": 857,
      "use": 858,
      "öff": 859,
      "Spielzeug": 860,
      "ko": 861,
      "sten": 862,
      "Rol": 863,
      "stell": 864,
      "lover": 865,
      "mt": 866,
      "blauer": 867,
      "wirft": 868,
      "befindet": 869,
      "Bä": 870,
      "Vor": 871,
      "kar": 872,
      "zur": 873,
      "asse": 874,
      "Le": 875,
      "essen": 876,
      "oder": 877,
      "örper": 878,
      "fel": 879,
      "ennen": 880,
      "ins": 881,
      "denen": 882,
      "ppen": 883,
      "gelb": 884,
      "Sport": 885,
      "Fenster": 886,
      "Her": 887,
      "ecke": 888,
      "iet": 889,
      "alter": 890,
      "Blumen": 891,
      "bereitet": 892,
      "Po": 893,
      "bar": 894,
      "oben": 895,
      "inkt": 896,
      "scht": 897,
      "Geschäft": 898,
      "Bade": 899,
      "ken": 900,
      "aun": 901,
      "gem": 902,
      "tre": 903,
      "schwarzem": 904,
      "isst": 905,
      "Schild": 906,
      "gekleideter": 907,
      "versamm": 908,
      "Das": 909,
      "Tre": 910,
      "alten": 911,
      "ckt": 912,
      "springen": 913,
      "Klein": 914,
      "sehr": 915,
      "Regen": 916,
      "eb": 917,
      "ampf": 918,
      "Pullover": 919,
      "Raum": 920,
      "rotem": 921,
      "achten": 922,
      "langen": 923,
      "Weg": 924,
      "hü": 925,
      "cher": 926,
      "roter": 927,
      "net": 928,
      "ahl": 929,
      "Arbeiter": 930,
      "rosafarben": 931,
      "Zeit": 932,
      "schm": 933,
      "stand": 934,
      "ucks": 935,
      "Wie": 936,
      "äm": 937,
      "eren": 938,
      "liche": 939,
      "licher": 940,
      "Anzug": 941,
      "ain": 942,
      "wand": 943,
      "Männern": 944,
      "Wei": 945,
      "leh": 946,
      "zw": 947,
      "unden": 948,
      "schwarze": 949,
      "Kindern": 950,
      "gestreiften": 951,
      "Wiese": 952,
      "Mit": 953,
      "iv": 954,
      "äut": 955,
      "mitten": 956,
      "becken": 957,
      "wartet": 958,
      "telefon": 959,
      "hon": 960,
      "körper": 961,
      "schirm": 962,
      "Kar": 963,
      "La": 964,
      "az": 965,
      "Schutz": 966,
      "werden": 967,
      "haarige": 968,
      "Maul": 969,
      "Met": 970,
      "ünf": 971,
      "Kü": 972,
      "Rucks": 973,
      "gang": 974,
      "posieren": 975,
      "voller": 976,
      "Bluse": 977,
      "Fluss": 978,
      "Buch": 979,
      "Viel": 980,
      "zeit": 981,
      "geben": 982,
      "Stuhl": 983,
      "ckey": 984,
      "As": 985,
      "Sn": 986,
      "West": 987,
      "hn": 988,
      "immer": 989,
      "ges": 990,
      "reitet": 991,
      "änger": 992,
      "kauft": 993,
      "beleb": 994,
      "To": 995,
      "fe": 996,
      "kn": 997,
      "ste": 998,
      "Stein": 999,
      "achts": 1000,
      "Handy": 1001,
      "Oberkörper": 1002,
      "Hügel": 1003,
      "Fünf": 1004,
      "Haus": 1005,
      "bst": 1006,
      "liegen": 1007,
      "dunkl": 1008,
      "zieht": 1009,
      "Metall": 1010,
      "Aus": 1011,
      "Sur": 1012,
      "Um": 1013,
      "je": 1014,
      "ücken": 1015,
      "graf": 1016,
      "ess": 1017,
      "isten": 1018,
      "tanzen": 1019,
      "Viele": 1020,
      "Ka": 1021,
      "Rennen": 1022,
      "ierten": 1023,
      "warten": 1024,
      "euch": 1025,
      "überqu": 1026,
      "fest": 1027,
      "Kleink": 1028,
      "aut": 1029,
      "att": 1030,
      "Kostü": 1031,
      "betrachtet": 1032,
      "gew": 1033,
      "ungs": 1034,
      "Al": 1035,
      "genie": 1036,
      "zwischen": 1037,
      "Bus": 1038,
      "rote": 1039,
      "äufer": 1040,
      "Bauarbeiter": 1041,
      "blonde": 1042,
      "Uni": 1043,
      "asch": 1044,
      "ater": 1045,
      "ift": 1046,
      "kor": 1047,
      "ücke": 1048,
      "ette": 1049,
      "Leuten": 1050,
      "schläft": 1051,
      "Pu": 1052,
      "fl": 1053,
      "utzt": 1054,
      "Stock": 1055,
      "amerikan": 1056,
      "Gl": 1057,
      "Mütze": 1058,
      "Seil": 1059,
      "paar": 1060,
      "Kon": 1061,
      "Pap": 1062,
      "lil": 1063,
      "Schn": 1064,
      "Schul": 1065,
      "olle": 1066,
      "lehnt": 1067,
      "haben": 1068,
      "häut": 1069,
      "Stu": 1070,
      "Snow": 1071,
      "Markt": 1072,
      "ue": 1073,
      "iegel": 1074,
      "ation": 1075,
      "immt": 1076,
      "Händen": 1077,
      "Ro": 1078,
      "schr": 1079,
      "bedeckten": 1080,
      "miteinander": 1081,
      "herunter": 1082,
      "beobachtet": 1083,
      "Kleinkind": 1084,
      "män": 1085,
      "tritt": 1086,
      "Ski": 1087,
      "Bäumen": 1088,
      "Rucksack": 1089,
      "Tur": 1090,
      "di": 1091,
      "stre": 1092,
      "geschäft": 1093,
      "ichtung": 1094,
      "tanzt": 1095,
      "Out": 1096,
      "Renn": 1097,
      "fangen": 1098,
      "hör": 1099,
      "schö": 1100,
      "schnee": 1101,
      "ihrer": 1102,
      "Radfahrer": 1103,
      "Fre": 1104,
      "Zaun": 1105,
      "kü": 1106,
      "son": 1107,
      "Gewä": 1108,
      "bahn": 1109,
      "frei": 1110,
      "mann": 1111,
      "og": 1112,
      "eiten": 1113,
      "stein": 1114,
      "amil": 1115,
      "schiebt": 1116,
      "ohn": 1117,
      "inken": 1118,
      "Zug": 1119,
      "Schwimmbecken": 1120,
      "männ": 1121,
      "Bet": 1122,
      "vom": 1123,
      "stück": 1124,
      "wehr": 1125,
      "befinden": 1126,
      "Poliz": 1127,
      "Famil": 1128,
      "Gegen": 1129,
      "ärt": 1130,
      "Gewäss": 1131,
      "fall": 1132,
      "rich": 1133,
      "Einkauf": 1134,
      "schrei": 1135,
      "orangefarben": 1136,
      "Beton": 1137,
      "Land": 1138,
      "Rücken": 1139,
      "pu": 1140,
      "offen": 1141,
      "Zuschauer": 1142,
      "Küche": 1143,
      "me": 1144,
      "See": 1145,
      "Seite": 1146,
      "feld": 1147,
      "anst": 1148,
      "mitt": 1149,
      "trän": 1150,
      "spaz": 1151,
      "Schlag": 1152,
      "verschie": 1153,
      "läche": 1154,
      "Arbeit": 1155,
      "Fris": 1156,
      "Pro": 1157,
      "Welle": 1158,
      "nimmt": 1159,
      "ub": 1160,
      "ies": 1161,
      "Schau": 1162,
      "umgeben": 1163,
      "gelbe": 1164,
      "afen": 1165,
      "altung": 1166,
      "Instr": 1167,
      "kurzen": 1168,
      "pink": 1169,
      "vier": 1170,
      "auch": 1171,
      "wo": 1172,
      "Graff": 1173,
      "eidet": 1174,
      "boarder": 1175,
      "ampe": 1176,
      "Sprung": 1177,
      "Treppe": 1178,
      "Gem": 1179,
      "aten": 1180,
      "kr": 1181,
      "kon": 1182,
      "innen": 1183,
      "ena": 1184,
      "schwimm": 1185,
      "schuhen": 1186,
      "Schü": 1187,
      "braune": 1188,
      "lachen": 1189,
      "schneidet": 1190,
      "Graffit": 1191,
      "Flag": 1192,
      "Or": 1193,
      "Wer": 1194,
      "fit": 1195,
      "foto": 1196,
      "igt": 1197,
      "kaufen": 1198,
      "käm": 1199,
      "schein": 1200,
      "alte": 1201,
      "sport": 1202,
      "alle": 1203,
      "utter": 1204,
      "verkauft": 1205,
      "Familie": 1206,
      "Bü": 1207,
      "Com": 1208,
      "Wagen": 1209,
      "band": 1210,
      "ser": 1211,
      "Cow": 1212,
      "En": 1213,
      "Tor": 1214,
      "trinkt": 1215,
      "emand": 1216,
      "Geträn": 1217,
      "gerade": 1218,
      "hängt": 1219,
      "versammelt": 1220,
      "rosafarbenen": 1221,
      "Pla": 1222,
      "bunten": 1223,
      "dt": 1224,
      "malt": 1225,
      "Papier": 1226,
      "Mo": 1227,
      "ds": 1228,
      "iol": 1229,
      "par": 1230,
      "Schwarz": 1231,
      "aussehen": 1232,
      "hem": 1233,
      "rut": 1234,
      "öpf": 1235,
      "chs": 1236,
      "ief": 1237,
      "isches": 1238,
      "ellen": 1239,
      "boy": 1240,
      "ihn": 1241,
      "Bik": 1242,
      "zimmer": 1243,
      "einige": 1244,
      "ust": 1245,
      "yp": 1246,
      "üll": 1247,
      "unnen": 1248,
      "arb": 1249,
      "gruppe": 1250,
      "Fels": 1251,
      "telefoniert": 1252,
      "spazieren": 1253,
      "hebt": 1254,
      "asiatische": 1255,
      "belebten": 1256,
      "anstaltung": 1257,
      "Ne": 1258,
      "lt": 1259,
      "itten": 1260,
      "alen": 1261,
      "bee": 1262,
      "großer": 1263,
      "grüne": 1264,
      "Teena": 1265,
      "schlägt": 1266,
      "Roll": 1267,
      "Outfit": 1268,
      "schwimmt": 1269,
      "Compu": 1270,
      "Cowboy": 1271,
      "Teenager": 1272,
      "Ger": 1273,
      "Sa": 1274,
      "fro": 1275,
      "neh": 1276,
      "halb": 1277,
      "Fußballspieler": 1278,
      "ünst": 1279,
      "üstung": 1280,
      "Reihe": 1281,
      "aße": 1282,
      "ügen": 1283,
      "deo": 1284,
      "etz": 1285,
      "immel": 1286,
      "blicken": 1287,
      "Autos": 1288,
      "weißes": 1289,
      "sonn": 1290,
      "Gewässer": 1291,
      "Frisbee": 1292,
      "Gar": 1293,
      "Rock": 1294,
      "Rasen": 1295,
      "fliegt": 1296,
      "kehr": 1297,
      "nä": 1298,
      "pft": 1299,
      "wen": 1300,
      "yball": 1301,
      "mittel": 1302,
      "hohen": 1303,
      "gekleidet": 1304,
      "Kopfbedeck": 1305,
      "kommt": 1306,
      "schneebedeckten": 1307,
      "freiem": 1308,
      "Mutter": 1309,
      "ogen": 1310,
      "einigen": 1311,
      "ikum": 1312,
      "bereiten": 1313,
      "vielen": 1314,
      "Tasche": 1315,
      "grünem": 1316,
      "Bart": 1317,
      "sh": 1318,
      "stelle": 1319,
      "blikum": 1320,
      "lässt": 1321,
      "hinauf": 1322,
      "Brücke": 1323,
      "Gebäudes": 1324,
      "straße": 1325,
      "Team": 1326,
      "Hände": 1327,
      "sonnigen": 1328,
      "Himmel": 1329,
      "Sie": 1330,
      "Typ": 1331,
      "War": 1332,
      "fol": 1333,
      "jacke": 1334,
      "zogen": 1335,
      "atte": 1336,
      "befest": 1337,
      "Geländer": 1338,
      "Publikum": 1339,
      "fotograf": 1340,
      "Ab": 1341,
      "Kampf": 1342,
      "Platz": 1343,
      "Richtung": 1344,
      "Tel": 1345,
      "hil": 1346,
      "markt": 1347,
      "rüstung": 1348,
      "Hemden": 1349,
      "jekt": 1350,
      "Alter": 1351,
      "kämpfen": 1352,
      "ünstler": 1353,
      "Tür": 1354,
      "haus": 1355,
      "inger": 1356,
      "bereit": 1357,
      "eller": 1358,
      "ühlen": 1359,
      "Zeitung": 1360,
      "ee": 1361,
      "gi": 1362,
      "ling": 1363,
      "man": 1364,
      "eiter": 1365,
      "stä": 1366,
      "raut": 1367,
      "zuschauen": 1368,
      "Hoch": 1369,
      "füll": 1370,
      "werk": 1371,
      "Schutzh": 1372,
      "Weste": 1373,
      "dunklen": 1374,
      "Ju": 1375,
      "park": 1376,
      "blaue": 1377,
      "Graffiti": 1378,
      "Bier": 1379,
      "Mar": 1380,
      "Müll": 1381,
      "acken": 1382,
      "stuhl": 1383,
      "Spielplatz": 1384,
      "voll": 1385,
      "Unter": 1386,
      "Kopfbedeckung": 1387,
      "Hals": 1388,
      "na": 1389,
      "nack": 1390,
      "teten": 1391,
      "ummer": 1392,
      "ängt": 1393,
      "igar": 1394,
      "Flug": 1395,
      "Augen": 1396,
      "asiatischer": 1397,
      "Erwachsene": 1398,
      "Computer": 1399,
      "Dr": 1400,
      "So": 1401,
      "Zigar": 1402,
      "asche": 1403,
      "hut": 1404,
      "mel": 1405,
      "aub": 1406,
      "Mannes": 1407,
      "Pool": 1408,
      "mittler": 1409,
      "Kan": 1410,
      "Sol": 1411,
      "kop": 1412,
      "anc": 1413,
      "schüt": 1414,
      "bens": 1415,
      "Schirm": 1416,
      "umar": 1417,
      "ument": 1418,
      "Hof": 1419,
      "blondes": 1420,
      "führen": 1421,
      "haariger": 1422,
      "Winter": 1423,
      "bank": 1424,
      "atue": 1425,
      "verschn": 1426,
      "lagen": 1427,
      "davon": 1428,
      "karierten": 1429,
      "Bar": 1430,
      "Lo": 1431,
      "fläche": 1432,
      "grei": 1433,
      "lin": 1434,
      "leuch": 1435,
      "mehrere": 1436,
      "zusehen": 1437,
      "Kunststück": 1438,
      "dunkelhäut": 1439,
      "überqueren": 1440,
      "genießt": 1441,
      "Glas": 1442,
      "Freund": 1443,
      "Schaukel": 1444,
      "Dach": 1445,
      "Decke": 1446,
      "Jemand": 1447,
      "Tro": 1448,
      "etten": 1449,
      "Stück": 1450,
      "repar": 1451,
      "hose": 1452,
      "Blick": 1453,
      "uckt": 1454,
      "Feuerwehr": 1455,
      "Jugend": 1456,
      "lacht": 1457,
      "off": 1458,
      "pr": 1459,
      "Klei": 1460,
      "laster": 1461,
      "brett": 1462,
      "Mauer": 1463,
      "Zuschauern": 1464,
      "Lebens": 1465,
      "treten": 1466,
      "schrift": 1467,
      "gibt": 1468,
      "städt": 1469,
      "mittleren": 1470,
      "Fot": 1471,
      "Volle": 1472,
      "gner": 1473,
      "set": 1474,
      "benutzt": 1475,
      "gelber": 1476,
      "rädern": 1477,
      "öffent": 1478,
      "Gemü": 1479,
      "Sof": 1480,
      "hö": 1481,
      "pro": 1482,
      "orangen": 1483,
      "Menge": 1484,
      "Baseballspieler": 1485,
      "Einkaufs": 1486,
      "nehmen": 1487,
      "Alters": 1488,
      "Volleyball": 1489,
      "Obst": 1490,
      "Par": 1491,
      "bem": 1492,
      "gänger": 1493,
      "hei": 1494,
      "ries": 1495,
      "tur": 1496,
      "viol": 1497,
      "anten": 1498,
      "unt": 1499,
      "Einige": 1500,
      "elmen": 1501,
      "eman": 1502,
      "Schür": 1503,
      "Mensch": 1504,
      "unterhält": 1505,
      "Ak": 1506,
      "Mund": 1507,
      "sur": 1508,
      "strei": 1509,
      "zusieht": 1510,
      "Schal": 1511,
      "großes": 1512,
      "stellt": 1513,
      "Uniform": 1514,
      "nahe": 1515,
      "Fotos": 1516,
      "Kor": 1517,
      "del": 1518,
      "außer": 1519,
      "star": 1520,
      "gebäu": 1521,
      "immen": 1522,
      "zuschaut": 1523,
      "spre": 1524,
      "nebeneinander": 1525,
      "Fußgänger": 1526,
      "Reifen": 1527,
      "Mitte": 1528,
      "scheint": 1529,
      "Sofa": 1530,
      "Gol": 1531,
      "Ufer": 1532,
      "kampf": 1533,
      "mp": 1534,
      "mehrer": 1535,
      "nicht": 1536,
      "ini": 1537,
      "err": 1538,
      "einsam": 1539,
      "ons": 1540,
      "spann": 1541,
      "glei": 1542,
      "lila": 1543,
      "verschieden": 1544,
      "Nacht": 1545,
      "Ziegel": 1546,
      "bis": 1547,
      "jeman": 1548,
      "nachts": 1549,
      "ruh": 1550,
      "auer": 1551,
      "itzen": 1552,
      "bew": 1553,
      "utsche": 1554,
      "Hockey": 1555,
      "iges": 1556,
      "igk": 1557,
      "Sonne": 1558,
      "kniet": 1559,
      "Surfer": 1560,
      "Gegenstand": 1561,
      "Gemüse": 1562,
      "Masch": 1563,
      "Wett": 1564,
      "bal": 1565,
      "jungen": 1566,
      "oß": 1567,
      "uhe": 1568,
      "äh": 1569,
      "ition": 1570,
      "under": 1571,
      "schlagen": 1572,
      "geln": 1573,
      "hinten": 1574,
      "versuchen": 1575,
      "Herr": 1576,
      "Asiat": 1577,
      "Zigarette": 1578,
      "Braut": 1579,
      "Cl": 1580,
      "Fer": 1581,
      "Fisch": 1582,
      "Nummer": 1583,
      "bärt": 1584,
      "farb": 1585,
      "gut": 1586,
      "nah": 1587,
      "erle": 1588,
      "trinken": 1589,
      "legt": 1590,
      "Trick": 1591,
      "gleich": 1592,
      "kurz": 1593,
      "üste": 1594,
      "beobachten": 1595,
      "Roller": 1596,
      "mehreren": 1597,
      "Bett": 1598,
      "Zelt": 1599,
      "aw": 1600,
      "agt": 1601,
      "fängt": 1602,
      "itzt": 1603,
      "gestell": 1604,
      "Pfad": 1605,
      "Kn": 1606,
      "Läufer": 1607,
      "ühr": 1608,
      "gef": 1609,
      "Mannschaft": 1610,
      "raucht": 1611,
      "ickt": 1612,
      "farbenfro": 1613,
      "Armen": 1614,
      "werfen": 1615,
      "Trikots": 1616,
      "Weihn": 1617,
      "Flagge": 1618,
      "Garten": 1619,
      "öffentlichen": 1620,
      "De": 1621,
      "Eim": 1622,
      "Part": 1623,
      "zert": 1624,
      "gep": 1625,
      "rotes": 1626,
      "beide": 1627,
      "Stange": 1628,
      "issen": 1629,
      "hof": 1630,
      "lasche": 1631,
      "Handt": 1632,
      "Art": 1633,
      "betrachten": 1634,
      "Laden": 1635,
      "Stufen": 1636,
      "rutscht": 1637,
      "verschneiten": 1638,
      "Schürze": 1639,
      "Ferne": 1640,
      "Weihnachts": 1641,
      "Co": 1642,
      "Rampe": 1643,
      "Wanderer": 1644,
      "bild": 1645,
      "dass": 1646,
      "heit": 1647,
      "blich": 1648,
      "Grill": 1649,
      "grüner": 1650,
      "Gehsteig": 1651,
      "Veranstaltung": 1652,
      "kommen": 1653,
      "Musiker": 1654,
      "Vorder": 1655,
      "hemd": 1656,
      "Back": 1657,
      "Ob": 1658,
      "gol": 1659,
      "hund": 1660,
      "ugt": 1661,
      "eite": 1662,
      "änzer": 1663,
      "Bow": 1664,
      "gebung": 1665,
      "viele": 1666,
      "folgt": 1667,
      "Kap": 1668,
      "Tanz": 1669,
      "iff": 1670,
      "mütze": 1671,
      "reden": 1672,
      "heraus": 1673,
      "blonden": 1674,
      "masch": 1675,
      "Geld": 1676,
      "ziehen": 1677,
      "Tennisball": 1678,
      "Surf": 1679,
      "Kostüm": 1680,
      "Snowboarder": 1681,
      "befestig": 1682,
      "leuchten": 1683,
      "außerhalb": 1684,
      "Che": 1685,
      "Tau": 1686,
      "Vo": 1687,
      "köpf": 1688,
      "mo": 1689,
      "rt": 1690,
      "ru": 1691,
      "weiter": 1692,
      "atten": 1693,
      "untergang": 1694,
      "fern": 1695,
      "formen": 1696,
      "Basketballspieler": 1697,
      "Kostümen": 1698,
      "Snowboard": 1699,
      "Turn": 1700,
      "Plast": 1701,
      "Telefon": 1702,
      "bärtiger": 1703,
      "Swe": 1704,
      "akt": 1705,
      "do": 1706,
      "käufer": 1707,
      "phon": 1708,
      "sk": 1709,
      "sucht": 1710,
      "schir": 1711,
      "illen": 1712,
      "Statue": 1713,
      "blaues": 1714,
      "Geb": 1715,
      "lange": 1716,
      "Fahrzeug": 1717,
      "dessen": 1718,
      "Sonnenuntergang": 1719,
      "dreh": 1720,
      "zurück": 1721,
      "Skifahrer": 1722,
      "Instrumen": 1723,
      "Bikini": 1724,
      "greift": 1725,
      "Lebensmittel": 1726,
      "surft": 1727,
      "Bowling": 1728,
      "Plastik": 1729,
      "Tan": 1730,
      "Vater": 1731,
      "app": 1732,
      "mauer": 1733,
      "oten": 1734,
      "uster": 1735,
      "chter": 1736,
      "ume": 1737,
      "oll": 1738,
      "Klassen": 1739,
      "pflaster": 1740,
      "Brunnen": 1741,
      "klettern": 1742,
      "Aufschrift": 1743,
      "hängen": 1744,
      "gelbem": 1745,
      "Asi": 1746,
      "schreibt": 1747,
      "Schüler": 1748,
      "shirt": 1749,
      "fotografiert": 1750,
      "hilft": 1751,
      "Kleidern": 1752,
      "Kapu": 1753,
      "Bei": 1754,
      "stän": 1755,
      "ont": 1756,
      "Schie": 1757,
      "beiden": 1758,
      "beugt": 1759,
      "atshirt": 1760,
      "ausrüstung": 1761,
      "reck": 1762,
      "boot": 1763,
      "liches": 1764,
      "own": 1765,
      "obil": 1766,
      "Damen": 1767,
      "Hüten": 1768,
      "männliche": 1769,
      "Polizist": 1770,
      "Kampfsport": 1771,
      "städtischen": 1772,
      "Vogel": 1773,
      "Sweatshirt": 1774,
      "Bal": 1775,
      "Ke": 1776,
      "Leiter": 1777,
      "Pass": 1778,
      "fei": 1779,
      "jak": 1780,
      "sil": 1781,
      "skleidung": 1782,
      "wa": 1783,
      "unbefestig": 1784,
      "lesen": 1785,
      "Kletter": 1786,
      "Haare": 1787,
      "Sechs": 1788,
      "überquert": 1789,
      "schönen": 1790,
      "Polizisten": 1791,
      "Hochzeit": 1792,
      "gebäude": 1793,
      "Maschine": 1794,
      "Krei": 1795,
      "fäl": 1796,
      "guckt": 1797,
      "lei": 1798,
      "wander": 1799,
      "chten": 1800,
      "unk": 1801,
      "Schrei": 1802,
      "zentr": 1803,
      "ückt": 1804,
      "ings": 1805,
      "ünger": 1806,
      "schwimmen": 1807,
      "versammeln": 1808,
      "Kajak": 1809,
      "streckt": 1810,
      "hört": 1811,
      "nacktem": 1812,
      "sprechen": 1813,
      "Ker": 1814,
      "du": 1815,
      "hol": 1816,
      "blasen": 1817,
      "daten": 1818,
      "gestreiftem": 1819,
      "gemeinsam": 1820,
      "Konzert": 1821,
      "Leine": 1822,
      "Rutsche": 1823,
      "if": 1824,
      "ip": 1825,
      "ippe": 1826,
      "jünger": 1827,
      "rand": 1828,
      "trad": 1829,
      "Schm": 1830,
      "Schuhen": 1831,
      "leeren": 1832,
      "gele": 1833,
      "asiatischen": 1834,
      "schlafen": 1835,
      "Regenschirm": 1836,
      "Getränk": 1837,
      "maschine": 1838,
      "Bul": 1839,
      "Caf": 1840,
      "Kat": 1841,
      "Wohn": 1842,
      "lassen": 1843,
      "mar": 1844,
      "sel": 1845,
      "Schlä": 1846,
      "athon": 1847,
      "ilit": 1848,
      "ilder": 1849,
      "boden": 1850,
      "Kopfhör": 1851,
      "zeich": 1852,
      "blonder": 1853,
      "Pferde": 1854,
      "kostü": 1855,
      "Weiß": 1856,
      "Westen": 1857,
      "genießen": 1858,
      "lilafarben": 1859,
      "iefeln": 1860,
      "Waren": 1861,
      "Soldaten": 1862,
      "Eimer": 1863,
      "tradition": 1864,
      "Aben": 1865,
      "Lie": 1866,
      "Rot": 1867,
      "Tänzer": 1868,
      "Wellen": 1869,
      "jagt": 1870,
      "mä": 1871,
      "sä": 1872,
      "top": 1873,
      "öcken": 1874,
      "eibe": 1875,
      "stu": 1876,
      "weiblich": 1877,
      "bewachsen": 1878,
      "Stühlen": 1879,
      "lät": 1880,
      "recht": 1881,
      "afr": 1882,
      "ossen": 1883,
      "Diese": 1884,
      "otorrad": 1885,
      "Mikrophon": 1886,
      "Seifen": 1887,
      "Badeanzug": 1888,
      "Umgebung": 1889,
      "Schlagzeug": 1890,
      "Schutzhelm": 1891,
      "silber": 1892,
      "Kaff": 1893,
      "Lap": 1894,
      "Ma": 1895,
      "achen": 1896,
      "bung": 1897,
      "halle": 1898,
      "öpfen": 1899,
      "aske": 1900,
      "gras": 1901,
      "län": 1902,
      "entspann": 1903,
      "gekleideten": 1904,
      "ohne": 1905,
      "beleuch": 1906,
      "Motorradfahrer": 1907,
      "Geländem": 1908,
      "Leder": 1909,
      "Rodeo": 1910,
      "gelbes": 1911,
      "wobei": 1912,
      "Ende": 1913,
      "Korb": 1914,
      "afrikan": 1915,
      "Laptop": 1916,
      "Fah": 1917,
      "Finger": 1918,
      "Gei": 1919,
      "Künstler": 1920,
      "Ohr": 1921,
      "bau": 1922,
      "pul": 1923,
      "singen": 1924,
      "üm": 1925,
      "inder": 1926,
      "instr": 1927,
      "inmitten": 1928,
      "schaf": 1929,
      "schuh": 1930,
      "dert": 1931,
      "ase": 1932,
      "reiten": 1933,
      "urf": 1934,
      "ause": 1935,
      "ischt": 1936,
      "lanzen": 1937,
      "ulp": 1938,
      "grauem": 1939,
      "ssel": 1940,
      "gegenüber": 1941,
      "Kraw": 1942,
      "braunem": 1943,
      "schwingt": 1944,
      "Erwachsenen": 1945,
      "Erwachsener": 1946,
      "Marathon": 1947,
      "riesigen": 1948,
      "starrt": 1949,
      "dreht": 1950,
      "ilitär": 1951,
      "Ch": 1952,
      "Hö": 1953,
      "Sohn": 1954,
      "Vi": 1955,
      "aden": 1956,
      "gn": 1957,
      "ka": 1958,
      "rein": 1959,
      "oren": 1960,
      "berühr": 1961,
      "Gegend": 1962,
      "gelt": 1963,
      "anderes": 1964,
      "Handschuhen": 1965,
      "Fahrer": 1966,
      "älteren": 1967,
      "Parkplatz": 1968,
      "Uniformen": 1969,
      "fallen": 1970,
      "Instrument": 1971,
      "pinkfarben": 1972,
      "Werk": 1973,
      "Parade": 1974,
      "Lauf": 1975,
      "ssen": 1976,
      "train": 1977,
      "add": 1978,
      "euz": 1979,
      "verkleide": 1980,
      "Kinderwagen": 1981,
      "füt": 1982,
      "Gebäuden": 1983,
      "Shirts": 1984,
      "Bergen": 1985,
      "Bereich": 1986,
      "Straßenecke": 1987,
      "Straßenrand": 1988,
      "ärm": 1989,
      "lächelnd": 1990,
      "räder": 1991,
      "Arme": 1992,
      "ätow": 1993,
      "Treppen": 1994,
      "korb": 1995,
      "richter": 1996,
      "offenen": 1997,
      "pinkfarbenen": 1998,
      "wendet": 1999,
      "balanc": 2000,
      "Schreibt": 2001,
      "Fern": 2002,
      "Kir": 2003,
      "Last": 2004,
      "Sänger": 2005,
      "The": 2006,
      "ader": 2007,
      "link": 2008,
      "“.": 2009,
      "eisch": 2010,
      "gepflaster": 2011,
      "ord": 2012,
      "Schoß": 2013,
      "schwarzes": 2014,
      "Stand": 2015,
      "spritzt": 2016,
      "verall": 2017,
      "ktion": 2018,
      "Baustelle": 2019,
      "Tour": 2020,
      "umarmt": 2021,
      "Party": 2022,
      "Cheerle": 2023,
      "Geländemotorrad": 2024,
      "El": 2025,
      "Gro": 2026,
      "Jacken": 2027,
      "Kuchen": 2028,
      "Overall": 2029,
      "Pause": 2030,
      "Wasch": 2031,
      "bik": 2032,
      "kann": 2033,
      "kten": 2034,
      "seite": 2035,
      "ucken": 2036,
      "einge": 2037,
      "gezogen": 2038,
      "ork": 2039,
      "Schw": 2040,
      "ierte": 2041,
      "ausgest": 2042,
      "samm": 2043,
      "steigen": 2044,
      "orangefarbener": 2045,
      "grünes": 2046,
      "dunkelhäutiger": 2047,
      "setzt": 2048,
      "Clown": 2049,
      "Backstein": 2050,
      "grasbewachsen": 2051,
      "ulptur": 2052,
      "Krawatte": 2053,
      "Netz": 2054,
      "Tier": 2055,
      "by": 2056,
      "co": 2057,
      "glie": 2058,
      "ober": 2059,
      "so": 2060,
      "gegner": 2061,
      "icher": 2062,
      "Schatten": 2063,
      "umm": 2064,
      "utzen": 2065,
      "Spiegel": 2066,
      "verkaufen": 2067,
      "schauk": 2068,
      "hockey": 2069,
      "roskop": 2070,
      "Tennisspieler": 2071,
      "Gelände": 2072,
      "ive": 2073,
      "repariert": 2074,
      "Jugendlicher": 2075,
      "Vordergrund": 2076,
      "Schreibtisch": 2077,
      "Fell": 2078,
      "Mobil": 2079,
      "Sicher": 2080,
      "ganz": 2081,
      "hand": 2082,
      "lung": 2083,
      "putzt": 2084,
      "tau": 2085,
      "äum": 2086,
      "ön": 2087,
      "grill": 2088,
      "iste": 2089,
      "lage": 2090,
      "Fahrradfahrer": 2091,
      "Blau": 2092,
      "gekleidetes": 2093,
      "Anz": 2094,
      "glück": 2095,
      "Sandalen": 2096,
      "vollen": 2097,
      "hellhäut": 2098,
      "gegeneinander": 2099,
      "kurzer": 2100,
      "Schlitten": 2101,
      "Taschen": 2102,
      "stellung": 2103,
      "gewor": 2104,
      "amerikanische": 2105,
      "Schnau": 2106,
      "Schulter": 2107,
      "füllten": 2108,
      "Flugzeug": 2109,
      "prü": 2110,
      "Einkaufswagen": 2111,
      "verschiedene": 2112,
      "gestellt": 2113,
      "Fü": 2114,
      "Hu": 2115,
      "Im": 2116,
      "Kunden": 2117,
      "eben": 2118,
      "ipp": 2119,
      "pl": 2120,
      "ufer": 2121,
      "unn": 2122,
      "eiden": 2123,
      "team": 2124,
      "dies": 2125,
      "atz": 2126,
      "atur": 2127,
      "westen": 2128,
      "Fahrrädern": 2129,
      "abge": 2130,
      "angezogen": 2131,
      "anken": 2132,
      "führung": 2133,
      "Fotograf": 2134,
      "asiatisches": 2135,
      "bedeckt": 2136,
      "Mikroskop": 2137,
      "Baumst": 2138,
      "schlossen": 2139,
      "Footballspieler": 2140,
      "strecke": 2141,
      "küsst": 2142,
      "dsrichter": 2143,
      "jemandem": 2144,
      "Schläger": 2145,
      "balanciert": 2146,
      "Bein": 2147,
      "Blät": 2148,
      "Lab": 2149,
      "Ste": 2150,
      "baum": 2151,
      "ient": 2152,
      "ktr": 2153,
      "uppen": 2154,
      "winkt": 2155,
      "wunder": 2156,
      "indern": 2157,
      "chte": 2158,
      "uni": 2159,
      "statt": 2160,
      "raum": 2161,
      "deon": 2162,
      "amen": 2163,
      "Schauf": 2164,
      "ppich": 2165,
      "Stiefeln": 2166,
      "heben": 2167,
      "weste": 2168,
      "halt": 2169,
      "Train": 2170,
      "Fleisch": 2171,
      "druck": 2172,
      "Pferden": 2173,
      "Erde": 2174,
      "schläger": 2175,
      "Verkehr": 2176,
      "gebiet": 2177,
      "Schlauch": 2178,
      "Badehose": 2179,
      "schmutz": 2180,
      "schöne": 2181,
      "Büro": 2182,
      "schütt": 2183,
      "Akkor": 2184,
      "Schiedsrichter": 2185,
      "fällt": 2186,
      "kostüm": 2187,
      "Video": 2188,
      "Mobiltelefon": 2189,
      "Fall": 2190,
      "Fischer": 2191,
      "Rand": 2192,
      "bur": 2193,
      "hak": 2194,
      "luft": 2195,
      "lock": 2196,
      "oo": 2197,
      "osen": 2198,
      "ve": 2199,
      "zel": 2200,
      "ines": 2201,
      "aufger": 2202,
      "anne": 2203,
      "aler": 2204,
      "cker": 2205,
      "irgend": 2206,
      "Spa": 2207,
      "durchs": 2208,
      "Koch": 2209,
      "igem": 2210,
      "Angel": 2211,
      "hellbrauner": 2212,
      "treppe": 2213,
      "orangefarbenem": 2214,
      "Felswand": 2215,
      "Halsband": 2216,
      "Golf": 2217,
      "Surfbrett": 2218,
      "Klassenzimmer": 2219,
      "Kapuzen": 2220,
      "geworfen": 2221,
      "Akkordeon": 2222,
      "Jahr": 2223,
      "Militär": 2224,
      "Teil": 2225,
      "Zimmer": 2226,
      "nf": 2227,
      "nie": 2228,
      "nung": 2229,
      "ras": 2230,
      "ähn": 2231,
      "chines": 2232,
      "bewe": 2233,
      "ktop": 2234,
      "Oberteilen": 2235,
      "davor": 2236,
      "fünf": 2237,
      "wegs": 2238,
      "zeigen": 2239,
      "stru": 2240,
      "rothaarige": 2241,
      "lächelnde": 2242,
      "Schlamm": 2243,
      "Gesichts": 2244,
      "anzügen": 2245,
      "stellen": 2246,
      "belebte": 2247,
      "küssen": 2248,
      "Gerüst": 2249,
      "Kanu": 2250,
      "Loch": 2251,
      "Tanktop": 2252,
      "unbefestigten": 2253,
      "Höhe": 2254,
      "Sicherheit": 2255,
      "unnel": 2256,
      "Pick": 2257,
      "beh": 2258,
      "fuß": 2259,
      "gie": 2260,
      "hang": 2261,
      "kw": 2262,
      "ok": 2263,
      "sau": 2264,
      "seines": 2265,
      "ugel": 2266,
      "zaun": 2267,
      "äch": 2268,
      "öh": 2269,
      "erin": 2270,
      "erwachsen": 2271,
      "eisen": 2272,
      "schild": 2273,
      "ongl": 2274,
      "Schuhe": 2275,
      "blä": 2276,
      "bewer": 2277,
      "irn": 2278,
      "aussieht": 2279,
      "redet": 2280,
      "how": 2281,
      "fahrzeug": 2282,
      "brunnen": 2283,
      "steigt": 2284,
      "Fußballspiel": 2285,
      "Skateboarder": 2286,
      "Innen": 2287,
      "Spring": 2288,
      "nahme": 2289,
      "leuchtend": 2290,
      "Kreis": 2291,
      "gelegt": 2292,
      "weibliche": 2293,
      "Seifenblasen": 2294,
      "schaften": 2295,
      "Lastwagen": 2296,
      "Cheerleader": 2297,
      "Ecke": 2298,
      "Fe": 2299,
      "Kur": 2300,
      "Tischen": 2301,
      "Wind": 2302,
      "Zei": 2303,
      "dler": 2304,
      "künstler": 2305,
      "plan": 2306,
      "padd": 2307,
      "ünet": 2308,
      "stad": 2309,
      "Schaufen": 2310,
      "Schlange": 2311,
      "beg": 2312,
      "bekleide": 2313,
      "iern": 2314,
      "urt": 2315,
      "afro": 2316,
      "fahrt": 2317,
      "Skater": 2318,
      "bereich": 2319,
      "Kranken": 2320,
      "Pflanzen": 2321,
      "frisch": 2322,
      "öffnet": 2323,
      "dient": 2324,
      "verschiedenen": 2325,
      "Mount": 2326,
      "gleitet": 2327,
      "Schnauze": 2328,
      "haki": 2329,
      "Spaß": 2330,
      "Mountain": 2331,
      "Ele": 2332,
      "Fest": 2333,
      "Nach": 2334,
      "Rück": 2335,
      "Säu": 2336,
      "Teich": 2337,
      "bun": 2338,
      "dach": 2339,
      "dien": 2340,
      "ekt": 2341,
      "äck": 2342,
      "geschm": 2343,
      "bet": 2344,
      "Stirn": 2345,
      "gerät": 2346,
      "stehende": 2347,
      "afel": 2348,
      "Spielfeld": 2349,
      "Kopft": 2350,
      "igur": 2351,
      "Luftball": 2352,
      "Tramp": 2353,
      "Stadion": 2354,
      "Teppich": 2355,
      "kompl": 2356,
      "Bäume": 2357,
      "Karate": 2358,
      "Tochter": 2359,
      "Schultern": 2360,
      "Rennstrecke": 2361,
      "Trom": 2362,
      "farbenfrohen": 2363,
      "Objekt": 2364,
      "köpfiger": 2365,
      "marsch": 2366,
      "lilafarbenen": 2367,
      "gepflasterten": 2368,
      "grasbewachsenen": 2369,
      "Mountainbik": 2370,
      "Far": 2371,
      "Flasche": 2372,
      "Haufen": 2373,
      "Mitt": 2374,
      "Tasse": 2375,
      "cros": 2376,
      "fliegen": 2377,
      "ib": 2378,
      "jog": 2379,
      "jongl": 2380,
      "pe": 2381,
      "pen": 2382,
      "suchen": 2383,
      "schauf": 2384,
      "one": 2385,
      "orient": 2386,
      "Schuh": 2387,
      "gehalten": 2388,
      "hosen": 2389,
      "fert": 2390,
      "laden": 2391,
      "bogen": 2392,
      "zene": 2393,
      "Dies": 2394,
      "Verkauf": 2395,
      "kocht": 2396,
      "fels": 2397,
      "Geschäfts": 2398,
      "Kai": 2399,
      "Kappe": 2400,
      "männlicher": 2401,
      "Sax": 2402,
      "violetten": 2403,
      "igkeit": 2404,
      "holt": 2405,
      "Café": 2406,
      "Kaffee": 2407,
      "Geige": 2408,
      "Kirche": 2409,
      "Hula": 2410,
      "Farben": 2411,
      "Helmen": 2412,
      "Hindern": 2413,
      "Küste": 2414,
      "Plat": 2415,
      "Ziel": 2416,
      "Zäh": 2417,
      "belt": 2418,
      "ffen": 2419,
      "kat": 2420,
      "kahl": 2421,
      "wärt": 2422,
      "öl": 2423,
      "geschlossen": 2424,
      "rol": 2425,
      "Strecke": 2426,
      "Hunden": 2427,
      "olin": 2428,
      "unterwegs": 2429,
      "eilen": 2430,
      "licht": 2431,
      "Hoop": 2432,
      "farbener": 2433,
      "schnell": 2434,
      "Parkbank": 2435,
      "ammer": 2436,
      "grauer": 2437,
      "alto": 2438,
      "asiatisch": 2439,
      "hellen": 2440,
      "Meeres": 2441,
      "gesäum": 2442,
      "Freunden": 2443,
      "Landschaft": 2444,
      "Flaggen": 2445,
      "aussehende": 2446,
      "füllt": 2447,
      "Soft": 2448,
      "umarmen": 2449,
      "Freunde": 2450,
      "bemalt": 2451,
      "igkeiten": 2452,
      "Balkon": 2453,
      "länd": 2454,
      "kappe": 2455,
      "gegnerischen": 2456,
      "schaukelt": 2457,
      "Schaufel": 2458,
      "oriental": 2459,
      "Gasse": 2460,
      "Hot": 2461,
      "Hang": 2462,
      "Lkw": 2463,
      "Mahl": 2464,
      "Maske": 2465,
      "Qu": 2466,
      "Sitzen": 2467,
      "Terr": 2468,
      "Wä": 2469,
      "Wein": 2470,
      "Wass": 2471,
      "age": 2472,
      "för": 2473,
      "wur": 2474,
      "üs": 2475,
      "üne": 2476,
      "indet": 2477,
      "eig": 2478,
      "stern": 2479,
      "bedient": 2480,
      "Stroh": 2481,
      "Steine": 2482,
      "sprung": 2483,
      "langem": 2484,
      "schaukel": 2485,
      "stehenden": 2486,
      "bringt": 2487,
      "brünet": 2488,
      "Blatt": 2489,
      "damit": 2490,
      "Dieser": 2491,
      "Flü": 2492,
      "schneiden": 2493,
      "Außen": 2494,
      "Schwimmbrille": 2495,
      "Schlaf": 2496,
      "flug": 2497,
      "Schnur": 2498,
      "Studen": 2499,
      "Gegenstän": 2500,
      "richtet": 2501,
      "Sachen": 2502,
      "Schutzhelmen": 2503,
      "linie": 2504,
      "farbigen": 2505,
      "Bullen": 2506,
      "Katze": 2507,
      "entspannt": 2508,
      "beleuchteten": 2509,
      "ärmell": 2510,
      "links": 2511,
      "Touristen": 2512,
      "Kapuzenpul": 2513,
      "stadt": 2514,
      "Trampolin": 2515,
      "Wassers": 2516,
      "Nah": 2517,
      "Tunnel": 2518,
      "bad": 2519,
      "ed": 2520,
      "hel": 2521,
      "kan": 2522,
      "land": 2523,
      "mö": 2524,
      "nur": 2525,
      "po": 2526,
      "seit": 2527,
      "wasser": 2528,
      "zä": 2529,
      "üte": 2530,
      "üben": 2531,
      "eins": 2532,
      "tert": 2533,
      "sperr": 2534,
      "Schä": 2535,
      "Schne": 2536,
      "anda": 2537,
      "ierter": 2538,
      "ildern": 2539,
      "Stoff": 2540,
      "Gew": 2541,
      "ändern": 2542,
      "veranstaltung": 2543,
      "verwendet": 2544,
      "entfer": 2545,
      "hinab": 2546,
      "Skiern": 2547,
      "zeugen": 2548,
      "Berge": 2549,
      "Kreuz": 2550,
      "Seiten": 2551,
      "Poli": 2552,
      "hügel": 2553,
      "hüpft": 2554,
      "auto": 2555,
      "Turner": 2556,
      "Schüssel": 2557,
      "New": 2558,
      "Wettkampf": 2559,
      "Kopfhörer": 2560,
      "Fahnen": 2561,
      "Sicherheits": 2562,
      "bewerb": 2563,
      "Springbrunnen": 2564,
      "Zeichen": 2565,
      "Schaufenster": 2566,
      "jongliert": 2567,
      "förm": 2568,
      "Bilder": 2569,
      "Laub": 2570,
      "Rett": 2571,
      "Wel": 2572,
      "bus": 2573,
      "helm": 2574,
      "jub": 2575,
      "nis": 2576,
      "inen": 2577,
      "eiß": 2578,
      "ele": 2579,
      "stö": 2580,
      "gebl": 2581,
      "ard": 2582,
      "weise": 2583,
      "alb": 2584,
      "ale": 2585,
      "trei": 2586,
      "Schr": 2587,
      "umpf": 2588,
      "Klippe": 2589,
      "omaten": 2590,
      "Brett": 2591,
      "ackt": 2592,
      "apel": 2593,
      "Feldweg": 2594,
      "schießt": 2595,
      "lächelnder": 2596,
      "Eishockey": 2597,
      "dunkler": 2598,
      "Umzug": 2599,
      "rotest": 2600,
      "dio": 2601,
      "Teams": 2602,
      "hören": 2603,
      "ruht": 2604,
      "Couch": 2605,
      "leicht": 2606,
      "Abend": 2607,
      "rechts": 2608,
      "bauen": 2609,
      "grillt": 2610,
      "Anzügen": 2611,
      "Fallschirm": 2612,
      "Pickn": 2613,
      "bläst": 2614,
      "Softball": 2615,
      "Polizei": 2616,
      "Jo": 2617,
      "Licht": 2618,
      "Teller": 2619,
      "Wander": 2620,
      "Wüste": 2621,
      "Wurf": 2622,
      "York": 2623,
      "ce": 2624,
      "dir": 2625,
      "ker": 2626,
      "ocken": 2627,
      "tag": 2628,
      "“-": 2629,
      "chern": 2630,
      "eister": 2631,
      "scher": 2632,
      "beige": 2633,
      "blas": 2634,
      "bekommt": 2635,
      "Grim": 2636,
      "Geschen": 2637,
      "verfolgt": 2638,
      "ürde": 2639,
      "box": 2640,
      "ophon": 2641,
      "hellblauen": 2642,
      "stücke": 2643,
      "Reiter": 2644,
      "sstand": 2645,
      "kopf": 2646,
      "Sportler": 2647,
      "baren": 2648,
      "barfuß": 2649,
      "Ausrüstung": 2650,
      "Projekt": 2651,
      "Bücher": 2652,
      "aussehender": 2653,
      "Cowboyhut": 2654,
      "näher": 2655,
      "fotografieren": 2656,
      "dunkelhäutige": 2657,
      "reparieren": 2658,
      "schirmen": 2659,
      "Instrumenten": 2660,
      "Asiate": 2661,
      "wandert": 2662,
      "berührt": 2663,
      "taucht": 2664,
      "schüttelt": 2665,
      "Kopftuch": 2666,
      "Beinen": 2667,
      "Da": 2668,
      "For": 2669,
      "Flie": 2670,
      "Kart": 2671,
      "Nase": 2672,
      "Ol": 2673,
      "Pr": 2674,
      "Som": 2675,
      "bie": 2676,
      "lauf": 2677,
      "los": 2678,
      "osten": 2679,
      "richt": 2680,
      "ringen": 2681,
      "richtung": 2682,
      "sal": 2683,
      "uder": 2684,
      "äus": 2685,
      "einzel": 2686,
      "schuhe": 2687,
      "scheibe": 2688,
      "stür": 2689,
      "aufnahme": 2690,
      "arn": 2691,
      "orn": 2692,
      "emon": 2693,
      "iertem": 2694,
      "vorüber": 2695,
      "Steinen": 2696,
      "überfüllten": 2697,
      "verkäufer": 2698,
      "Personengruppe": 2699,
      "hockt": 2700,
      "aht": 2701,
      "Box": 2702,
      "bringen": 2703,
      "Trä": 2704,
      "Gitarr": 2705,
      "glas": 2706,
      "Veranda": 2707,
      "braunhaarige": 2708,
      "kehrt": 2709,
      "Handtasche": 2710,
      "Instrumente": 2711,
      "reinigt": 2712,
      "uniform": 2713,
      "geschlossenen": 2714,
      "Mahlzeit": 2715,
      "Rettungs": 2716,
      "Bach": 2717,
      "Din": 2718,
      "Salto": 2719,
      "ften": 2720,
      "flasche": 2721,
      "gucken": 2722,
      "isp": 2723,
      "ki": 2724,
      "linken": 2725,
      "udel": 2726,
      "wein": 2727,
      "äten": 2728,
      "eier": 2729,
      "stark": 2730,
      "arm": 2731,
      "amüs": 2732,
      "block": 2733,
      "itze": 2734,
      "umher": 2735,
      "sent": 2736,
      "läufer": 2737,
      "Gep": 2738,
      "eskop": 2739,
      "Wasserfall": 2740,
      "teilen": 2741,
      "vorbeigehen": 2742,
      "apan": 2743,
      "ützen": 2744,
      "deckt": 2745,
      "Erd": 2746,
      "hüb": 2747,
      "Hauses": 2748,
      "Asiatin": 2749,
      "mod": 2750,
      "schirr": 2751,
      "Gebiet": 2752,
      "Asiaten": 2753,
      "zentrum": 2754,
      "zeichnet": 2755,
      "traditioneller": 2756,
      "Lederjacke": 2757,
      "instrumen": 2758,
      "pinkfarbenem": 2759,
      "Groß": 2760,
      "diesem": 2761,
      "gießt": 2762,
      "felsigen": 2763,
      "Zähne": 2764,
      "Ex": 2765,
      "He": 2766,
      "Kam": 2767,
      "Mon": 2768,
      "Tuch": 2769,
      "cr": 2770,
      "fte": 2771,
      "ia": 2772,
      "id": 2773,
      "li": 2774,
      "mehr": 2775,
      "muster": 2776,
      "nassen": 2777,
      "tür": 2778,
      "tief": 2779,
      "wett": 2780,
      "will": 2781,
      "yboard": 2782,
      "enden": 2783,
      "Eingang": 2784,
      "schwer": 2785,
      "schlag": 2786,
      "aufblas": 2787,
      "geschn": 2788,
      "onen": 2789,
      "ement": 2790,
      "Schwer": 2791,
      "Gruppen": 2792,
      "Gewehr": 2793,
      "geleh": 2794,
      "untersucht": 2795,
      "isk": 2796,
      "sitzende": 2797,
      "Fahrräder": 2798,
      "Spielen": 2799,
      "brillen": 2800,
      "füß": 2801,
      "opren": 2802,
      "Straßenkünstler": 2803,
      "hellbraunen": 2804,
      "räsent": 2805,
      "asten": 2806,
      "fröh": 2807,
      "wäscht": 2808,
      "Lager": 2809,
      "Küchen": 2810,
      "Werbung": 2811,
      "Getränke": 2812,
      "Neopren": 2813,
      "Winterkleidung": 2814,
      "höl": 2815,
      "Kerl": 2816,
      "ausgestreck": 2817,
      "prüft": 2818,
      "Blätter": 2819,
      "struktion": 2820,
      "wärts": 2821,
      "Wäsche": 2822,
      "Afro": 2823,
      "BM": 2824,
      "Beh": 2825,
      "Bäl": 2826,
      "Do": 2827,
      "Kuh": 2828,
      "Kissen": 2829,
      "Mö": 2830,
      "Pal": 2831,
      "Ring": 2832,
      "Tarn": 2833,
      "Zunge": 2834,
      "bart": 2835,
      "dan": 2836,
      "gitar": 2837,
      "ippen": 2838,
      "kickt": 2839,
      "mantel": 2840,
      "plat": 2841,
      "ton": 2842,
      "ud": 2843,
      "viert": 2844,
      "übt": 2845,
      "schwe": 2846,
      "stag": 2847,
      "stoff": 2848,
      "get": 2849,
      "gesch": 2850,
      "beieinander": 2851,
      "neu": 2852,
      "bes": 2853,
      "allein": 2854,
      "grä": 2855,
      "euert": 2856,
      "änden": 2857,
      "Kleine": 2858,
      "fahrern": 2859,
      "icker": 2860,
      "zeuge": 2861,
      "nachdem": 2862,
      "Skateboardfahrer": 2863,
      "darunter": 2864,
      "Sees": 2865,
      "dunkelhaarige": 2866,
      "braunes": 2867,
      "Rollstuhl": 2868,
      "Gerät": 2869,
      "Sieben": 2870,
      "Teleskop": 2871,
      "ance": 2872,
      "streich": 2873,
      "Fußgängerüber": 2874,
      "gold": 2875,
      "Taucher": 2876,
      "weitere": 2877,
      "Passanten": 2878,
      "Baumstamm": 2879,
      "burg": 2880,
      "Jahrmarkt": 2881,
      "Kurve": 2882,
      "Terrasse": 2883,
      "wurde": 2884,
      "hölzer": 2885,
      "Ban": 2886,
      "Bord": 2887,
      "Ei": 2888,
      "Fil": 2889,
      "Kab": 2890,
      "Per": 2891,
      "Rug": 2892,
      "aschen": 2893,
      "baut": 2894,
      "ffer": 2895,
      "hafen": 2896,
      "mert": 2897,
      "tlichen": 2898,
      "üten": 2899,
      "chest": 2900,
      "ansport": 2901,
      "angelt": 2902,
      "itter": 2903,
      "unde": 2904,
      "scheinen": 2905,
      "stet": 2906,
      "ond": 2907,
      "vorn": 2908,
      "allen": 2909,
      "ilden": 2910,
      "unterschie": 2911,
      "pfl": 2912,
      "pfel": 2913,
      "ickelt": 2914,
      "hinaus": 2915,
      "ommen": 2916,
      "Bräut": 2917,
      "Brust": 2918,
      "igam": 2919,
      "hinterher": 2920,
      "ütte": 2921,
      "volle": 2922,
      "Schwimmer": 2923,
      "Becher": 2924,
      "schwen": 2925,
      "barfüß": 2926,
      "Mitglie": 2927,
      "Karten": 2928,
      "steckt": 2929,
      "richten": 2930,
      "konzentr": 2931,
      "Ort": 2932,
      "vollführt": 2933,
      "Hockeyspieler": 2934,
      "Keyboard": 2935,
      "önnen": 2936,
      "ippt": 2937,
      "rasiert": 2938,
      "bewegt": 2939,
      "paddelt": 2940,
      "helfen": 2941,
      "Geschenk": 2942,
      "salon": 2943,
      "Gepäck": 2944,
      "gelehnt": 2945,
      "gräbt": 2946,
      "unterschied": 2947,
      "Bräutigam": 2948,
      "Moto": 2949,
      "Matte": 2950,
      "Namen": 2951,
      "Tätow": 2952,
      "ades": 2953,
      "ake": 2954,
      "ic": 2955,
      "ian": 2956,
      "jemand": 2957,
      "kunst": 2958,
      "passen": 2959,
      "selt": 2960,
      "xt": 2961,
      "ymp": 2962,
      "Über": 2963,
      "inn": 2964,
      "erkl": 2965,
      "anger": 2966,
      "gezeigt": 2967,
      "dekor": 2968,
      "weit": 2969,
      "Mänt": 2970,
      "benutzen": 2971,
      "iere": 2972,
      "grö": 2973,
      "graben": 2974,
      "eucht": 2975,
      "Geschirr": 2976,
      "ment": 2977,
      "Spaz": 2978,
      "pfer": 2979,
      "verl": 2980,
      "verlassen": 2981,
      "sitzender": 2982,
      "sitzenden": 2983,
      "laschen": 2984,
      "abzu": 2985,
      "schnitt": 2986,
      "schießen": 2987,
      "Besen": 2988,
      "Waldgebiet": 2989,
      "Karren": 2990,
      "gewicht": 2991,
      "amerikanischen": 2992,
      "schreit": 2993,
      "Arbeitskleidung": 2994,
      "Prof": 2995,
      "Produ": 2996,
      "Plakat": 2997,
      "hilfe": 2998,
      "Drachen": 2999,
      "goldenen": 3000,
      "aktor": 3001,
      "feiern": 3002,
      "stufen": 3003,
      "hellhäutiger": 3004,
      "bunte": 3005,
      "Hindernis": 3006,
      "Studenten": 3007,
      "Schäfer": 3008,
      "Träger": 3009,
      "crem": 3010,
      "Neoprenanzug": 3011,
      "Rugby": 3012,
      "Tätowier": 3013,
      "Figur": 3014,
      "Heu": 3015,
      "Jungs": 3016,
      "Ki": 3017,
      "US": 3018,
      "Vö": 3019,
      "Viol": 3020,
      "Wild": 3021,
      "Zie": 3022,
      "Zement": 3023,
      "dat": 3024,
      "ete": 3025,
      "jagen": 3026,
      "kte": 3027,
      "kate": 3028,
      "khaki": 3029,
      "mal": 3030,
      "seh": 3031,
      "satz": 3032,
      "tisch": 3033,
      "tform": 3034,
      "tätow": 3035,
      "ule": 3036,
      "wischt": 3037,
      "ziel": 3038,
      "öhn": 3039,
      "stühlen": 3040,
      "aufge": 3041,
      "asst": 3042,
      "roll": 3043,
      "emd": 3044,
      "Schot": 3045,
      "Schiff": 3046,
      "bern": 3047,
      "neten": 3048,
      "bekleidung": 3049,
      "begut": 3050,
      "alleine": 3051,
      "älde": 3052,
      "Staub": 3053,
      "Gewand": 3054,
      "gerüst": 3055,
      "änder": 3056,
      "rechten": 3057,
      "Spiels": 3058,
      "halte": 3059,
      "blond": 3060,
      "blondem": 3061,
      "Berges": 3062,
      "Auftritt": 3063,
      "Bahnsteig": 3064,
      "Tennisschläger": 3065,
      "lehnen": 3066,
      "Rucksä": 3067,
      "amerikanischer": 3068,
      "mannschaft": 3069,
      "Flughafen": 3070,
      "heir": 3071,
      "Handtuch": 3072,
      "Weihnachtsbaum": 3073,
      "Turnhalle": 3074,
      "gnü": 3075,
      "verkleidet": 3076,
      "Theke": 3077,
      "glücklich": 3078,
      "chinesischen": 3079,
      "Trommel": 3080,
      "cross": 3081,
      "gesäumten": 3082,
      "Schnurr": 3083,
      "ärmellosen": 3084,
      "Kapuzenpulli": 3085,
      "Nahaufnahme": 3086,
      "zäunten": 3087,
      "entfernt": 3088,
      "Jockey": 3089,
      "BMX": 3090,
      "chester": 3091,
      "konzentriert": 3092,
      "Motocross": 3093,
      "Mänteln": 3094,
      "Spazier": 3095,
      "Schäferhund": 3096,
      "Am": 3097,
      "Brot": 3098,
      "Dau": 3099,
      "Dor": 3100,
      "Fläche": 3101,
      "Jog": 3102,
      "Kä": 3103,
      "Ketten": 3104,
      "Lin": 3105,
      "Lehrer": 3106,
      "Pit": 3107,
      "Pier": 3108,
      "Pfüt": 3109,
      "Rä": 3110,
      "Su": 3111,
      "Sil": 3112,
      "Vers": 3113,
      "dell": 3114,
      "fast": 3115,
      "ise": 3116,
      "kau": 3117,
      "kap": 3118,
      "kalten": 3119,
      "kugel": 3120,
      "mus": 3121,
      "meln": 3122,
      "musik": 3123,
      "nass": 3124,
      "ote": 3125,
      "runden": 3126,
      "sern": 3127,
      "wel": 3128,
      "öte": 3129,
      "ittel": 3130,
      "getr": 3131,
      "weil": 3132,
      "klat": 3133,
      "reichen": 3134,
      "reifen": 3135,
      "Station": 3136,
      "Stapel": 3137,
      "läsern": 3138,
      "legest": 3139,
      "änken": 3140,
      "Kla": 3141,
      "entgegen": 3142,
      "sechs": 3143,
      "träger": 3144,
      "Handstand": 3145,
      "icket": 3146,
      "herab": 3147,
      "Koffer": 3148,
      "Skulptur": 3149,
      "Ballon": 3150,
      "Freizeit": 3151,
      "Bekleidung": 3152,
      "lächelndes": 3153,
      "Segel": 3154,
      "Bahnhof": 3155,
      "treffen": 3156,
      "geschäftigen": 3157,
      "schneebedeck": 3158,
      "offenem": 3159,
      "Arbeits": 3160,
      "Rolltreppe": 3161,
      "befestigt": 3162,
      "Soldat": 3163,
      "Tromp": 3164,
      "violet": 3165,
      "jemanden": 3166,
      "Wettbewerb": 3167,
      "Knie": 3168,
      "Weihnachtsmann": 3169,
      "Hochzeits": 3170,
      "iften": 3171,
      "Wohnzimmer": 3172,
      "trainiert": 3173,
      "Angelru": 3174,
      "Farbe": 3175,
      "Saxophon": 3176,
      "Gegenstände": 3177,
      "elektr": 3178,
      "geblüm": 3179,
      "legestelle": 3180,
      "Aren": 3181,
      "Dre": 3182,
      "Fans": 3183,
      "Feier": 3184,
      "Gass": 3185,
      "Gang": 3186,
      "Hal": 3187,
      "Hafen": 3188,
      "Häus": 3189,
      "Man": 3190,
      "Not": 3191,
      "Oze": 3192,
      "Pär": 3193,
      "Sü": 3194,
      "Sitz": 3195,
      "Tatt": 3196,
      "Zahn": 3197,
      "aal": 3198,
      "aber": 3199,
      "bör": 3200,
      "fle": 3201,
      "lö": 3202,
      "och": 3203,
      "usch": 3204,
      "woh": 3205,
      "ym": 3206,
      "inden": 3207,
      "ande": 3208,
      "eis": 3209,
      "eife": 3210,
      "itte": 3211,
      "steilen": 3212,
      "geöff": 3213,
      "deren": 3214,
      "Mannschaften": 3215,
      "trick": 3216,
      "ama": 3217,
      "Schaf": 3218,
      "Scheibe": 3219,
      "ble": 3220,
      "stehend": 3221,
      "Strom": 3222,
      "urs": 3223,
      "utel": 3224,
      "ole": 3225,
      "Gegner": 3226,
      "Spitze": 3227,
      "reg": 3228,
      "Kleiner": 3229,
      "ihres": 3230,
      "icken": 3231,
      "Hocke": 3232,
      "brücke": 3233,
      "hinein": 3234,
      "Blue": 3235,
      "Ballons": 3236,
      "wegung": 3237,
      "Traktor": 3238,
      "zeichen": 3239,
      "strand": 3240,
      "Sonnenbrillen": 3241,
      "Inlin": 3242,
      "Motorrädern": 3243,
      "Wandbild": 3244,
      "Baseballkappe": 3245,
      "geboren": 3246,
      "affel": 3247,
      "Pfosten": 3248,
      "Bildschirm": 3249,
      "Kunststücke": 3250,
      "Restaurants": 3251,
      "kochen": 3252,
      "hüter": 3253,
      "Topf": 3254,
      "gewickelt": 3255,
      "Bushalte": 3256,
      "Gemälde": 3257,
      "Orange": 3258,
      "Modell": 3259,
      "rutsche": 3260,
      "setzen": 3261,
      "bewöl": 3262,
      "männer": 3263,
      "silbernen": 3264,
      "Werkzeug": 3265,
      "Eltern": 3266,
      "Füßen": 3267,
      "Labor": 3268,
      "Videospiel": 3269,
      "komplett": 3270,
      "Mountainbike": 3271,
      "schaufelt": 3272,
      "kahlköpfiger": 3273,
      "brünette": 3274,
      "nähert": 3275,
      "weint": 3276,
      "geschnitten": 3277,
      "Afroamerikan": 3278,
      "Behälter": 3279,
      "daneben": 3280,
      "streichelt": 3281,
      "hölzernen": 3282,
      "größer": 3283,
      "Trägerhemd": 3284,
      "Daumen": 3285,
      "Pfütze": 3286,
      "Klavier": 3287,
      "Arena": 3288,
      "Gassi": 3289,
      "Pärchen": 3290,
      "Bushaltestelle": 3291,
      "Chin": 3292,
      "Hammer": 3293,
      "Hürde": 3294,
      "Jack": 3295,
      "Kisten": 3296,
      "Mop": 3297,
      "Mess": 3298,
      "dicht": 3299,
      "gan": 3300,
      "kamer": 3301,
      "kul": 3302,
      "ksam": 3303,
      "opf": 3304,
      "szene": 3305,
      "weh": 3306,
      "wol": 3307,
      "xi": 3308,
      "öcke": 3309,
      "enz": 3310,
      "angeh": 3311,
      "schle": 3312,
      "stange": 3313,
      "stock": 3314,
      "gefallen": 3315,
      "ieben": 3316,
      "ong": 3317,
      "rock": 3318,
      "klar": 3319,
      "spielzeug": 3320,
      "beschäft": 3321,
      "adlock": 3322,
      "othe": 3323,
      "Stier": 3324,
      "leger": 3325,
      "Speisen": 3326,
      "Menschengruppe": 3327,
      "teilt": 3328,
      "Balls": 3329,
      "Skatepark": 3330,
      "Stadtstraße": 3331,
      "haarigen": 3332,
      "händler": 3333,
      "merksam": 3334,
      "ampen": 3335,
      "netz": 3336,
      "Steinmauer": 3337,
      "Rennwagen": 3338,
      "Zuschauermenge": 3339,
      "Graffitis": 3340,
      "Orchester": 3341,
      "Getränken": 3342,
      "ustik": 3343,
      "Socken": 3344,
      "Jugendliche": 3345,
      "Einkaufszentrum": 3346,
      "heim": 3347,
      "heißen": 3348,
      "bewund": 3349,
      "Rollerbl": 3350,
      "Deck": 3351,
      "geparkt": 3352,
      "skulptur": 3353,
      "Passag": 3354,
      "Kletterer": 3355,
      "jüngeren": 3356,
      "Kopfhörern": 3357,
      "instrument": 3358,
      "wunderschönen": 3359,
      "schmutzigen": 3360,
      "Krankenhaus": 3361,
      "Luftballons": 3362,
      "joggt": 3363,
      "Dieses": 3364,
      "roller": 3365,
      "Picknickt": 3366,
      "ausgestreckten": 3367,
      "gitarre": 3368,
      "seltsam": 3369,
      "creme": 3370,
      "Schnurrbart": 3371,
      "Dreadlock": 3372,
      "Inlines": 3373,
      "Dreadlocks": 3374,
      "Bre": 3375,
      "Ent": 3376,
      "Fass": 3377,
      "Gür": 3378,
      "Gumm": 3379,
      "Körper": 3380,
      "Kies": 3381,
      "Min": 3382,
      "Nicker": 3383,
      "Pl": 3384,
      "Ton": 3385,
      "Zahl": 3386,
      "bä": 3387,
      "bür": 3388,
      "brennen": 3389,
      "disk": 3390,
      "eet": 3391,
      "hl": 3392,
      "hau": 3393,
      "haufen": 3394,
      "hmaschine": 3395,
      "keit": 3396,
      "leu": 3397,
      "pa": 3398,
      "sack": 3399,
      "seich": 3400,
      "tasche": 3401,
      "tüte": 3402,
      "up": 3403,
      "yl": 3404,
      "innt": 3405,
      "ausch": 3406,
      "eifen": 3407,
      "schlie": 3408,
      "schwach": 3409,
      "mitglie": 3410,
      "trakt": 3411,
      "klam": 3412,
      "ativ": 3413,
      "Mädchens": 3414,
      "Stab": 3415,
      "legen": 3416,
      "langhaariger": 3417,
      "ahmen": 3418,
      "arbeit": 3419,
      "älteres": 3420,
      "Brand": 3421,
      "Hinterhof": 3422,
      "Bauch": 3423,
      "vorbeifährt": 3424,
      "Anlegestelle": 3425,
      "Nähmaschine": 3426,
      "Sandd": 3427,
      "Motorroller": 3428,
      "Essens": 3429,
      "Rede": 3430,
      "Baseballspiel": 3431,
      "Baseballmütze": 3432,
      "affe": 3433,
      "Kunstwerk": 3434,
      "useum": 3435,
      "Herbst": 3436,
      "rosafarbenem": 3437,
      "Schutzbrille": 3438,
      "küm": 3439,
      "Outfits": 3440,
      "Typen": 3441,
      "Warn": 3442,
      "bildschirm": 3443,
      "Geldbör": 3444,
      "rudert": 3445,
      "Bowlingbahn": 3446,
      "füttert": 3447,
      "Füße": 3448,
      "Trainings": 3449,
      "bett": 3450,
      "Flüss": 3451,
      "Kreuzung": 3452,
      "direkt": 3453,
      "einzelner": 3454,
      "Gitarrist": 3455,
      "Kids": 3456,
      "Dorf": 3457,
      "Rädern": 3458,
      "iseur": 3459,
      "beschäftigt": 3460,
      "Nickerchen": 3461,
      "diskut": 3462,
      "Afr": 3463,
      "Bi": 3464,
      "Bänken": 3465,
      "Col": 3466,
      "Don": 3467,
      "Dreck": 3468,
      "Hil": 3469,
      "Heiß": 3470,
      "Hütte": 3471,
      "Kör": 3472,
      "Lö": 3473,
      "Leg": 3474,
      "Piz": 3475,
      "Röcken": 3476,
      "Ruder": 3477,
      "Show": 3478,
      "Tal": 3479,
      "Wänden": 3480,
      "ages": 3481,
      "ban": 3482,
      "bro": 3483,
      "dy": 3484,
      "dig": 3485,
      "findet": 3486,
      "kal": 3487,
      "krä": 3488,
      "kaut": 3489,
      "können": 3490,
      "lust": 3491,
      "min": 3492,
      "malen": 3493,
      "rik": 3494,
      "runter": 3495,
      "rast": 3496,
      "wanne": 3497,
      "Är": 3498,
      "enk": 3499,
      "anhat": 3500,
      "anlage": 3501,
      "eimer": 3502,
      "ity": 3503,
      "schü": 3504,
      "schlen": 3505,
      "schutz": 3506,
      "aufs": 3507,
      "mithilfe": 3508,
      "orgen": 3509,
      "trennen": 3510,
      "trocken": 3511,
      "rohr": 3512,
      "ammen": 3513,
      "Schacht": 3514,
      "Schule": 3515,
      "beißt": 3516,
      "reiche": 3517,
      "bearbeitet": 3518,
      "etzt": 3519,
      "Strick": 3520,
      "Start": 3521,
      "Stamm": 3522,
      "Gesich": 3523,
      "Geschä": 3524,
      "Kleines": 3525,
      "verheir": 3526,
      "weißt": 3527,
      "indische": 3528,
      "Blume": 3529,
      "zeuger": 3530,
      "Bauern": 3531,
      "ops": 3532,
      "zusammenge": 3533,
      "ärmel": 3534,
      "Gelb": 3535,
      "kette": 3536,
      "Kunststoff": 3537,
      "kariertem": 3538,
      "Herd": 3539,
      "Regenschirmen": 3540,
      "schmuck": 3541,
      "liegenden": 3542,
      "automaten": 3543,
      "flausch": 3544,
      "steinigen": 3545,
      "Gewässers": 3546,
      "Einkaufst": 3547,
      "Schlagzeuger": 3548,
      "konstruktion": 3549,
      "lachend": 3550,
      "öpfe": 3551,
      "etzten": 3552,
      "Feuerwehrmänner": 3553,
      "bemal": 3554,
      "Gold": 3555,
      "köpfige": 3556,
      "Bowlingkugel": 3557,
      "Balken": 3558,
      "Kegel": 3559,
      "Klettergerüst": 3560,
      "selbst": 3561,
      "afrikanischer": 3562,
      "Chor": 3563,
      "berühren": 3564,
      "cours": 3565,
      "Fotografen": 3566,
      "Windhund": 3567,
      "marschiert": 3568,
      "Mittag": 3569,
      "Strohhut": 3570,
      "Schlafanzug": 3571,
      "mög": 3572,
      "pool": 3573,
      "Dinge": 3574,
      "amüsieren": 3575,
      "Kamel": 3576,
      "aufblasbaren": 3577,
      "kates": 3578,
      "Rucksäcken": 3579,
      "Trompete": 3580,
      "violettem": 3581,
      "Angelrute": 3582,
      "geblümten": 3583,
      "Süß": 3584,
      "Tattoo": 3585,
      "Plü": 3586,
      "verheirate": 3587,
      "Ast": 3588,
      "Bel": 3589,
      "Bat": 3590,
      "Demon": 3591,
      "Dudel": 3592,
      "Kö": 3593,
      "LK": 3594,
      "Lippen": 3595,
      "Noten": 3596,
      "Oper": 3597,
      "Pe": 3598,
      "Sess": 3599,
      "Tafel": 3600,
      "Teig": 3601,
      "Wet": 3602,
      "dün": 3603,
      "fre": 3604,
      "flachen": 3605,
      "glatz": 3606,
      "jo": 3607,
      "jeans": 3608,
      "kun": 3609,
      "kinder": 3610,
      "mart": 3611,
      "maske": 3612,
      "rück": 3613,
      "rampe": 3614,
      "sow": 3615,
      "tor": 3616,
      "inten": 3617,
      "ere": 3618,
      "chn": 3619,
      "unkt": 3620,
      "eim": 3621,
      "iten": 3622,
      "ität": 3623,
      "schweißt": 3624,
      "steinen": 3625,
      "gepark": 3626,
      "trag": 3627,
      "Schub": 3628,
      "blät": 3629,
      "reicht": 3630,
      "bestehende": 3631,
      "ungew": 3632,
      "warm": 3633,
      "waren": 3634,
      "Stift": 3635,
      "Gespr": 3636,
      "ika": 3637,
      "spritzen": 3638,
      "Klapp": 3639,
      "verz": 3640,
      "hou": 3641,
      "ahlen": 3642,
      "Spielkleidung": 3643,
      "Blas": 3644,
      "ign": 3645,
      "Freiluft": 3646,
      "Fußballfeld": 3647,
      "Straßenhändler": 3648,
      "draht": 3649,
      "Sandstrand": 3650,
      "ohemd": 3651,
      "Schwimmbad": 3652,
      "gegenseit": 3653,
      "Becken": 3654,
      "üsten": 3655,
      "izieren": 3656,
      "Schlitt": 3657,
      "offt": 3658,
      "dunkelblauen": 3659,
      "Zeitschrift": 3660,
      "Mitarbeiter": 3661,
      "ival": 3662,
      "fegt": 3663,
      "Umhang": 3664,
      "Konfer": 3665,
      "dium": 3666,
      "Outdo": 3667,
      "Rennauto": 3668,
      "Torhüter": 3669,
      "näch": 3670,
      "Feuerwehrmann": 3671,
      "Kleider": 3672,
      "riesige": 3673,
      "Club": 3674,
      "issenschaft": 3675,
      "Lebensmittelgeschäft": 3676,
      "Kerzen": 3677,
      "Cafe": 3678,
      "Abendessen": 3679,
      "Lied": 3680,
      "säge": 3681,
      "afrikanische": 3682,
      "Geländemotorradfahrer": 3683,
      "sammelt": 3684,
      "sammlung": 3685,
      "Backsteingebäude": 3686,
      "luftball": 3687,
      "erwachsene": 3688,
      "Elef": 3689,
      "Elektr": 3690,
      "geschmink": 3691,
      "marschieren": 3692,
      "Plattform": 3693,
      "Wasserski": 3694,
      "jubeln": 3695,
      "beigefarbenen": 3696,
      "Sommer": 3697,
      "Bordstein": 3698,
      "Eisen": 3699,
      "schwenkt": 3700,
      "Schotter": 3701,
      "Super": 3702,
      "Silhou": 3703,
      "Bluejeans": 3704,
      "Moped": 3705,
      "othek": 3706,
      "Rollerblades": 3707,
      "Picknicktisch": 3708,
      "Flüssigkeit": 3709,
      "Heißluftball": 3710,
      "Demonstr": 3711,
      "Operation": 3712,
      "kunft": 3713,
      "Schubkar": 3714,
      "Gespräch": 3715,
      "gegenseitig": 3716,
      "Outdoor": 3717,
      "12": 3718,
      "Bad": 3719,
      "Hau": 3720,
      "Hol": 3721,
      "Hig": 3722,
      "Kür": 3723,
      "Kiste": 3724,
      "Kalb": 3725,
      "Lim": 3726,
      "Löff": 3727,
      "Läch": 3728,
      "Lond": 3729,
      "Puck": 3730,
      "Protest": 3731,
      "Rauch": 3732,
      "bre": 3733,
      "bunter": 3734,
      "bunt": 3735,
      "cl": 3736,
      "digen": 3737,
      "dog": 3738,
      "eck": 3739,
      "ga": 3740,
      "gar": 3741,
      "japan": 3742,
      "lau": 3743,
      "noch": 3744,
      "pt": 3745,
      "parkt": 3746,
      "sand": 3747,
      "säu": 3748,
      "wür": 3749,
      "zern": 3750,
      "Öff": 3751,
      "üht": 3752,
      "anien": 3753,
      "Einer": 3754,
      "elten": 3755,
      "sto": 3756,
      "aufzu": 3757,
      "gefüllt": 3758,
      "emp": 3759,
      "Schir": 3760,
      "Schwe": 3761,
      "blett": 3762,
      "befahren": 3763,
      "bekommen": 3764,
      "ache": 3765,
      "vorne": 3766,
      "Hundes": 3767,
      "Grün": 3768,
      "griff": 3769,
      "gehoben": 3770,
      "auszu": 3771,
      "leck": 3772,
      "gelassen": 3773,
      "äng": 3774,
      "rechte": 3775,
      "untersuchen": 3776,
      "Wasserflasche": 3777,
      "Fahrt": 3778,
      "Fahrgeschäft": 3779,
      "ktur": 3780,
      "wirbelt": 3781,
      "brä": 3782,
      "Ballett": 3783,
      "dazu": 3784,
      "Trib": 3785,
      "Grasfläche": 3786,
      "Gitarren": 3787,
      "artigen": 3788,
      "Esel": 3789,
      "graue": 3790,
      "altmod": 3791,
      "drückt": 3792,
      "Jeansjacke": 3793,
      "Red": 3794,
      "Verkäufer": 3795,
      "Beg": 3796,
      "gebunden": 3797,
      "Friseur": 3798,
      "Musikinstrumen": 3799,
      "quar": 3800,
      "ienen": 3801,
      "formation": 3802,
      "dunkelhaariger": 3803,
      "Sportwagen": 3804,
      "Sportveranstaltung": 3805,
      "Herren": 3806,
      "Geschäftskleidung": 3807,
      "Badewanne": 3808,
      "ämmer": 3809,
      "flü": 3810,
      "ollegen": 3811,
      "Robe": 3812,
      "offenbar": 3813,
      "Orangen": 3814,
      "Frisbeescheibe": 3815,
      "Absperr": 3816,
      "Feuerwehrleu": 3817,
      "prob": 3818,
      "farbige": 3819,
      "Tricks": 3820,
      "farbenfroher": 3821,
      "gepunk": 3822,
      "Surfboard": 3823,
      "Tauben": 3824,
      "Geburt": 3825,
      "way": 3826,
      "wandern": 3827,
      "jüngere": 3828,
      "studio": 3829,
      "entspannen": 3830,
      "Fahne": 3831,
      "Ohren": 3832,
      "trainieren": 3833,
      "Fernseh": 3834,
      "Sängerin": 3835,
      "Waschsalon": 3836,
      "planscht": 3837,
      "Turnerin": 3838,
      "treibt": 3839,
      "Grimasse": 3840,
      "boxen": 3841,
      "kopfüber": 3842,
      "Schwert": 3843,
      "Palmen": 3844,
      "volleyball": 3845,
      "euchtung": 3846,
      "rollt": 3847,
      "begutachtet": 3848,
      "bewölkten": 3849,
      "Brandung": 3850,
      "Sanddüne": 3851,
      "Geldbörse": 3852,
      "Hilfe": 3853,
      "Geschäften": 3854,
      "Süßigkeiten": 3855,
      "LKW": 3856,
      "Wettrennen": 3857,
      "ungewöhn": 3858,
      "High": 3859,
      "Lächeln": 3860,
      "London": 3861,
      "Geburtstag": 3862,
      "20": 3863,
      "At": 3864,
      "Achter": 3865,
      "Beine": 3866,
      "Bann": 3867,
      "Bass": 3868,
      "Dunk": 3869,
      "Fä": 3870,
      "Flaschen": 3871,
      "Iro": 3872,
      "Kugel": 3873,
      "Laufen": 3874,
      "Mark": 3875,
      "Na": 3876,
      "Natur": 3877,
      "Pa": 3878,
      "Pat": 3879,
      "Plan": 3880,
      "Punk": 3881,
      "Piste": 3882,
      "Ringer": 3883,
      "ai": 3884,
      "buch": 3885,
      "bückt": 3886,
      "diz": 3887,
      "fau": 3888,
      "fil": 3889,
      "flie": 3890,
      "gung": 3891,
      "ial": 3892,
      "ks": 3893,
      "krei": 3894,
      "pol": 3895,
      "putzen": 3896,
      "protest": 3897,
      "reinigen": 3898,
      "sol": 3899,
      "wurf": 3900,
      "zten": 3901,
      "öt": 3902,
      "üff": 3903,
      "üchte": 3904,
      "engen": 3905,
      "erleuch": 3906,
      "Einrad": 3907,
      "eiben": 3908,
      "eisten": 3909,
      "gespr": 3910,
      "ternen": 3911,
      "trom": 3912,
      "transport": 3913,
      "spü": 3914,
      "ehmen": 3915,
      "zuge": 3916,
      "Schildern": 3917,
      "bert": 3918,
      "bli": 3919,
      "nes": 3920,
      "bevor": 3921,
      "bespritzt": 3922,
      "umge": 3923,
      "attrakt": 3924,
      "ildet": 3925,
      "Stangen": 3926,
      "ausgeb": 3927,
      "gerich": 3928,
      "überprüft": 3929,
      "übergewicht": 3930,
      "iker": 3931,
      "ikul": 3932,
      "reckt": 3933,
      "verb": 3934,
      "verm": 3935,
      "verlässt": 3936,
      "brauen": 3937,
      "langärmel": 3938,
      "Bogen": 3939,
      "zenden": 3940,
      "sammen": 3941,
      "werfer": 3942,
      "Flur": 3943,
      "Straßenmusik": 3944,
      "schieben": 3945,
      "Motorräder": 3946,
      "Reklam": 3947,
      "Händler": 3948,
      "Betr": 3949,
      "Baumes": 3950,
      "usses": 3951,
      "ussell": 3952,
      "hänger": 3953,
      "Kran": 3954,
      "Kricket": 3955,
      "Frie": 3956,
      "Waldweg": 3957,
      "Bandan": 3958,
      "vielleicht": 3959,
      "Basketballspiel": 3960,
      "Taxi": 3961,
      "karte": 3962,
      "Sportkleidung": 3963,
      "Blumenmuster": 3964,
      "Poster": 3965,
      "Podium": 3966,
      "hüpfen": 3967,
      "Maulkorb": 3968,
      "festhält": 3969,
      "Stufe": 3970,
      "Rohr": 3971,
      "schreiben": 3972,
      "orangefarbene": 3973,
      "kreuz": 3974,
      "scheinbar": 3975,
      "Büschen": 3976,
      "Bike": 3977,
      "Teenageralter": 3978,
      "Saiten": 3979,
      "etzte": 3980,
      "näht": 3981,
      "folgen": 3982,
      "eep": 3983,
      "Müllton": 3984,
      "städtische": 3985,
      "Akustik": 3986,
      "starren": 3987,
      "gleichen": 3988,
      "Ziegelmauer": 3989,
      "ruhigen": 3990,
      "Decken": 3991,
      "Tanzen": 3992,
      "Klassenraum": 3993,
      "Kapuze": 3994,
      "feier": 3995,
      "Kreide": 3996,
      "Theater": 3997,
      "eingezäunten": 3998,
      "oberteil": 3999,
      "Tennisspielerin": 4000,
      "nieder": 4001,
      "Säugl": 4002,
      "Mittages": 4003,
      "joggen": 4004,
      "fertig": 4005,
      "Hotel": 4006,
      "förmigen": 4007,
      "Welpen": 4008,
      "Eishockeyspieler": 4009,
      "Olymp": 4010,
      "bietet": 4011,
      "Fußgängerüberweg": 4012,
      "Vögel": 4013,
      "Violine": 4014,
      "Afroamerikaner": 4015,
      "Messer": 4016,
      "kamera": 4017,
      "bewundert": 4018,
      "diskutieren": 4019,
      "Afrikan": 4020,
      "bemalung": 4021,
      "Dudelsack": 4022,
      "Elefanten": 4023,
      "Silhouette": 4024,
      "Schubkarre": 4025,
      "Schirmen": 4026,
      "dizin": 4027,
      "faulen": 4028,
      "Mittagessen": 4029,
      "Bill": 4030,
      "Camp": 4031,
      "Colle": 4032,
      "Fack": 4033,
      "Küh": 4034,
      "Köpfen": 4035,
      "Khaki": 4036,
      "Mi": 4037,
      "Muster": 4038,
      "Museum": 4039,
      "Net": 4040,
      "Por": 4041,
      "Rande": 4042,
      "Sack": 4043,
      "Szene": 4044,
      "Web": 4045,
      "Zöpfen": 4046,
      "ail": 4047,
      "bäl": 4048,
      "back": 4049,
      "dah": 4050,
      "feuert": 4051,
      "lter": 4052,
      "mas": 4053,
      "maler": 4054,
      "nast": 4055,
      "packt": 4056,
      "präsent": 4057,
      "ruhen": 4058,
      "sschild": 4059,
      "trau": 4060,
      "the": 4061,
      "teln": 4062,
      "uten": 4063,
      "ven": 4064,
      "wich": 4065,
      "wahr": 4066,
      "öhr": 4067,
      "insp": 4068,
      "einzu": 4069,
      "einwand": 4070,
      "anzu": 4071,
      "eist": 4072,
      "eile": 4073,
      "schar": 4074,
      "aufmerksam": 4075,
      "gebeugt": 4076,
      "decke": 4077,
      "Einem": 4078,
      "orter": 4079,
      "trikot": 4080,
      "span": 4081,
      "genen": 4082,
      "zubereitet": 4083,
      "neue": 4084,
      "best": 4085,
      "beutel": 4086,
      "iertes": 4087,
      "Streifen": 4088,
      "umr": 4089,
      "urm": 4090,
      "schendraht": 4091,
      "ott": 4092,
      "Stofft": 4093,
      "geländer": 4094,
      "refle": 4095,
      "verkehr": 4096,
      "verdeckt": 4097,
      "landet": 4098,
      "groß": 4099,
      "ello": 4100,
      "webt": 4101,
      "boten": 4102,
      "abrik": 4103,
      "teilweise": 4104,
      "herr": 4105,
      "entlanggeht": 4106,
      "gehende": 4107,
      "fenster": 4108,
      "hindurch": 4109,
      "Fahrrads": 4110,
      "Ballerin": 4111,
      "Derby": 4112,
      "ühle": 4113,
      "gestikul": 4114,
      "rosar": 4115,
      "vorbeigeht": 4116,
      "Floß": 4117,
      "Kameras": 4118,
      "schnüff": 4119,
      "ammlung": 4120,
      "Sonnenschirm": 4121,
      "drinnen": 4122,
      "Sandwich": 4123,
      "Bühnen": 4124,
      "kurs": 4125,
      "Aufführung": 4126,
      "kesen": 4127,
      "Radrennen": 4128,
      "Boots": 4129,
      "Freu": 4130,
      "schlamm": 4131,
      "Tablett": 4132,
      "wäsche": 4133,
      "akd": 4134,
      "bare": 4135,
      "Badezimmer": 4136,
      "rosafarbene": 4137,
      "rosafarbener": 4138,
      "zeitig": 4139,
      "knien": 4140,
      "Aussicht": 4141,
      "Seilen": 4142,
      "Marktplatz": 4143,
      "Moment": 4144,
      "aussehenden": 4145,
      "nehmer": 4146,
      "wenden": 4147,
      "Computerbildschirm": 4148,
      "Locken": 4149,
      "greifen": 4150,
      "Lebensmitt": 4151,
      "gebäudes": 4152,
      "Reifenschaukel": 4153,
      "Asiatinnen": 4154,
      "gleichzeitig": 4155,
      "Pfadf": 4156,
      "Snowboardfahrer": 4157,
      "feiert": 4158,
      "holen": 4159,
      "Schmuck": 4160,
      "Schmutz": 4161,
      "Maschendraht": 4162,
      "verkleidete": 4163,
      "Fernglas": 4164,
      "teams": 4165,
      "Blättern": 4166,
      "Stehen": 4167,
      "lockigen": 4168,
      "niedr": 4169,
      "bewegen": 4170,
      "rothaariges": 4171,
      "Innenstadt": 4172,
      "beginnt": 4173,
      "dienen": 4174,
      "Stirnband": 4175,
      "ländlichen": 4176,
      "Hotdog": 4177,
      "kante": 4178,
      "einsamer": 4179,
      "Gewändern": 4180,
      "jubelt": 4181,
      "Grimassen": 4182,
      "Rettungswesten": 4183,
      "Bällen": 4184,
      "Mitglieder": 4185,
      "passenden": 4186,
      "khakifarbenen": 4187,
      "Linie": 4188,
      "Pitcher": 4189,
      "kapelle": 4190,
      "klatscht": 4191,
      "Häusern": 4192,
      "ymnast": 4193,
      "geborenes": 4194,
      "angehör": 4195,
      "Breakd": 4196,
      "hlet": 4197,
      "Bibli": 4198,
      "Köche": 4199,
      "glatzköpfiger": 4200,
      "nächsten": 4201,
      "Kürbis": 4202,
      "Löffel": 4203,
      "brechen": 4204,
      "bräun": 4205,
      "ämmerung": 4206,
      "Achterbahn": 4207,
      "Irokesen": 4208,
      "Bandana": 4209,
      "Akustikgitarre": 4210,
      "reflekt": 4211,
      "Bibliothek": 4212,
      "Amp": 4213,
      "Bro": 4214,
      "Eu": 4215,
      "Fit": 4216,
      "Fänger": 4217,
      "Gi": 4218,
      "Gehen": 4219,
      "Gymnast": 4220,
      "Kil": 4221,
      "Lang": 4222,
      "Mc": 4223,
      "Mas": 4224,
      "Maler": 4225,
      "Mützen": 4226,
      "Neu": 4227,
      "Py": 4228,
      "Pel": 4229,
      "Pil": 4230,
      "Puppe": 4231,
      "Sä": 4232,
      "Sar": 4233,
      "Smo": 4234,
      "Ur": 4235,
      "Uhr": 4236,
      "Wange": 4237,
      "Wake": 4238,
      "Ze": 4239,
      "ace": 4240,
      "bilden": 4241,
      "figur": 4242,
      "hes": 4243,
      "holz": 4244,
      "io": 4245,
      "koh": 4246,
      "kasten": 4247,
      "line": 4248,
      "laub": 4249,
      "ool": 4250,
      "ofon": 4251,
      "sor": 4252,
      "sort": 4253,
      "tut": 4254,
      "Älter": 4255,
      "äste": 4256,
      "Einkäufer": 4257,
      "itr": 4258,
      "schul": 4259,
      "stisch": 4260,
      "stap": 4261,
      "stuch": 4262,
      "gemacht": 4263,
      "gefüllten": 4264,
      "rauchen": 4265,
      "oranger": 4266,
      "trop": 4267,
      "spark": 4268,
      "genommen": 4269,
      "ichten": 4270,
      "dieser": 4271,
      "ami": 4272,
      "Schach": 4273,
      "Schilder": 4274,
      "berg": 4275,
      "vorbereitet": 4276,
      "utt": 4277,
      "senk": 4278,
      "Kindes": 4279,
      "grillen": 4280,
      "otiv": 4281,
      "Stä": 4282,
      "Stahl": 4283,
      "Stunt": 4284,
      "Stühle": 4285,
      "irl": 4286,
      "ausge": 4287,
      "leckt": 4288,
      "menade": 4289,
      "ister": 4290,
      "istole": 4291,
      "Klasse": 4292,
      "lanze": 4293,
      "stehender": 4294,
      "Wasserspr": 4295,
      "trät": 4296,
      "lack": 4297,
      "Handschuh": 4298,
      "abel": 4299,
      "lichem": 4300,
      "lichkeit": 4301,
      "renn": 4302,
      "langhaarige": 4303,
      "Bohr": 4304,
      "indischer": 4305,
      "osa": 4306,
      "gehender": 4307,
      "lernt": 4308,
      "bracht": 4309,
      "bricht": 4310,
      "Bauarbeiten": 4311,
      "werke": 4312,
      "zeige": 4313,
      "Flöte": 4314,
      "ündel": 4315,
      "dress": 4316,
      "sseln": 4317,
      "beladen": 4318,
      "Bewegung": 4319,
      "gestreiftes": 4320,
      "Radfahrern": 4321,
      "abends": 4322,
      "Vortrag": 4323,
      "gemuster": 4324,
      "wandt": 4325,
      "Mittel": 4326,
      "Karte": 4327,
      "Asien": 4328,
      "Turban": 4329,
      "strecken": 4330,
      "küche": 4331,
      "Schlagmann": 4332,
      "Werfer": 4333,
      "Papiere": 4334,
      "Cowboys": 4335,
      "streicht": 4336,
      "streifen": 4337,
      "biss": 4338,
      "Plastiktüte": 4339,
      "waschen": 4340,
      "unbefestigte": 4341,
      "Pferdeschw": 4342,
      "Liefer": 4343,
      "Fingern": 4344,
      "gnis": 4345,
      "Werkstatt": 4346,
      "Clowns": 4347,
      "prüfen": 4348,
      "Labork": 4349,
      "wunderschöne": 4350,
      "Trainer": 4351,
      "Golfball": 4352,
      "Gesichtsbemalung": 4353,
      "erwachsener": 4354,
      "Feder": 4355,
      "Luftballon": 4356,
      "Saxofon": 4357,
      "Quad": 4358,
      "landschaft": 4359,
      "Schneeh": 4360,
      "treiben": 4361,
      "loser": 4362,
      "Exper": 4363,
      "türk": 4364,
      "räsentation": 4365,
      "Film": 4366,
      "Kettensäge": 4367,
      "Versammlung": 4368,
      "Halstuch": 4369,
      "Ozean": 4370,
      "Inlineskates": 4371,
      "haube": 4372,
      "Donal": 4373,
      "Strickmütze": 4374,
      "verheiratetes": 4375,
      "sowie": 4376,
      "geparkten": 4377,
      "Holzt": 4378,
      "Tribüne": 4379,
      "Feuerwehrleute": 4380,
      "Banner": 4381,
      "Mülltonne": 4382,
      "gestikuliert": 4383,
      "reflektieren": 4384,
      "Euro": 4385,
      "Fitne": 4386,
      "Asp": 4387,
      "Ba": 4388,
      "Bu": 4389,
      "Bam": 4390,
      "Bur": 4391,
      "Car": 4392,
      "DJ": 4393,
      "Durch": 4394,
      "Fabrik": 4395,
      "Glat": 4396,
      "Haltung": 4397,
      "Junger": 4398,
      "Japan": 4399,
      "Kell": 4400,
      "Kette": 4401,
      "Köpfe": 4402,
      "Lei": 4403,
      "Mün": 4404,
      "Pon": 4405,
      "Präsentation": 4406,
      "Rik": 4407,
      "Röhr": 4408,
      "Sicht": 4409,
      "Tank": 4410,
      "Töpf": 4411,
      "Wol": 4412,
      "Während": 4413,
      "Yog": 4414,
      "brei": 4415,
      "bat": 4416,
      "beln": 4417,
      "egt": 4418,
      "far": 4419,
      "fischen": 4420,
      "feuer": 4421,
      "glän": 4422,
      "hist": 4423,
      "hart": 4424,
      "iers": 4425,
      "ium": 4426,
      "jung": 4427,
      "kör": 4428,
      "kuchen": 4429,
      "met": 4430,
      "mern": 4431,
      "moder": 4432,
      "od": 4433,
      "passt": 4434,
      "sung": 4435,
      "soll": 4436,
      "tä": 4437,
      "tie": 4438,
      "vie": 4439,
      "vieren": 4440,
      "wär": 4441,
      "xas": 4442,
      "za": 4443,
      "zelt": 4444,
      "öst": 4445,
      "üpp": 4446,
      "ino": 4447,
      "aneinander": 4448,
      "ansieht": 4449,
      "unken": 4450,
      "stem": 4451,
      "station": 4452,
      "staub": 4453,
      "statue": 4454,
      "aufgestellt": 4455,
      "arter": 4456,
      "ieb": 4457,
      "ieg": 4458,
      "rauß": 4459,
      "hrt": 4460,
      "deut": 4461,
      "orden": 4462,
      "altes": 4463,
      "spä": 4464,
      "spekt": 4465,
      "rost": 4466,
      "iment": 4467,
      "ambur": 4468,
      "Schuss": 4469,
      "beisammen": 4470,
      "spielern": 4471,
      "neon": 4472,
      "bedruck": 4473,
      "begleitet": 4474,
      "achter": 4475,
      "nerin": 4476,
      "ummel": 4477,
      "attel": 4478,
      "grap": 4479,
      "schwarzhaarige": 4480,
      "ausgestellt": 4481,
      "assiert": 4482,
      "Spie": 4483,
      "sprüht": 4484,
      "regen": 4485,
      "pflanzen": 4486,
      "interess": 4487,
      "Wassermel": 4488,
      "ellschaft": 4489,
      "Dreirad": 4490,
      "langärm": 4491,
      "Booten": 4492,
      "Hocker": 4493,
      "angeboten": 4494,
      "eitung": 4495,
      "igiert": 4496,
      "wegungen": 4497,
      "Hinterb": 4498,
      "spielerisch": 4499,
      "agieren": 4500,
      "Anwei": 4501,
      "Anhänger": 4502,
      "Schneeanzug": 4503,
      "schnitzt": 4504,
      "adet": 4505,
      "Ess": 4506,
      "obahn": 4507,
      "Inline": 4508,
      "Autobahn": 4509,
      "herumstehen": 4510,
      "Tee": 4511,
      "Texas": 4512,
      "Reg": 4513,
      "Schwimmweste": 4514,
      "Vergnü": 4515,
      "Beach": 4516,
      "Besitz": 4517,
      "Paare": 4518,
      "betre": 4519,
      "gestreifter": 4520,
      "iziert": 4521,
      "Hüte": 4522,
      "gebildet": 4523,
      "Schleife": 4524,
      "Kragen": 4525,
      "Pflaster": 4526,
      "Bandmitglie": 4527,
      "Bahnglei": 4528,
      "schlauch": 4529,
      "Kunstwerke": 4530,
      "frem": 4531,
      "wäh": 4532,
      "Eisw": 4533,
      "Feuerweh": 4534,
      "öffnung": 4535,
      "Badeanzügen": 4536,
      "Lacros": 4537,
      "Snack": 4538,
      "dunklem": 4539,
      "ession": 4540,
      "Pudel": 4541,
      "Kontr": 4542,
      "schriften": 4543,
      "herunterge": 4544,
      "mannschaften": 4545,
      "falls": 4546,
      "Betonwand": 4547,
      "Frisur": 4548,
      "Sprungbrett": 4549,
      "krat": 4550,
      "Schüsseln": 4551,
      "Engel": 4552,
      "Nebel": 4553,
      "Computern": 4554,
      "Geräten": 4555,
      "Türen": 4556,
      "manche": 4557,
      "Draht": 4558,
      "verschneite": 4559,
      "Freundin": 4560,
      "bemalten": 4561,
      "spannt": 4562,
      "balken": 4563,
      "Asiatische": 4564,
      "Knei": 4565,
      "Knöpfen": 4566,
      "appt": 4567,
      "ständer": 4568,
      "watet": 4569,
      "marine": 4570,
      "traditionellen": 4571,
      "Tänzerin": 4572,
      "Laptops": 4573,
      "Treppenhaus": 4574,
      "Treppenstufen": 4575,
      "Waschbecken": 4576,
      "aufgerei": 4577,
      "behälter": 4578,
      "sauber": 4579,
      "paddeln": 4580,
      "begeister": 4581,
      "afroamerikanische": 4582,
      "Trommeln": 4583,
      "Mountainbiker": 4584,
      "Quarter": 4585,
      "flugzeug": 4586,
      "Welpe": 4587,
      "nisse": 4588,
      "stößt": 4589,
      "Schrift": 4590,
      "Fliesen": 4591,
      "Bälle": 4592,
      "Möbel": 4593,
      "Tarnkleidung": 4594,
      "schwebt": 4595,
      "Banjo": 4596,
      "barfüßige": 4597,
      "Produkte": 4598,
      "Tätowierung": 4599,
      "Tätowierungen": 4600,
      "USA": 4601,
      "Spaziergang": 4602,
      "geöffneten": 4603,
      "Schafe": 4604,
      "Jackett": 4605,
      "klaren": 4606,
      "Zahlreiche": 4607,
      "kümmert": 4608,
      "Trainingsanzug": 4609,
      "brocken": 4610,
      "Gesichtern": 4611,
      "Beleuchtung": 4612,
      "Konferenz": 4613,
      "Heißluftballon": 4614,
      "sandigen": 4615,
      "gepunkteten": 4616,
      "gungspark": 4617,
      "transportiert": 4618,
      "schnüffelt": 4619,
      "Pfadfinder": 4620,
      "Maschendrahtzaun": 4621,
      "Breakdance": 4622,
      "Gymnastik": 4623,
      "McDonal": 4624,
      "Lieferwagen": 4625,
      "türkis": 4626,
      "Fitness": 4627,
      "Asphalt": 4628,
      "Bambus": 4629,
      "Riksch": 4630,
      "Yoga": 4631,
      "glänzenden": 4632,
      "Vergnügungspark": 4633,
      "Feuerwehraut": 4634,
      "Lacrosse": 4635,
      "App": 4636,
      "Amer": 4637,
      "Apfel": 4638,
      "Best": 4639,
      "City": 4640,
      "Cello": 4641,
      "Dock": 4642,
      "Fischen": 4643,
      "Farb": 4644,
      "Gläsern": 4645,
      "Horn": 4646,
      "John": 4647,
      "Jeep": 4648,
      "Kerle": 4649,
      "Lass": 4650,
      "Leinwand": 4651,
      "Mat": 4652,
      "Ofen": 4653,
      "Pir": 4654,
      "Pos": 4655,
      "Pink": 4656,
      "Rahmen": 4657,
      "Sen": 4658,
      "Swimm": 4659,
      "Top": 4660,
      "Urein": 4661,
      "Vert": 4662,
      "Wach": 4663,
      "Wette": 4664,
      "Woll": 4665,
      "Waffe": 4666,
      "Zy": 4667,
      "Zuck": 4668,
      "atet": 4669,
      "appen": 4670,
      "bungen": 4671,
      "bändern": 4672,
      "deln": 4673,
      "eer": 4674,
      "fers": 4675,
      "llen": 4676,
      "mobil": 4677,
      "namen": 4678,
      "ous": 4679,
      "ph": 4680,
      "putz": 4681,
      "prä": 4682,
      "ron": 4683,
      "ube": 4684,
      "vö": 4685,
      "vent": 4686,
      "zun": 4687,
      "zahl": 4688,
      "üge": 4689,
      "indem": 4690,
      "erw": 4691,
      "einf": 4692,
      "eingang": 4693,
      "ansp": 4694,
      "angel": 4695,
      "ansammlung": 4696,
      "unorden": 4697,
      "Einsatz": 4698,
      "eise": 4699,
      "itor": 4700,
      "elig": 4701,
      "gesehen": 4702,
      "gedr": 4703,
      "iefel": 4704,
      "ichte": 4705,
      "rop": 4706,
      "ims": 4707,
      "klippe": 4708,
      "diese": 4709,
      "benen": 4710,
      "Schein": 4711,
      "blocken": 4712,
      "besteht": 4713,
      "sicher": 4714,
      "Strumpf": 4715,
      "ildes": 4716,
      "Stöcke": 4717,
      "Geschw": 4718,
      "überd": 4719,
      "ängen": 4720,
      "spring": 4721,
      "pfle": 4722,
      "vergnü": 4723,
      "verteilt": 4724,
      "ish": 4725,
      "iss": 4726,
      "isse": 4727,
      "Wasserrutsche": 4728,
      "hohe": 4729,
      "hoher": 4730,
      "abgeworfen": 4731,
      "teilnehmen": 4732,
      "Boo": 4733,
      "Home": 4734,
      "kleineren": 4735,
      "Arzt": 4736,
      "ome": 4737,
      "füllen": 4738,
      "gestür": 4739,
      "ackelt": 4740,
      "örtlichen": 4741,
      "agger": 4742,
      "Fußballdress": 4743,
      "Auge": 4744,
      "ingpool": 4745,
      "ützt": 4746,
      "ettern": 4747,
      "Straßenverkäufer": 4748,
      "ärlich": 4749,
      "dritte": 4750,
      "Erzeug": 4751,
      "Babys": 4752,
      "Hänge": 4753,
      "Händchen": 4754,
      "Beam": 4755,
      "Begl": 4756,
      "Baseballschläger": 4757,
      "Holzbank": 4758,
      "gebaut": 4759,
      "egten": 4760,
      "astanien": 4761,
      "braunhaariger": 4762,
      "Früchte": 4763,
      "schwingen": 4764,
      "Helme": 4765,
      "ienten": 4766,
      "formt": 4767,
      "dunkelten": 4768,
      "Eiscreme": 4769,
      "Herz": 4770,
      "ietung": 4771,
      "Post": 4772,
      "licherweise": 4773,
      "ainer": 4774,
      "Karussell": 4775,
      "knall": 4776,
      "Ausstellung": 4777,
      "Kleinkinder": 4778,
      "Rode": 4779,
      "Rennfahrer": 4780,
      "männlichen": 4781,
      "Einkaufstü": 4782,
      "serviert": 4783,
      "rutschen": 4784,
      "Biker": 4785,
      "Felsvor": 4786,
      "Rollschuh": 4787,
      "Türöffnung": 4788,
      "werker": 4789,
      "Untergrund": 4790,
      "Kante": 4791,
      "linder": 4792,
      "Jugendlichen": 4793,
      "projekt": 4794,
      "Volleyballspieler": 4795,
      "Obststand": 4796,
      "sprecher": 4797,
      "Fußgängern": 4798,
      "Maschinen": 4799,
      "gefleck": 4800,
      "Eimern": 4801,
      "Vorderseite": 4802,
      "Obje": 4803,
      "leuchtenden": 4804,
      "Turnschuhen": 4805,
      "Telefonz": 4806,
      "Bull": 4807,
      "Katzen": 4808,
      "Liegest": 4809,
      "mäher": 4810,
      "silberfarbenen": 4811,
      "Kaffeet": 4812,
      "Matr": 4813,
      "Marathonläufer": 4814,
      "pinkfarbener": 4815,
      "sammeln": 4816,
      "Tiere": 4817,
      "Geländewagen": 4818,
      "hellhäutige": 4819,
      "haltung": 4820,
      "schütteln": 4821,
      "Teilnehmer": 4822,
      "ähnlichen": 4823,
      "Fecht": 4824,
      "bekleidet": 4825,
      "bekleideter": 4826,
      "bekleidete": 4827,
      "afroamerikanischer": 4828,
      "Krankenschwe": 4829,
      "Nachbar": 4830,
      "Säulen": 4831,
      "orientalische": 4832,
      "Gegenständen": 4833,
      "Brettspiel": 4834,
      "Picknick": 4835,
      "Karton": 4836,
      "stürzt": 4837,
      "Banan": 4838,
      "Perlen": 4839,
      "unterschiedlichen": 4840,
      "Profi": 4841,
      "Staubsau": 4842,
      "trägern": 4843,
      "seltsamen": 4844,
      "Gürtel": 4845,
      "Cola": 4846,
      "Legg": 4847,
      "kräfte": 4848,
      "schüssel": 4849,
      "Stammes": 4850,
      "flauschiger": 4851,
      "Einkaufstasche": 4852,
      "möglicherweise": 4853,
      "Plüscht": 4854,
      "rückwärts": 4855,
      "Eisenbahn": 4856,
      "japanischen": 4857,
      "2012": 4858,
      "Nagel": 4859,
      "gesprungen": 4860,
      "langärmeligen": 4861,
      "Säugling": 4862,
      "Netze": 4863,
      "Porträt": 4864,
      "Webstuhl": 4865,
      "präsentiert": 4866,
      "traur": 4867,
      "Ballerina": 4868,
      "Freude": 4869,
      "Lebensmitteln": 4870,
      "Smok": 4871,
      "Zebr": 4872,
      "Wasserspren": 4873,
      "Pferdeschwanz": 4874,
      "Laborkittel": 4875,
      "Experiment": 4876,
      "Töpfer": 4877,
      "Beachvolleyball": 4878,
      "Quarterback": 4879,
      "Feuerwehrauto": 4880,
      "Swimmingpool": 4881,
      "Ureinwoh": 4882,
      "Zylinder": 4883,
      "zunehmen": 4884,
      "Acht": 4885,
      "Axt": 4886,
      "Ble": 4887,
      "Bildern": 4888,
      "Cr": 4889,
      "Con": 4890,
      "Di": 4891,
      "Dun": 4892,
      "Del": 4893,
      "Dämmerung": 4894,
      "Eier": 4895,
      "Flan": 4896,
      "Font": 4897,
      "Hier": 4898,
      "Hab": 4899,
      "Hör": 4900,
      "Hallen": 4901,
      "Heim": 4902,
      "Kit": 4903,
      "Kauf": 4904,
      "Kie": 4905,
      "Kick": 4906,
      "Kasse": 4907,
      "Kittel": 4908,
      "Log": 4909,
      "Lampe": 4910,
      "Lampen": 4911,
      "Pin": 4912,
      "Rie": 4913,
      "Ras": 4914,
      "Richt": 4915,
      "Sl": 4916,
      "Sal": 4917,
      "Tim": 4918,
      "Tomaten": 4919,
      "Vol": 4920,
      "bu": 4921,
      "bchen": 4922,
      "bindet": 4923,
      "ex": 4924,
      "fig": 4925,
      "fischt": 4926,
      "fasst": 4927,
      "finden": 4928,
      "gers": 4929,
      "gitter": 4930,
      "gläsern": 4931,
      "hten": 4932,
      "hle": 4933,
      "haf": 4934,
      "hammer": 4935,
      "jacken": 4936,
      "ligen": 4937,
      "loh": 4938,
      "mischt": 4939,
      "militär": 4940,
      "meisten": 4941,
      "nch": 4942,
      "nasser": 4943,
      "odie": 4944,
      "opp": 4945,
      "pack": 4946,
      "rund": 4947,
      "ring": 4948,
      "ragt": 4949,
      "seil": 4950,
      "wilden": 4951,
      "wissenschaft": 4952,
      "xikan": 4953,
      "ynch": 4954,
      "zün": 4955,
      "zäh": 4956,
      "üd": 4957,
      "üchern": 4958,
      "inner": 4959,
      "iniert": 4960,
      "erk": 4961,
      "erhält": 4962,
      "erho": 4963,
      "einiger": 4964,
      "chsen": 4965,
      "auten": 4966,
      "eift": 4967,
      "eibt": 4968,
      "ital": 4969,
      "elte": 4970,
      "elzen": 4971,
      "schung": 4972,
      "schiff": 4973,
      "stolz": 4974,
      "ged": 4975,
      "gefolgt": 4976,
      "onnen": 4977,
      "onischen": 4978,
      "deten": 4979,
      "trot": 4980,
      "trock": 4981,
      "trif": 4982,
      "spärlich": 4983,
      "robat": 4984,
      "dene": 4985,
      "dens": 4986,
      "kle": 4987,
      "Schaum": 4988,
      "Schutt": 4989,
      "andschaft": 4990,
      "reiter": 4991,
      "becher": 4992,
      "bekann": 4993,
      "ungl": 4994,
      "ierung": 4995,
      "Streich": 4996,
      "ßes": 4997,
      "Hunder": 4998,
      "uth": 4999
    },
    "merges": [
      [
        "i",
        "n"
      ],
      [
        "e",
        "n"
      ],
      [
        "e",
        "r"
      ],
      [
        "e",
        "in"
      ],
      [
        "c",
        "h"
      ],
      [
        "a",
        "u"
      ],
      [
        "a",
        "n"
      ],
      [
        "ein",
        "e"
      ],
      [
        "u",
        "n"
      ],
      [
        "E",
        "in"
      ],
      [
        "e",
        "i"
      ],
      [
        "eine",
        "m"
      ],
      [
        "i",
        "t"
      ],
      [
        "e",
        "l"
      ],
      [
        "un",
        "d"
      ],
      [
        "s",
        "ch"
      ],
      [
        "s",
        "t"
      ],
      [
        "au",
        "f"
      ],
      [
        "g",
        "e"
      ],
      [
        "m",
        "it"
      ],
      [
        "a",
        "r"
      ],
      [
        "d",
        "er"
      ],
      [
        "an",
        "n"
      ],
      [
        "i",
        "e"
      ],
      [
        "M",
        "ann"
      ],
      [
        "ein",
        "er"
      ],
      [
        "o",
        "n"
      ],
      [
        "r",
        "au"
      ],
      [
        "h",
        "r"
      ],
      [
        "d",
        "e"
      ],
      [
        "w",
        "ei"
      ],
      [
        "Ein",
        "e"
      ],
      [
        "t",
        "er"
      ],
      [
        "t",
        "en"
      ],
      [
        "a",
        "s"
      ],
      [
        "o",
        "r"
      ],
      [
        "a",
        "l"
      ],
      [
        "t",
        "e"
      ],
      [
        "F",
        "rau"
      ],
      [
        "c",
        "k"
      ],
      [
        "t",
        "r"
      ],
      [
        "s",
        "p"
      ],
      [
        "g",
        "en"
      ],
      [
        "i",
        "ch"
      ],
      [
        "ein",
        "en"
      ],
      [
        "e",
        "h"
      ],
      [
        "r",
        "o"
      ],
      [
        "i",
        "el"
      ],
      [
        "i",
        "m"
      ],
      [
        "M",
        "ä"
      ],
      [
        "d",
        "en"
      ],
      [
        "k",
        "l"
      ],
      [
        "d",
        "ie"
      ],
      [
        "z",
        "u"
      ],
      [
        "a",
        "m"
      ],
      [
        "b",
        "en"
      ],
      [
        "e",
        "m"
      ],
      [
        "g",
        "t"
      ],
      [
        "S",
        "ch"
      ],
      [
        "b",
        "ei"
      ],
      [
        "Z",
        "wei"
      ],
      [
        "ch",
        "en"
      ],
      [
        "b",
        "er"
      ],
      [
        "an",
        "d"
      ],
      [
        "b",
        "l"
      ],
      [
        "sp",
        "iel"
      ],
      [
        "it",
        "z"
      ],
      [
        "st",
        "eh"
      ],
      [
        "n",
        "e"
      ],
      [
        "r",
        "ei"
      ],
      [
        "b",
        "e"
      ],
      [
        "un",
        "g"
      ],
      [
        "er",
        "s"
      ],
      [
        "a",
        "ch"
      ],
      [
        "i",
        "er"
      ],
      [
        "s",
        "itz"
      ],
      [
        "v",
        "or"
      ],
      [
        "s",
        "ich"
      ],
      [
        "al",
        "l"
      ],
      [
        "e",
        "t"
      ],
      [
        "n",
        "er"
      ],
      [
        "f",
        "t"
      ],
      [
        "ß",
        "en"
      ],
      [
        "S",
        "tr"
      ],
      [
        "v",
        "on"
      ],
      [
        "u",
        "m"
      ],
      [
        "n",
        "en"
      ],
      [
        "a",
        "t"
      ],
      [
        "un",
        "ge"
      ],
      [
        "de",
        "m"
      ],
      [
        "w",
        "ar"
      ],
      [
        "ä",
        "hr"
      ],
      [
        "u",
        "r"
      ],
      [
        "sch",
        "en"
      ],
      [
        "ä",
        "l"
      ],
      [
        "d",
        "chen"
      ],
      [
        "Mä",
        "dchen"
      ],
      [
        "ß",
        "e"
      ],
      [
        "p",
        "p"
      ],
      [
        "i",
        "l"
      ],
      [
        "H",
        "und"
      ],
      [
        "G",
        "r"
      ],
      [
        "u",
        "t"
      ],
      [
        "s",
        "en"
      ],
      [
        "K",
        "in"
      ],
      [
        "g",
        "r"
      ],
      [
        "o",
        "l"
      ],
      [
        "ers",
        "on"
      ],
      [
        "war",
        "z"
      ],
      [
        "P",
        "erson"
      ],
      [
        "a",
        "d"
      ],
      [
        "e",
        "u"
      ],
      [
        "eine",
        "s"
      ],
      [
        "n",
        "ner"
      ],
      [
        "sch",
        "warz"
      ],
      [
        "o",
        "t"
      ],
      [
        "S",
        "t"
      ],
      [
        "Mä",
        "nner"
      ],
      [
        "bl",
        "au"
      ],
      [
        "a",
        "hr"
      ],
      [
        "steh",
        "t"
      ],
      [
        "i",
        "r"
      ],
      [
        "Str",
        "a"
      ],
      [
        "pp",
        "e"
      ],
      [
        "ge",
        "h"
      ],
      [
        "au",
        "s"
      ],
      [
        "l",
        "ä"
      ],
      [
        "G",
        "e"
      ],
      [
        "l",
        "e"
      ],
      [
        "g",
        "el"
      ],
      [
        "sitz",
        "t"
      ],
      [
        "g",
        "er"
      ],
      [
        "an",
        "der"
      ],
      [
        "ü",
        "ber"
      ],
      [
        "i",
        "sch"
      ],
      [
        "J",
        "unge"
      ],
      [
        "as",
        "s"
      ],
      [
        "m",
        "en"
      ],
      [
        "en",
        "d"
      ],
      [
        "e",
        "s"
      ],
      [
        "M",
        "en"
      ],
      [
        "u",
        "ppe"
      ],
      [
        "äl",
        "t"
      ],
      [
        "i",
        "k"
      ],
      [
        "h",
        "ält"
      ],
      [
        "Stra",
        "ße"
      ],
      [
        "S",
        "p"
      ],
      [
        "ä",
        "n"
      ],
      [
        "ähr",
        "end"
      ],
      [
        "sp",
        "r"
      ],
      [
        "w",
        "ährend"
      ],
      [
        "Men",
        "schen"
      ],
      [
        "Gr",
        "uppe"
      ],
      [
        "b",
        "all"
      ],
      [
        "i",
        "st"
      ],
      [
        "spiel",
        "t"
      ],
      [
        "r",
        "e"
      ],
      [
        "H",
        "em"
      ],
      [
        "K",
        "l"
      ],
      [
        "i",
        "hr"
      ],
      [
        "un",
        "ter"
      ],
      [
        "p",
        "f"
      ],
      [
        "v",
        "er"
      ],
      [
        "l",
        "an"
      ],
      [
        "te",
        "t"
      ],
      [
        "Hem",
        "d"
      ],
      [
        "en",
        "t"
      ],
      [
        "ck",
        "e"
      ],
      [
        "Person",
        "en"
      ],
      [
        "s",
        "e"
      ],
      [
        "sch",
        "au"
      ],
      [
        "ach",
        "t"
      ],
      [
        "in",
        "ter"
      ],
      [
        "d",
        "as"
      ],
      [
        "ei",
        "d"
      ],
      [
        "ü",
        "r"
      ],
      [
        "blau",
        "en"
      ],
      [
        "u",
        "ft"
      ],
      [
        "ass",
        "er"
      ],
      [
        "a",
        "ar"
      ],
      [
        "ei",
        "l"
      ],
      [
        "wei",
        "ßen"
      ],
      [
        "i",
        "s"
      ],
      [
        "steh",
        "en"
      ],
      [
        "ne",
        "ben"
      ],
      [
        "in",
        "gt"
      ],
      [
        "W",
        "asser"
      ],
      [
        "ur",
        "ch"
      ],
      [
        "Kin",
        "der"
      ],
      [
        "h",
        "e"
      ],
      [
        "Frau",
        "en"
      ],
      [
        "a",
        "f"
      ],
      [
        "d",
        "urch"
      ],
      [
        "g",
        "ro"
      ],
      [
        "ro",
        "ten"
      ],
      [
        "sitz",
        "en"
      ],
      [
        "el",
        "l"
      ],
      [
        "r",
        "ad"
      ],
      [
        "w",
        "e"
      ],
      [
        "Kin",
        "d"
      ],
      [
        "b",
        "rau"
      ],
      [
        "h",
        "o"
      ],
      [
        "spiel",
        "en"
      ],
      [
        "geh",
        "t"
      ],
      [
        "gr",
        "ü"
      ],
      [
        "D",
        "rei"
      ],
      [
        "f",
        "er"
      ],
      [
        "tr",
        "ä"
      ],
      [
        "l",
        "a"
      ],
      [
        "ar",
        "ben"
      ],
      [
        "u",
        "s"
      ],
      [
        "f",
        "ähr"
      ],
      [
        "f",
        "ahr"
      ],
      [
        "fähr",
        "t"
      ],
      [
        "H",
        "and"
      ],
      [
        "b",
        "o"
      ],
      [
        "F",
        "ahr"
      ],
      [
        "a",
        "b"
      ],
      [
        "l",
        "ie"
      ],
      [
        "trä",
        "gt"
      ],
      [
        "ier",
        "t"
      ],
      [
        "ä",
        "u"
      ],
      [
        "wei",
        "ß"
      ],
      [
        "l",
        "ich"
      ],
      [
        "k",
        "t"
      ],
      [
        "e",
        "hr"
      ],
      [
        "r",
        "en"
      ],
      [
        "t",
        "eil"
      ],
      [
        "i",
        "ck"
      ],
      [
        "lan",
        "g"
      ],
      [
        "L",
        "eu"
      ],
      [
        "a",
        "h"
      ],
      [
        "el",
        "t"
      ],
      [
        "Kl",
        "eid"
      ],
      [
        "B",
        "o"
      ],
      [
        "Sp",
        "iel"
      ],
      [
        "h",
        "er"
      ],
      [
        "O",
        "ber"
      ],
      [
        "H",
        "o"
      ],
      [
        "m",
        "acht"
      ],
      [
        "kl",
        "eines"
      ],
      [
        "im",
        "m"
      ],
      [
        "ei",
        "de"
      ],
      [
        "spr",
        "ingt"
      ],
      [
        "in",
        "d"
      ],
      [
        "z",
        "wei"
      ],
      [
        "s",
        "ie"
      ],
      [
        "ent",
        "lang"
      ],
      [
        "schwarz",
        "en"
      ],
      [
        "K",
        "o"
      ],
      [
        "i",
        "gen"
      ],
      [
        "j",
        "unge"
      ],
      [
        "el",
        "n"
      ],
      [
        "ar",
        "bei"
      ],
      [
        "kl",
        "einer"
      ],
      [
        "de",
        "s"
      ],
      [
        "a",
        "gen"
      ],
      [
        "o",
        "s"
      ],
      [
        "un",
        "gen"
      ],
      [
        "geh",
        "en"
      ],
      [
        "z",
        "en"
      ],
      [
        "ch",
        "t"
      ],
      [
        "S",
        "h"
      ],
      [
        "an",
        "ge"
      ],
      [
        "ck",
        "en"
      ],
      [
        "ehr",
        "er"
      ],
      [
        "f",
        "en"
      ],
      [
        "Leu",
        "te"
      ],
      [
        "i",
        "ge"
      ],
      [
        "e",
        "st"
      ],
      [
        "f",
        "arben"
      ],
      [
        "n",
        "t"
      ],
      [
        "F",
        "el"
      ],
      [
        "l",
        "er"
      ],
      [
        "u",
        "ß"
      ],
      [
        "w",
        "as"
      ],
      [
        "A",
        "r"
      ],
      [
        "i",
        "schen"
      ],
      [
        "h",
        "al"
      ],
      [
        "kl",
        "eide"
      ],
      [
        "w",
        "ir"
      ],
      [
        "b",
        "äu"
      ],
      [
        "äl",
        "ter"
      ],
      [
        "b",
        "r"
      ],
      [
        "h",
        "in"
      ],
      [
        "Fahr",
        "rad"
      ],
      [
        "o",
        "m"
      ],
      [
        "S",
        "k"
      ],
      [
        "u",
        "h"
      ],
      [
        "Ober",
        "teil"
      ],
      [
        "B",
        "r"
      ],
      [
        "lä",
        "ch"
      ],
      [
        "F",
        "uß"
      ],
      [
        "B",
        "l"
      ],
      [
        "ei",
        "t"
      ],
      [
        "et",
        "was"
      ],
      [
        "B",
        "all"
      ],
      [
        "i",
        "g"
      ],
      [
        "ehrer",
        "e"
      ],
      [
        "s",
        "einem"
      ],
      [
        "ir",
        "t"
      ],
      [
        "gro",
        "ßen"
      ],
      [
        "ich",
        "t"
      ],
      [
        "am",
        "er"
      ],
      [
        "d",
        "a"
      ],
      [
        "a",
        "cke"
      ],
      [
        "f",
        "ü"
      ],
      [
        "grü",
        "nen"
      ],
      [
        "u",
        "l"
      ],
      [
        "we",
        "g"
      ],
      [
        "ier",
        "en"
      ],
      [
        "il",
        "le"
      ],
      [
        "Ge",
        "bäu"
      ],
      [
        "schau",
        "t"
      ],
      [
        "h",
        "t"
      ],
      [
        "gr",
        "und"
      ],
      [
        "ge",
        "kleide"
      ],
      [
        "H",
        "inter"
      ],
      [
        "ar",
        "k"
      ],
      [
        "ne",
        "e"
      ],
      [
        "z",
        "eu"
      ],
      [
        "t",
        "el"
      ],
      [
        "F",
        "rei"
      ],
      [
        "v",
        "ers"
      ],
      [
        "b",
        "t"
      ],
      [
        "B",
        "au"
      ],
      [
        "eh",
        "en"
      ],
      [
        "s",
        "am"
      ],
      [
        "or",
        "t"
      ],
      [
        "L",
        "uft"
      ],
      [
        "er",
        "n"
      ],
      [
        "bo",
        "ar"
      ],
      [
        "i",
        "h"
      ],
      [
        "lä",
        "uft"
      ],
      [
        "T",
        "r"
      ],
      [
        "auf",
        "en"
      ],
      [
        "D",
        "er"
      ],
      [
        "M",
        "ehrere"
      ],
      [
        "il",
        "d"
      ],
      [
        "Sh",
        "irt"
      ],
      [
        "Str",
        "and"
      ],
      [
        "h",
        "at"
      ],
      [
        "z",
        "e"
      ],
      [
        "B",
        "as"
      ],
      [
        "s",
        "ind"
      ],
      [
        "ü",
        "h"
      ],
      [
        "a",
        "te"
      ],
      [
        "n",
        "ach"
      ],
      [
        "Hinter",
        "grund"
      ],
      [
        "f",
        "ür"
      ],
      [
        "s",
        "ehen"
      ],
      [
        "J",
        "ungen"
      ],
      [
        "spiel",
        "er"
      ],
      [
        "h",
        "inter"
      ],
      [
        "J",
        "acke"
      ],
      [
        "ge",
        "st"
      ],
      [
        "Kleid",
        "ung"
      ],
      [
        "Frei",
        "en"
      ],
      [
        "D",
        "ie"
      ],
      [
        "a",
        "ck"
      ],
      [
        "ro",
        "s"
      ],
      [
        "ander",
        "en"
      ],
      [
        "ot",
        "o"
      ],
      [
        "ung",
        "er"
      ],
      [
        "st",
        "er"
      ],
      [
        "Ko",
        "pf"
      ],
      [
        "gel",
        "ben"
      ],
      [
        "zeu",
        "g"
      ],
      [
        "ö",
        "r"
      ],
      [
        "vor",
        "bei"
      ],
      [
        "j",
        "unger"
      ],
      [
        "hal",
        "ten"
      ],
      [
        "ho",
        "ch"
      ],
      [
        "w",
        "er"
      ],
      [
        "T",
        "isch"
      ],
      [
        "z",
        "t"
      ],
      [
        "ü",
        "ck"
      ],
      [
        "zu",
        "g"
      ],
      [
        "H",
        "aar"
      ],
      [
        "a",
        "g"
      ],
      [
        "te",
        "m"
      ],
      [
        "l",
        "at"
      ],
      [
        "A",
        "n"
      ],
      [
        "Sch",
        "nee"
      ],
      [
        "S",
        "on"
      ],
      [
        "l",
        "en"
      ],
      [
        "st",
        "ei"
      ],
      [
        "ander",
        "e"
      ],
      [
        "men",
        "ge"
      ],
      [
        "N",
        "ä"
      ],
      [
        "or",
        "ange"
      ],
      [
        "et",
        "t"
      ],
      [
        "H",
        "ut"
      ],
      [
        "Gebäu",
        "de"
      ],
      [
        "z",
        "ei"
      ],
      [
        "it",
        "ar"
      ],
      [
        "f",
        "on"
      ],
      [
        "st",
        "r"
      ],
      [
        "an",
        "k"
      ],
      [
        "F",
        "l"
      ],
      [
        "sch",
        "e"
      ],
      [
        "be",
        "f"
      ],
      [
        "Fuß",
        "ball"
      ],
      [
        "schwarz",
        "er"
      ],
      [
        "K",
        "amer"
      ],
      [
        "boar",
        "d"
      ],
      [
        "um",
        "en"
      ],
      [
        "sch",
        "n"
      ],
      [
        "a",
        "p"
      ],
      [
        "wir",
        "d"
      ],
      [
        "fahr",
        "er"
      ],
      [
        "Gr",
        "as"
      ],
      [
        "bl",
        "ick"
      ],
      [
        "Nä",
        "he"
      ],
      [
        "A",
        "u"
      ],
      [
        "a",
        "de"
      ],
      [
        "in",
        "g"
      ],
      [
        "i",
        "at"
      ],
      [
        "i",
        "ger"
      ],
      [
        "bei",
        "m"
      ],
      [
        "w",
        "imm"
      ],
      [
        "ü",
        "n"
      ],
      [
        "kl",
        "eine"
      ],
      [
        "Hund",
        "e"
      ],
      [
        "ü",
        "t"
      ],
      [
        "kl",
        "einen"
      ],
      [
        "Kamer",
        "a"
      ],
      [
        "G",
        "itar"
      ],
      [
        "ein",
        "ander"
      ],
      [
        "St",
        "ad"
      ],
      [
        "o",
        "p"
      ],
      [
        "an",
        "s"
      ],
      [
        "weiß",
        "er"
      ],
      [
        "f",
        "f"
      ],
      [
        "Menschen",
        "menge"
      ],
      [
        "P",
        "ark"
      ],
      [
        "bl",
        "on"
      ],
      [
        "G",
        "eh"
      ],
      [
        "ah",
        "n"
      ],
      [
        "u",
        "ck"
      ],
      [
        "ar",
        "t"
      ],
      [
        "isch",
        "e"
      ],
      [
        "o",
        "ck"
      ],
      [
        "en",
        "n"
      ],
      [
        "farben",
        "en"
      ],
      [
        "ot",
        "or"
      ],
      [
        "fahr",
        "en"
      ],
      [
        "Bo",
        "den"
      ],
      [
        "o",
        "w"
      ],
      [
        "et",
        "ter"
      ],
      [
        "am",
        "m"
      ],
      [
        "E",
        "s"
      ],
      [
        "Sk",
        "ate"
      ],
      [
        "g",
        "rau"
      ],
      [
        "B",
        "er"
      ],
      [
        "de",
        "ck"
      ],
      [
        "u",
        "ch"
      ],
      [
        "lie",
        "gt"
      ],
      [
        "de",
        "t"
      ],
      [
        "fü",
        "hr"
      ],
      [
        "al",
        "s"
      ],
      [
        "ren",
        "nt"
      ],
      [
        "Fel",
        "d"
      ],
      [
        "in",
        "k"
      ],
      [
        "i",
        "on"
      ],
      [
        "sch",
        "ä"
      ],
      [
        "Son",
        "nen"
      ],
      [
        "Stra",
        "ßen"
      ],
      [
        "ihr",
        "e"
      ],
      [
        "sie",
        "ht"
      ],
      [
        "Stad",
        "t"
      ],
      [
        "u",
        "cht"
      ],
      [
        "sch",
        "ie"
      ],
      [
        "V",
        "ier"
      ],
      [
        "F",
        "oto"
      ],
      [
        "zu",
        "sam"
      ],
      [
        "lat",
        "z"
      ],
      [
        "Gitar",
        "re"
      ],
      [
        "m",
        "a"
      ],
      [
        "schau",
        "en"
      ],
      [
        "der",
        "n"
      ],
      [
        "o",
        "b"
      ],
      [
        "p",
        "os"
      ],
      [
        "al",
        "t"
      ],
      [
        "ä",
        "r"
      ],
      [
        "ihr",
        "en"
      ],
      [
        "I",
        "n"
      ],
      [
        "Z",
        "u"
      ],
      [
        "A",
        "ut"
      ],
      [
        "d",
        "un"
      ],
      [
        "k",
        "el"
      ],
      [
        "her",
        "um"
      ],
      [
        "zusam",
        "men"
      ],
      [
        "e",
        "ans"
      ],
      [
        "d",
        "r"
      ],
      [
        "g",
        "l"
      ],
      [
        "brau",
        "nen"
      ],
      [
        "stei",
        "g"
      ],
      [
        "P",
        "fer"
      ],
      [
        "as",
        "iat"
      ],
      [
        "te",
        "s"
      ],
      [
        "gro",
        "ße"
      ],
      [
        "brau",
        "ner"
      ],
      [
        "S",
        "and"
      ],
      [
        "in",
        "gen"
      ],
      [
        "B",
        "üh"
      ],
      [
        "M",
        "otor"
      ],
      [
        "schä",
        "ft"
      ],
      [
        "kl",
        "eid"
      ],
      [
        "D",
        "am"
      ],
      [
        "w",
        "ach"
      ],
      [
        "ro",
        "t"
      ],
      [
        "an",
        "g"
      ],
      [
        "s",
        "ein"
      ],
      [
        "E",
        "r"
      ],
      [
        "v",
        "ol"
      ],
      [
        "ber",
        "ei"
      ],
      [
        "älter",
        "er"
      ],
      [
        "J",
        "eans"
      ],
      [
        "k",
        "auf"
      ],
      [
        "er",
        "t"
      ],
      [
        "rau",
        "ßen"
      ],
      [
        "sich",
        "t"
      ],
      [
        "be",
        "deck"
      ],
      [
        "el",
        "le"
      ],
      [
        "Büh",
        "ne"
      ],
      [
        "o",
        "h"
      ],
      [
        "d",
        "raußen"
      ],
      [
        "bef",
        "in"
      ],
      [
        "isch",
        "er"
      ],
      [
        "Bas",
        "e"
      ],
      [
        "el",
        "m"
      ],
      [
        "Br",
        "ille"
      ],
      [
        "Geh",
        "weg"
      ],
      [
        "Skate",
        "board"
      ],
      [
        "h",
        "ell"
      ],
      [
        "s",
        "eine"
      ],
      [
        "l",
        "aufen"
      ],
      [
        "Ar",
        "bei"
      ],
      [
        "blick",
        "t"
      ],
      [
        "kleid",
        "ung"
      ],
      [
        "T",
        "e"
      ],
      [
        "ab",
        "y"
      ],
      [
        "wach",
        "sen"
      ],
      [
        "s",
        "s"
      ],
      [
        "G",
        "el"
      ],
      [
        "hin",
        "unter"
      ],
      [
        "M",
        "ik"
      ],
      [
        "w",
        "ie"
      ],
      [
        "wei",
        "ße"
      ],
      [
        "ach",
        "tet"
      ],
      [
        "sch",
        "lä"
      ],
      [
        "arbei",
        "tet"
      ],
      [
        "w",
        "agen"
      ],
      [
        "da",
        "bei"
      ],
      [
        "Es",
        "sen"
      ],
      [
        "B",
        "aby"
      ],
      [
        "f",
        "or"
      ],
      [
        "R",
        "e"
      ],
      [
        "s",
        "einen"
      ],
      [
        "ol",
        "z"
      ],
      [
        "Sch",
        "wimm"
      ],
      [
        "t",
        "an"
      ],
      [
        "tr",
        "agen"
      ],
      [
        "br",
        "ille"
      ],
      [
        "H",
        "än"
      ],
      [
        "V",
        "er"
      ],
      [
        "b",
        "el"
      ],
      [
        "an",
        "gen"
      ],
      [
        "ge",
        "gen"
      ],
      [
        "ar",
        "kt"
      ],
      [
        "a",
        "ft"
      ],
      [
        "vers",
        "ucht"
      ],
      [
        "B",
        "e"
      ],
      [
        "h",
        "aar"
      ],
      [
        "k",
        "ur"
      ],
      [
        "läch",
        "eln"
      ],
      [
        "P",
        "aar"
      ],
      [
        "B",
        "ank"
      ],
      [
        "arbei",
        "ten"
      ],
      [
        "W",
        "and"
      ],
      [
        "d",
        "ar"
      ],
      [
        "ü",
        "st"
      ],
      [
        "zei",
        "gt"
      ],
      [
        "S",
        "e"
      ],
      [
        "kl",
        "etter"
      ],
      [
        "Au",
        "f"
      ],
      [
        "U",
        "n"
      ],
      [
        "rei",
        "f"
      ],
      [
        "Base",
        "ball"
      ],
      [
        "H",
        "olz"
      ],
      [
        "p",
        "er"
      ],
      [
        "st",
        "ü"
      ],
      [
        "la",
        "g"
      ],
      [
        "Bau",
        "m"
      ],
      [
        "ut",
        "z"
      ],
      [
        "Dam",
        "e"
      ],
      [
        "an",
        "t"
      ],
      [
        "ma",
        "chen"
      ],
      [
        "B",
        "ür"
      ],
      [
        "R",
        "ei"
      ],
      [
        "be",
        "tr"
      ],
      [
        "gest",
        "reif"
      ],
      [
        "M",
        "e"
      ],
      [
        "l",
        "l"
      ],
      [
        "it",
        "t"
      ],
      [
        "us",
        "s"
      ],
      [
        "lich",
        "en"
      ],
      [
        "läch",
        "elt"
      ],
      [
        "l",
        "o"
      ],
      [
        "ir",
        "m"
      ],
      [
        "M",
        "au"
      ],
      [
        "orange",
        "farbenen"
      ],
      [
        "k",
        "et"
      ],
      [
        "Bür",
        "ger"
      ],
      [
        "i",
        "z"
      ],
      [
        "uh",
        "l"
      ],
      [
        "k",
        "e"
      ],
      [
        "ch",
        "e"
      ],
      [
        "ik",
        "ot"
      ],
      [
        "ihr",
        "em"
      ],
      [
        "us",
        "ik"
      ],
      [
        "ren",
        "nen"
      ],
      [
        "Mik",
        "ro"
      ],
      [
        "H",
        "ü"
      ],
      [
        "W",
        "al"
      ],
      [
        "h",
        "en"
      ],
      [
        "ge",
        "b"
      ],
      [
        "ih",
        "m"
      ],
      [
        "R",
        "ad"
      ],
      [
        "Sch",
        "l"
      ],
      [
        "Ge",
        "sicht"
      ],
      [
        "o",
        "f"
      ],
      [
        "un",
        "st"
      ],
      [
        "as",
        "sen"
      ],
      [
        "Bürger",
        "steig"
      ],
      [
        "lie",
        "st"
      ],
      [
        "Motor",
        "rad"
      ],
      [
        "k",
        "om"
      ],
      [
        "au",
        "m"
      ],
      [
        "junge",
        "s"
      ],
      [
        "Ho",
        "se"
      ],
      [
        "älter",
        "e"
      ],
      [
        "r",
        "ä"
      ],
      [
        "an",
        "tel"
      ],
      [
        "spr",
        "icht"
      ],
      [
        "h",
        "än"
      ],
      [
        "ander",
        "er"
      ],
      [
        "af",
        "f"
      ],
      [
        "Tr",
        "ikot"
      ],
      [
        "Bo",
        "ot"
      ],
      [
        "führ",
        "t"
      ],
      [
        "e",
        "g"
      ],
      [
        "ik",
        "an"
      ],
      [
        "unter",
        "halten"
      ],
      [
        "K",
        "r"
      ],
      [
        "a",
        "st"
      ],
      [
        "sch",
        "aft"
      ],
      [
        "P",
        "f"
      ],
      [
        "z",
        "ie"
      ],
      [
        "brau",
        "n"
      ],
      [
        "e",
        "fon"
      ],
      [
        "p",
        "latz"
      ],
      [
        "af",
        "arben"
      ],
      [
        "T",
        "enn"
      ],
      [
        "ß",
        "er"
      ],
      [
        "B",
        "ild"
      ],
      [
        "F",
        "r"
      ],
      [
        "d",
        "rei"
      ],
      [
        "z",
        "er"
      ],
      [
        "üt",
        "ze"
      ],
      [
        "au",
        "r"
      ],
      [
        "ei",
        "ch"
      ],
      [
        "Ho",
        "sen"
      ],
      [
        "in",
        "e"
      ],
      [
        "weiß",
        "em"
      ],
      [
        "Haar",
        "en"
      ],
      [
        "Wal",
        "d"
      ],
      [
        "M",
        "usik"
      ],
      [
        "S",
        "ei"
      ],
      [
        "q",
        "u"
      ],
      [
        "ros",
        "a"
      ],
      [
        "B",
        "and"
      ],
      [
        "B",
        "ahn"
      ],
      [
        "sch",
        "l"
      ],
      [
        "Spiel",
        "er"
      ],
      [
        "Aut",
        "o"
      ],
      [
        "m",
        "er"
      ],
      [
        "v",
        "iel"
      ],
      [
        "sch",
        "w"
      ],
      [
        "Me",
        "er"
      ],
      [
        "ß",
        "t"
      ],
      [
        "zu",
        "m"
      ],
      [
        "Pfer",
        "d"
      ],
      [
        "Tenn",
        "is"
      ],
      [
        "H",
        "elm"
      ],
      [
        "K",
        "unst"
      ],
      [
        "am",
        "p"
      ],
      [
        "grau",
        "en"
      ],
      [
        "a",
        "ben"
      ],
      [
        "f",
        "r"
      ],
      [
        "Sonnen",
        "brille"
      ],
      [
        "F",
        "o"
      ],
      [
        "aur",
        "ant"
      ],
      [
        "R",
        "est"
      ],
      [
        "s",
        "st"
      ],
      [
        "Bas",
        "ket"
      ],
      [
        "ort",
        "s"
      ],
      [
        "blau",
        "em"
      ],
      [
        "gekleide",
        "te"
      ],
      [
        "s",
        "einer"
      ],
      [
        "Rest",
        "aurant"
      ],
      [
        "Basket",
        "ball"
      ],
      [
        "T",
        "ag"
      ],
      [
        "be",
        "ob"
      ],
      [
        "eu",
        "er"
      ],
      [
        "Fel",
        "sen"
      ],
      [
        "Ar",
        "m"
      ],
      [
        "i",
        "en"
      ],
      [
        "Zu",
        "schau"
      ],
      [
        "P",
        "ul"
      ],
      [
        "T",
        "a"
      ],
      [
        "w",
        "ä"
      ],
      [
        "Gel",
        "än"
      ],
      [
        "an",
        "z"
      ],
      [
        "un",
        "ten"
      ],
      [
        "Sp",
        "r"
      ],
      [
        "for",
        "m"
      ],
      [
        "arbei",
        "ter"
      ],
      [
        "s",
        "ingt"
      ],
      [
        "ä",
        "t"
      ],
      [
        "ot",
        "ball"
      ],
      [
        "kletter",
        "t"
      ],
      [
        "Fo",
        "otball"
      ],
      [
        "gen",
        "d"
      ],
      [
        "grü",
        "n"
      ],
      [
        "il",
        "l"
      ],
      [
        "ih",
        "nen"
      ],
      [
        "Er",
        "wachsen"
      ],
      [
        "dun",
        "kel"
      ],
      [
        "M",
        "antel"
      ],
      [
        "a",
        "k"
      ],
      [
        "ter",
        "n"
      ],
      [
        "E",
        "is"
      ],
      [
        "F",
        "en"
      ],
      [
        "uh",
        "en"
      ],
      [
        "Ber",
        "g"
      ],
      [
        "Mikro",
        "fon"
      ],
      [
        "an",
        "zug"
      ],
      [
        "pf",
        "en"
      ],
      [
        "u",
        "g"
      ],
      [
        "Sh",
        "orts"
      ],
      [
        "pos",
        "iert"
      ],
      [
        "P",
        "ol"
      ],
      [
        "u",
        "chen"
      ],
      [
        "as",
        "en"
      ],
      [
        "dar",
        "auf"
      ],
      [
        "F",
        "euer"
      ],
      [
        "u",
        "se"
      ],
      [
        "ö",
        "ff"
      ],
      [
        "Spiel",
        "zeug"
      ],
      [
        "k",
        "o"
      ],
      [
        "st",
        "en"
      ],
      [
        "R",
        "ol"
      ],
      [
        "st",
        "ell"
      ],
      [
        "lo",
        "ver"
      ],
      [
        "m",
        "t"
      ],
      [
        "blau",
        "er"
      ],
      [
        "wir",
        "ft"
      ],
      [
        "befin",
        "det"
      ],
      [
        "B",
        "ä"
      ],
      [
        "V",
        "or"
      ],
      [
        "k",
        "ar"
      ],
      [
        "zu",
        "r"
      ],
      [
        "ass",
        "e"
      ],
      [
        "L",
        "e"
      ],
      [
        "es",
        "sen"
      ],
      [
        "o",
        "der"
      ],
      [
        "ör",
        "per"
      ],
      [
        "f",
        "el"
      ],
      [
        "en",
        "nen"
      ],
      [
        "in",
        "s"
      ],
      [
        "den",
        "en"
      ],
      [
        "pp",
        "en"
      ],
      [
        "gel",
        "b"
      ],
      [
        "Sp",
        "ort"
      ],
      [
        "Fen",
        "ster"
      ],
      [
        "H",
        "er"
      ],
      [
        "e",
        "cke"
      ],
      [
        "ie",
        "t"
      ],
      [
        "al",
        "ter"
      ],
      [
        "Bl",
        "umen"
      ],
      [
        "berei",
        "tet"
      ],
      [
        "P",
        "o"
      ],
      [
        "b",
        "ar"
      ],
      [
        "o",
        "ben"
      ],
      [
        "in",
        "kt"
      ],
      [
        "sch",
        "t"
      ],
      [
        "Ge",
        "schäft"
      ],
      [
        "B",
        "ade"
      ],
      [
        "k",
        "en"
      ],
      [
        "au",
        "n"
      ],
      [
        "ge",
        "m"
      ],
      [
        "tr",
        "e"
      ],
      [
        "schwarz",
        "em"
      ],
      [
        "is",
        "st"
      ],
      [
        "Sch",
        "ild"
      ],
      [
        "gekleide",
        "ter"
      ],
      [
        "vers",
        "amm"
      ],
      [
        "D",
        "as"
      ],
      [
        "T",
        "re"
      ],
      [
        "al",
        "ten"
      ],
      [
        "ck",
        "t"
      ],
      [
        "spr",
        "ingen"
      ],
      [
        "Kl",
        "ein"
      ],
      [
        "se",
        "hr"
      ],
      [
        "Re",
        "gen"
      ],
      [
        "e",
        "b"
      ],
      [
        "am",
        "pf"
      ],
      [
        "Pul",
        "lover"
      ],
      [
        "R",
        "aum"
      ],
      [
        "ro",
        "tem"
      ],
      [
        "ach",
        "ten"
      ],
      [
        "lan",
        "gen"
      ],
      [
        "W",
        "eg"
      ],
      [
        "h",
        "ü"
      ],
      [
        "ch",
        "er"
      ],
      [
        "ro",
        "ter"
      ],
      [
        "ne",
        "t"
      ],
      [
        "ah",
        "l"
      ],
      [
        "Arbei",
        "ter"
      ],
      [
        "ros",
        "afarben"
      ],
      [
        "Z",
        "eit"
      ],
      [
        "sch",
        "m"
      ],
      [
        "st",
        "and"
      ],
      [
        "uck",
        "s"
      ],
      [
        "W",
        "ie"
      ],
      [
        "ä",
        "m"
      ],
      [
        "er",
        "en"
      ],
      [
        "lich",
        "e"
      ],
      [
        "lich",
        "er"
      ],
      [
        "An",
        "zug"
      ],
      [
        "a",
        "in"
      ],
      [
        "w",
        "and"
      ],
      [
        "Männer",
        "n"
      ],
      [
        "W",
        "ei"
      ],
      [
        "l",
        "eh"
      ],
      [
        "z",
        "w"
      ],
      [
        "und",
        "en"
      ],
      [
        "schwarz",
        "e"
      ],
      [
        "Kinder",
        "n"
      ],
      [
        "gestreif",
        "ten"
      ],
      [
        "Wie",
        "se"
      ],
      [
        "M",
        "it"
      ],
      [
        "i",
        "v"
      ],
      [
        "ä",
        "ut"
      ],
      [
        "mit",
        "ten"
      ],
      [
        "be",
        "cken"
      ],
      [
        "war",
        "tet"
      ],
      [
        "tel",
        "efon"
      ],
      [
        "h",
        "on"
      ],
      [
        "k",
        "örper"
      ],
      [
        "sch",
        "irm"
      ],
      [
        "K",
        "ar"
      ],
      [
        "L",
        "a"
      ],
      [
        "a",
        "z"
      ],
      [
        "Sch",
        "utz"
      ],
      [
        "wer",
        "den"
      ],
      [
        "haar",
        "ige"
      ],
      [
        "Mau",
        "l"
      ],
      [
        "M",
        "et"
      ],
      [
        "ün",
        "f"
      ],
      [
        "K",
        "ü"
      ],
      [
        "R",
        "ucks"
      ],
      [
        "g",
        "ang"
      ],
      [
        "pos",
        "ieren"
      ],
      [
        "vol",
        "ler"
      ],
      [
        "Bl",
        "use"
      ],
      [
        "Fl",
        "uss"
      ],
      [
        "B",
        "uch"
      ],
      [
        "V",
        "iel"
      ],
      [
        "z",
        "eit"
      ],
      [
        "ge",
        "ben"
      ],
      [
        "St",
        "uhl"
      ],
      [
        "cke",
        "y"
      ],
      [
        "A",
        "s"
      ],
      [
        "S",
        "n"
      ],
      [
        "W",
        "est"
      ],
      [
        "h",
        "n"
      ],
      [
        "imm",
        "er"
      ],
      [
        "ge",
        "s"
      ],
      [
        "rei",
        "tet"
      ],
      [
        "än",
        "ger"
      ],
      [
        "kauf",
        "t"
      ],
      [
        "bel",
        "eb"
      ],
      [
        "T",
        "o"
      ],
      [
        "f",
        "e"
      ],
      [
        "k",
        "n"
      ],
      [
        "st",
        "e"
      ],
      [
        "St",
        "ein"
      ],
      [
        "acht",
        "s"
      ],
      [
        "Hand",
        "y"
      ],
      [
        "Ober",
        "körper"
      ],
      [
        "Hü",
        "gel"
      ],
      [
        "F",
        "ünf"
      ],
      [
        "H",
        "aus"
      ],
      [
        "b",
        "st"
      ],
      [
        "lie",
        "gen"
      ],
      [
        "dun",
        "kl"
      ],
      [
        "zie",
        "ht"
      ],
      [
        "Met",
        "all"
      ],
      [
        "A",
        "us"
      ],
      [
        "S",
        "ur"
      ],
      [
        "U",
        "m"
      ],
      [
        "j",
        "e"
      ],
      [
        "ü",
        "cken"
      ],
      [
        "gr",
        "af"
      ],
      [
        "es",
        "s"
      ],
      [
        "ist",
        "en"
      ],
      [
        "tan",
        "zen"
      ],
      [
        "Viel",
        "e"
      ],
      [
        "K",
        "a"
      ],
      [
        "R",
        "ennen"
      ],
      [
        "ier",
        "ten"
      ],
      [
        "war",
        "ten"
      ],
      [
        "eu",
        "ch"
      ],
      [
        "über",
        "qu"
      ],
      [
        "f",
        "est"
      ],
      [
        "Klein",
        "k"
      ],
      [
        "au",
        "t"
      ],
      [
        "at",
        "t"
      ],
      [
        "Ko",
        "stü"
      ],
      [
        "betr",
        "achtet"
      ],
      [
        "ge",
        "w"
      ],
      [
        "ung",
        "s"
      ],
      [
        "A",
        "l"
      ],
      [
        "gen",
        "ie"
      ],
      [
        "zw",
        "ischen"
      ],
      [
        "B",
        "us"
      ],
      [
        "ro",
        "te"
      ],
      [
        "äu",
        "fer"
      ],
      [
        "Bau",
        "arbeiter"
      ],
      [
        "blon",
        "de"
      ],
      [
        "Un",
        "i"
      ],
      [
        "a",
        "sch"
      ],
      [
        "a",
        "ter"
      ],
      [
        "i",
        "ft"
      ],
      [
        "k",
        "or"
      ],
      [
        "ü",
        "cke"
      ],
      [
        "et",
        "te"
      ],
      [
        "Leu",
        "ten"
      ],
      [
        "schlä",
        "ft"
      ],
      [
        "P",
        "u"
      ],
      [
        "f",
        "l"
      ],
      [
        "ut",
        "zt"
      ],
      [
        "St",
        "ock"
      ],
      [
        "amer",
        "ikan"
      ],
      [
        "G",
        "l"
      ],
      [
        "M",
        "ütze"
      ],
      [
        "S",
        "eil"
      ],
      [
        "p",
        "aar"
      ],
      [
        "K",
        "on"
      ],
      [
        "P",
        "ap"
      ],
      [
        "l",
        "il"
      ],
      [
        "Sch",
        "n"
      ],
      [
        "Sch",
        "ul"
      ],
      [
        "ol",
        "le"
      ],
      [
        "leh",
        "nt"
      ],
      [
        "h",
        "aben"
      ],
      [
        "h",
        "äut"
      ],
      [
        "St",
        "u"
      ],
      [
        "Sn",
        "ow"
      ],
      [
        "M",
        "arkt"
      ],
      [
        "u",
        "e"
      ],
      [
        "ie",
        "gel"
      ],
      [
        "at",
        "ion"
      ],
      [
        "imm",
        "t"
      ],
      [
        "Hän",
        "den"
      ],
      [
        "R",
        "o"
      ],
      [
        "sch",
        "r"
      ],
      [
        "bedeck",
        "ten"
      ],
      [
        "mit",
        "einander"
      ],
      [
        "her",
        "unter"
      ],
      [
        "beob",
        "achtet"
      ],
      [
        "Kleink",
        "ind"
      ],
      [
        "m",
        "än"
      ],
      [
        "tr",
        "itt"
      ],
      [
        "Sk",
        "i"
      ],
      [
        "Bä",
        "umen"
      ],
      [
        "Rucks",
        "ack"
      ],
      [
        "T",
        "ur"
      ],
      [
        "d",
        "i"
      ],
      [
        "st",
        "re"
      ],
      [
        "ge",
        "schäft"
      ],
      [
        "icht",
        "ung"
      ],
      [
        "tan",
        "zt"
      ],
      [
        "O",
        "ut"
      ],
      [
        "R",
        "enn"
      ],
      [
        "f",
        "angen"
      ],
      [
        "h",
        "ör"
      ],
      [
        "sch",
        "ö"
      ],
      [
        "sch",
        "nee"
      ],
      [
        "ihr",
        "er"
      ],
      [
        "Rad",
        "fahrer"
      ],
      [
        "F",
        "re"
      ],
      [
        "Z",
        "aun"
      ],
      [
        "k",
        "ü"
      ],
      [
        "s",
        "on"
      ],
      [
        "Ge",
        "wä"
      ],
      [
        "b",
        "ahn"
      ],
      [
        "f",
        "rei"
      ],
      [
        "m",
        "ann"
      ],
      [
        "o",
        "g"
      ],
      [
        "ei",
        "ten"
      ],
      [
        "st",
        "ein"
      ],
      [
        "am",
        "il"
      ],
      [
        "schie",
        "bt"
      ],
      [
        "oh",
        "n"
      ],
      [
        "ink",
        "en"
      ],
      [
        "Zu",
        "g"
      ],
      [
        "Schwimm",
        "becken"
      ],
      [
        "män",
        "n"
      ],
      [
        "B",
        "et"
      ],
      [
        "v",
        "om"
      ],
      [
        "st",
        "ück"
      ],
      [
        "we",
        "hr"
      ],
      [
        "befin",
        "den"
      ],
      [
        "Pol",
        "iz"
      ],
      [
        "F",
        "amil"
      ],
      [
        "Ge",
        "gen"
      ],
      [
        "är",
        "t"
      ],
      [
        "Gewä",
        "ss"
      ],
      [
        "f",
        "all"
      ],
      [
        "r",
        "ich"
      ],
      [
        "Ein",
        "kauf"
      ],
      [
        "sch",
        "rei"
      ],
      [
        "orange",
        "farben"
      ],
      [
        "Bet",
        "on"
      ],
      [
        "L",
        "and"
      ],
      [
        "R",
        "ücken"
      ],
      [
        "p",
        "u"
      ],
      [
        "of",
        "fen"
      ],
      [
        "Zuschau",
        "er"
      ],
      [
        "Kü",
        "che"
      ],
      [
        "m",
        "e"
      ],
      [
        "Se",
        "e"
      ],
      [
        "Sei",
        "te"
      ],
      [
        "fel",
        "d"
      ],
      [
        "an",
        "st"
      ],
      [
        "mit",
        "t"
      ],
      [
        "tr",
        "än"
      ],
      [
        "sp",
        "az"
      ],
      [
        "Sch",
        "lag"
      ],
      [
        "ver",
        "schie"
      ],
      [
        "läch",
        "e"
      ],
      [
        "Arbei",
        "t"
      ],
      [
        "Fr",
        "is"
      ],
      [
        "P",
        "ro"
      ],
      [
        "W",
        "elle"
      ],
      [
        "n",
        "immt"
      ],
      [
        "u",
        "b"
      ],
      [
        "ie",
        "s"
      ],
      [
        "Sch",
        "au"
      ],
      [
        "um",
        "geben"
      ],
      [
        "gel",
        "be"
      ],
      [
        "af",
        "en"
      ],
      [
        "alt",
        "ung"
      ],
      [
        "In",
        "str"
      ],
      [
        "kur",
        "zen"
      ],
      [
        "p",
        "ink"
      ],
      [
        "v",
        "ier"
      ],
      [
        "au",
        "ch"
      ],
      [
        "w",
        "o"
      ],
      [
        "Gr",
        "aff"
      ],
      [
        "eide",
        "t"
      ],
      [
        "boar",
        "der"
      ],
      [
        "amp",
        "e"
      ],
      [
        "Spr",
        "ung"
      ],
      [
        "Tre",
        "ppe"
      ],
      [
        "G",
        "em"
      ],
      [
        "a",
        "ten"
      ],
      [
        "k",
        "r"
      ],
      [
        "k",
        "on"
      ],
      [
        "in",
        "nen"
      ],
      [
        "en",
        "a"
      ],
      [
        "sch",
        "wimm"
      ],
      [
        "sch",
        "uhen"
      ],
      [
        "Sch",
        "ü"
      ],
      [
        "brau",
        "ne"
      ],
      [
        "la",
        "chen"
      ],
      [
        "schn",
        "eidet"
      ],
      [
        "Graff",
        "it"
      ],
      [
        "F",
        "lag"
      ],
      [
        "O",
        "r"
      ],
      [
        "W",
        "er"
      ],
      [
        "f",
        "it"
      ],
      [
        "f",
        "oto"
      ],
      [
        "i",
        "gt"
      ],
      [
        "k",
        "aufen"
      ],
      [
        "k",
        "äm"
      ],
      [
        "sch",
        "ein"
      ],
      [
        "al",
        "te"
      ],
      [
        "sp",
        "ort"
      ],
      [
        "all",
        "e"
      ],
      [
        "ut",
        "ter"
      ],
      [
        "ver",
        "kauft"
      ],
      [
        "Famil",
        "ie"
      ],
      [
        "B",
        "ü"
      ],
      [
        "C",
        "om"
      ],
      [
        "W",
        "agen"
      ],
      [
        "b",
        "and"
      ],
      [
        "s",
        "er"
      ],
      [
        "C",
        "ow"
      ],
      [
        "E",
        "n"
      ],
      [
        "T",
        "or"
      ],
      [
        "tr",
        "inkt"
      ],
      [
        "em",
        "and"
      ],
      [
        "Ge",
        "trän"
      ],
      [
        "ger",
        "ade"
      ],
      [
        "hän",
        "gt"
      ],
      [
        "versamm",
        "elt"
      ],
      [
        "rosafarben",
        "en"
      ],
      [
        "P",
        "la"
      ],
      [
        "b",
        "unten"
      ],
      [
        "d",
        "t"
      ],
      [
        "m",
        "alt"
      ],
      [
        "Pap",
        "ier"
      ],
      [
        "M",
        "o"
      ],
      [
        "d",
        "s"
      ],
      [
        "i",
        "ol"
      ],
      [
        "p",
        "ar"
      ],
      [
        "Sch",
        "warz"
      ],
      [
        "aus",
        "sehen"
      ],
      [
        "h",
        "em"
      ],
      [
        "r",
        "ut"
      ],
      [
        "ö",
        "pf"
      ],
      [
        "ch",
        "s"
      ],
      [
        "ie",
        "f"
      ],
      [
        "isch",
        "es"
      ],
      [
        "ell",
        "en"
      ],
      [
        "bo",
        "y"
      ],
      [
        "ih",
        "n"
      ],
      [
        "B",
        "ik"
      ],
      [
        "z",
        "immer"
      ],
      [
        "ein",
        "ige"
      ],
      [
        "u",
        "st"
      ],
      [
        "y",
        "p"
      ],
      [
        "ü",
        "ll"
      ],
      [
        "un",
        "nen"
      ],
      [
        "ar",
        "b"
      ],
      [
        "gr",
        "uppe"
      ],
      [
        "Fel",
        "s"
      ],
      [
        "telefon",
        "iert"
      ],
      [
        "spaz",
        "ieren"
      ],
      [
        "he",
        "bt"
      ],
      [
        "asiat",
        "ische"
      ],
      [
        "beleb",
        "ten"
      ],
      [
        "anst",
        "altung"
      ],
      [
        "N",
        "e"
      ],
      [
        "l",
        "t"
      ],
      [
        "it",
        "ten"
      ],
      [
        "al",
        "en"
      ],
      [
        "be",
        "e"
      ],
      [
        "gro",
        "ßer"
      ],
      [
        "grü",
        "ne"
      ],
      [
        "Te",
        "ena"
      ],
      [
        "schlä",
        "gt"
      ],
      [
        "Rol",
        "l"
      ],
      [
        "Out",
        "fit"
      ],
      [
        "schwimm",
        "t"
      ],
      [
        "Com",
        "pu"
      ],
      [
        "Cow",
        "boy"
      ],
      [
        "Teena",
        "ger"
      ],
      [
        "G",
        "er"
      ],
      [
        "S",
        "a"
      ],
      [
        "f",
        "ro"
      ],
      [
        "n",
        "eh"
      ],
      [
        "hal",
        "b"
      ],
      [
        "Fußball",
        "spieler"
      ],
      [
        "ün",
        "st"
      ],
      [
        "üst",
        "ung"
      ],
      [
        "Rei",
        "he"
      ],
      [
        "a",
        "ße"
      ],
      [
        "ü",
        "gen"
      ],
      [
        "de",
        "o"
      ],
      [
        "et",
        "z"
      ],
      [
        "imm",
        "el"
      ],
      [
        "blick",
        "en"
      ],
      [
        "Aut",
        "os"
      ],
      [
        "weiße",
        "s"
      ],
      [
        "son",
        "n"
      ],
      [
        "Gewäss",
        "er"
      ],
      [
        "Fris",
        "bee"
      ],
      [
        "G",
        "ar"
      ],
      [
        "R",
        "ock"
      ],
      [
        "R",
        "asen"
      ],
      [
        "f",
        "liegt"
      ],
      [
        "k",
        "ehr"
      ],
      [
        "n",
        "ä"
      ],
      [
        "p",
        "ft"
      ],
      [
        "w",
        "en"
      ],
      [
        "y",
        "ball"
      ],
      [
        "mit",
        "tel"
      ],
      [
        "ho",
        "hen"
      ],
      [
        "gekleide",
        "t"
      ],
      [
        "Kopf",
        "bedeck"
      ],
      [
        "kom",
        "mt"
      ],
      [
        "schnee",
        "bedeckten"
      ],
      [
        "frei",
        "em"
      ],
      [
        "M",
        "utter"
      ],
      [
        "o",
        "gen"
      ],
      [
        "ein",
        "igen"
      ],
      [
        "ik",
        "um"
      ],
      [
        "berei",
        "ten"
      ],
      [
        "viel",
        "en"
      ],
      [
        "Ta",
        "sche"
      ],
      [
        "grün",
        "em"
      ],
      [
        "B",
        "art"
      ],
      [
        "s",
        "h"
      ],
      [
        "st",
        "elle"
      ],
      [
        "bl",
        "ikum"
      ],
      [
        "lä",
        "sst"
      ],
      [
        "hin",
        "auf"
      ],
      [
        "Br",
        "ücke"
      ],
      [
        "Gebäu",
        "des"
      ],
      [
        "str",
        "aße"
      ],
      [
        "Te",
        "am"
      ],
      [
        "Hän",
        "de"
      ],
      [
        "sonn",
        "igen"
      ],
      [
        "H",
        "immel"
      ],
      [
        "S",
        "ie"
      ],
      [
        "T",
        "yp"
      ],
      [
        "W",
        "ar"
      ],
      [
        "f",
        "ol"
      ],
      [
        "j",
        "acke"
      ],
      [
        "z",
        "ogen"
      ],
      [
        "at",
        "te"
      ],
      [
        "bef",
        "est"
      ],
      [
        "Gelän",
        "der"
      ],
      [
        "Pu",
        "blikum"
      ],
      [
        "foto",
        "graf"
      ],
      [
        "A",
        "b"
      ],
      [
        "K",
        "ampf"
      ],
      [
        "P",
        "latz"
      ],
      [
        "R",
        "ichtung"
      ],
      [
        "T",
        "el"
      ],
      [
        "h",
        "il"
      ],
      [
        "m",
        "arkt"
      ],
      [
        "r",
        "üstung"
      ],
      [
        "Hem",
        "den"
      ],
      [
        "je",
        "kt"
      ],
      [
        "Al",
        "ter"
      ],
      [
        "käm",
        "pfen"
      ],
      [
        "ünst",
        "ler"
      ],
      [
        "T",
        "ür"
      ],
      [
        "h",
        "aus"
      ],
      [
        "in",
        "ger"
      ],
      [
        "ber",
        "eit"
      ],
      [
        "ell",
        "er"
      ],
      [
        "üh",
        "len"
      ],
      [
        "Zeit",
        "ung"
      ],
      [
        "e",
        "e"
      ],
      [
        "g",
        "i"
      ],
      [
        "l",
        "ing"
      ],
      [
        "m",
        "an"
      ],
      [
        "ei",
        "ter"
      ],
      [
        "st",
        "ä"
      ],
      [
        "rau",
        "t"
      ],
      [
        "zu",
        "schauen"
      ],
      [
        "Ho",
        "ch"
      ],
      [
        "fü",
        "ll"
      ],
      [
        "wer",
        "k"
      ],
      [
        "Schutz",
        "h"
      ],
      [
        "West",
        "e"
      ],
      [
        "dunkl",
        "en"
      ],
      [
        "J",
        "u"
      ],
      [
        "p",
        "ark"
      ],
      [
        "blau",
        "e"
      ],
      [
        "Graffit",
        "i"
      ],
      [
        "B",
        "ier"
      ],
      [
        "M",
        "ar"
      ],
      [
        "M",
        "üll"
      ],
      [
        "a",
        "cken"
      ],
      [
        "st",
        "uhl"
      ],
      [
        "Spiel",
        "platz"
      ],
      [
        "vol",
        "l"
      ],
      [
        "Un",
        "ter"
      ],
      [
        "Kopfbedeck",
        "ung"
      ],
      [
        "H",
        "als"
      ],
      [
        "n",
        "a"
      ],
      [
        "n",
        "ack"
      ],
      [
        "te",
        "ten"
      ],
      [
        "um",
        "mer"
      ],
      [
        "än",
        "gt"
      ],
      [
        "ig",
        "ar"
      ],
      [
        "Fl",
        "ug"
      ],
      [
        "Au",
        "gen"
      ],
      [
        "asiat",
        "ischer"
      ],
      [
        "Erwachsen",
        "e"
      ],
      [
        "Compu",
        "ter"
      ],
      [
        "D",
        "r"
      ],
      [
        "S",
        "o"
      ],
      [
        "Z",
        "igar"
      ],
      [
        "a",
        "sche"
      ],
      [
        "h",
        "ut"
      ],
      [
        "m",
        "el"
      ],
      [
        "au",
        "b"
      ],
      [
        "Mann",
        "es"
      ],
      [
        "Po",
        "ol"
      ],
      [
        "mitt",
        "ler"
      ],
      [
        "K",
        "an"
      ],
      [
        "S",
        "ol"
      ],
      [
        "k",
        "op"
      ],
      [
        "an",
        "c"
      ],
      [
        "sch",
        "üt"
      ],
      [
        "ben",
        "s"
      ],
      [
        "Sch",
        "irm"
      ],
      [
        "um",
        "ar"
      ],
      [
        "um",
        "ent"
      ],
      [
        "Ho",
        "f"
      ],
      [
        "blon",
        "des"
      ],
      [
        "führ",
        "en"
      ],
      [
        "haar",
        "iger"
      ],
      [
        "W",
        "inter"
      ],
      [
        "b",
        "ank"
      ],
      [
        "at",
        "ue"
      ],
      [
        "ver",
        "schn"
      ],
      [
        "la",
        "gen"
      ],
      [
        "da",
        "von"
      ],
      [
        "kar",
        "ierten"
      ],
      [
        "B",
        "ar"
      ],
      [
        "L",
        "o"
      ],
      [
        "f",
        "läche"
      ],
      [
        "g",
        "rei"
      ],
      [
        "l",
        "in"
      ],
      [
        "l",
        "euch"
      ],
      [
        "m",
        "ehrere"
      ],
      [
        "zu",
        "sehen"
      ],
      [
        "Kunst",
        "stück"
      ],
      [
        "dunkel",
        "häut"
      ],
      [
        "überqu",
        "eren"
      ],
      [
        "genie",
        "ßt"
      ],
      [
        "Gl",
        "as"
      ],
      [
        "Fre",
        "und"
      ],
      [
        "Schau",
        "kel"
      ],
      [
        "D",
        "ach"
      ],
      [
        "D",
        "ecke"
      ],
      [
        "J",
        "emand"
      ],
      [
        "T",
        "ro"
      ],
      [
        "et",
        "ten"
      ],
      [
        "St",
        "ück"
      ],
      [
        "re",
        "par"
      ],
      [
        "ho",
        "se"
      ],
      [
        "Bl",
        "ick"
      ],
      [
        "uck",
        "t"
      ],
      [
        "Feuer",
        "wehr"
      ],
      [
        "Ju",
        "gend"
      ],
      [
        "l",
        "acht"
      ],
      [
        "o",
        "ff"
      ],
      [
        "p",
        "r"
      ],
      [
        "Kl",
        "ei"
      ],
      [
        "la",
        "ster"
      ],
      [
        "br",
        "ett"
      ],
      [
        "Mau",
        "er"
      ],
      [
        "Zuschau",
        "ern"
      ],
      [
        "Le",
        "bens"
      ],
      [
        "tre",
        "ten"
      ],
      [
        "schr",
        "ift"
      ],
      [
        "gi",
        "bt"
      ],
      [
        "stä",
        "dt"
      ],
      [
        "mittler",
        "en"
      ],
      [
        "F",
        "ot"
      ],
      [
        "V",
        "olle"
      ],
      [
        "g",
        "ner"
      ],
      [
        "s",
        "et"
      ],
      [
        "ben",
        "utzt"
      ],
      [
        "gel",
        "ber"
      ],
      [
        "rä",
        "dern"
      ],
      [
        "öff",
        "ent"
      ],
      [
        "Gem",
        "ü"
      ],
      [
        "S",
        "of"
      ],
      [
        "h",
        "ö"
      ],
      [
        "p",
        "ro"
      ],
      [
        "or",
        "angen"
      ],
      [
        "Men",
        "ge"
      ],
      [
        "Baseball",
        "spieler"
      ],
      [
        "Einkauf",
        "s"
      ],
      [
        "neh",
        "men"
      ],
      [
        "Alter",
        "s"
      ],
      [
        "Volle",
        "yball"
      ],
      [
        "O",
        "bst"
      ],
      [
        "P",
        "ar"
      ],
      [
        "b",
        "em"
      ],
      [
        "g",
        "änger"
      ],
      [
        "h",
        "ei"
      ],
      [
        "r",
        "ies"
      ],
      [
        "t",
        "ur"
      ],
      [
        "v",
        "iol"
      ],
      [
        "an",
        "ten"
      ],
      [
        "un",
        "t"
      ],
      [
        "Ein",
        "ige"
      ],
      [
        "el",
        "men"
      ],
      [
        "em",
        "an"
      ],
      [
        "Sch",
        "ür"
      ],
      [
        "Men",
        "sch"
      ],
      [
        "unter",
        "hält"
      ],
      [
        "A",
        "k"
      ],
      [
        "M",
        "und"
      ],
      [
        "s",
        "ur"
      ],
      [
        "st",
        "rei"
      ],
      [
        "zu",
        "sieht"
      ],
      [
        "Sch",
        "al"
      ],
      [
        "große",
        "s"
      ],
      [
        "stell",
        "t"
      ],
      [
        "Uni",
        "form"
      ],
      [
        "na",
        "he"
      ],
      [
        "Fot",
        "os"
      ],
      [
        "K",
        "or"
      ],
      [
        "d",
        "el"
      ],
      [
        "au",
        "ßer"
      ],
      [
        "st",
        "ar"
      ],
      [
        "ge",
        "bäu"
      ],
      [
        "im",
        "men"
      ],
      [
        "zu",
        "schaut"
      ],
      [
        "spr",
        "e"
      ],
      [
        "neben",
        "einander"
      ],
      [
        "Fuß",
        "gänger"
      ],
      [
        "Rei",
        "fen"
      ],
      [
        "Mit",
        "te"
      ],
      [
        "schein",
        "t"
      ],
      [
        "Sof",
        "a"
      ],
      [
        "G",
        "ol"
      ],
      [
        "U",
        "fer"
      ],
      [
        "k",
        "ampf"
      ],
      [
        "m",
        "p"
      ],
      [
        "m",
        "ehrer"
      ],
      [
        "n",
        "icht"
      ],
      [
        "in",
        "i"
      ],
      [
        "er",
        "r"
      ],
      [
        "ein",
        "sam"
      ],
      [
        "on",
        "s"
      ],
      [
        "sp",
        "ann"
      ],
      [
        "gl",
        "ei"
      ],
      [
        "lil",
        "a"
      ],
      [
        "verschie",
        "den"
      ],
      [
        "N",
        "acht"
      ],
      [
        "Z",
        "iegel"
      ],
      [
        "b",
        "is"
      ],
      [
        "j",
        "eman"
      ],
      [
        "n",
        "achts"
      ],
      [
        "r",
        "uh"
      ],
      [
        "au",
        "er"
      ],
      [
        "itz",
        "en"
      ],
      [
        "be",
        "w"
      ],
      [
        "ut",
        "sche"
      ],
      [
        "Ho",
        "ckey"
      ],
      [
        "ige",
        "s"
      ],
      [
        "ig",
        "k"
      ],
      [
        "Son",
        "ne"
      ],
      [
        "kn",
        "iet"
      ],
      [
        "Sur",
        "fer"
      ],
      [
        "Gegen",
        "stand"
      ],
      [
        "Gemü",
        "se"
      ],
      [
        "M",
        "asch"
      ],
      [
        "W",
        "ett"
      ],
      [
        "b",
        "al"
      ],
      [
        "j",
        "ungen"
      ],
      [
        "o",
        "ß"
      ],
      [
        "u",
        "he"
      ],
      [
        "ä",
        "h"
      ],
      [
        "it",
        "ion"
      ],
      [
        "und",
        "er"
      ],
      [
        "sch",
        "lagen"
      ],
      [
        "gel",
        "n"
      ],
      [
        "hin",
        "ten"
      ],
      [
        "vers",
        "uchen"
      ],
      [
        "Her",
        "r"
      ],
      [
        "As",
        "iat"
      ],
      [
        "Zigar",
        "ette"
      ],
      [
        "B",
        "raut"
      ],
      [
        "C",
        "l"
      ],
      [
        "F",
        "er"
      ],
      [
        "F",
        "isch"
      ],
      [
        "N",
        "ummer"
      ],
      [
        "b",
        "ärt"
      ],
      [
        "f",
        "arb"
      ],
      [
        "g",
        "ut"
      ],
      [
        "n",
        "ah"
      ],
      [
        "er",
        "le"
      ],
      [
        "tr",
        "inken"
      ],
      [
        "le",
        "gt"
      ],
      [
        "Tr",
        "ick"
      ],
      [
        "gl",
        "eich"
      ],
      [
        "kur",
        "z"
      ],
      [
        "üst",
        "e"
      ],
      [
        "beob",
        "achten"
      ],
      [
        "Rol",
        "ler"
      ],
      [
        "mehrer",
        "en"
      ],
      [
        "B",
        "ett"
      ],
      [
        "Z",
        "elt"
      ],
      [
        "a",
        "w"
      ],
      [
        "a",
        "gt"
      ],
      [
        "f",
        "ängt"
      ],
      [
        "itz",
        "t"
      ],
      [
        "gest",
        "ell"
      ],
      [
        "Pf",
        "ad"
      ],
      [
        "K",
        "n"
      ],
      [
        "L",
        "äufer"
      ],
      [
        "ü",
        "hr"
      ],
      [
        "ge",
        "f"
      ],
      [
        "Mann",
        "schaft"
      ],
      [
        "rau",
        "cht"
      ],
      [
        "ick",
        "t"
      ],
      [
        "farben",
        "fro"
      ],
      [
        "Ar",
        "men"
      ],
      [
        "wer",
        "fen"
      ],
      [
        "Trikot",
        "s"
      ],
      [
        "Wei",
        "hn"
      ],
      [
        "Flag",
        "ge"
      ],
      [
        "Gar",
        "ten"
      ],
      [
        "öffent",
        "lichen"
      ],
      [
        "D",
        "e"
      ],
      [
        "E",
        "im"
      ],
      [
        "P",
        "art"
      ],
      [
        "z",
        "ert"
      ],
      [
        "ge",
        "p"
      ],
      [
        "ro",
        "tes"
      ],
      [
        "bei",
        "de"
      ],
      [
        "St",
        "ange"
      ],
      [
        "is",
        "sen"
      ],
      [
        "ho",
        "f"
      ],
      [
        "la",
        "sche"
      ],
      [
        "Hand",
        "t"
      ],
      [
        "Ar",
        "t"
      ],
      [
        "betr",
        "achten"
      ],
      [
        "La",
        "den"
      ],
      [
        "Stu",
        "fen"
      ],
      [
        "rut",
        "scht"
      ],
      [
        "verschn",
        "eiten"
      ],
      [
        "Schür",
        "ze"
      ],
      [
        "Fer",
        "ne"
      ],
      [
        "Weihn",
        "achts"
      ],
      [
        "C",
        "o"
      ],
      [
        "R",
        "ampe"
      ],
      [
        "W",
        "anderer"
      ],
      [
        "b",
        "ild"
      ],
      [
        "d",
        "ass"
      ],
      [
        "h",
        "eit"
      ],
      [
        "bl",
        "ich"
      ],
      [
        "Gr",
        "ill"
      ],
      [
        "grü",
        "ner"
      ],
      [
        "Geh",
        "steig"
      ],
      [
        "Ver",
        "anstaltung"
      ],
      [
        "kom",
        "men"
      ],
      [
        "Musik",
        "er"
      ],
      [
        "Vor",
        "der"
      ],
      [
        "hem",
        "d"
      ],
      [
        "B",
        "ack"
      ],
      [
        "O",
        "b"
      ],
      [
        "g",
        "ol"
      ],
      [
        "h",
        "und"
      ],
      [
        "u",
        "gt"
      ],
      [
        "ei",
        "te"
      ],
      [
        "än",
        "zer"
      ],
      [
        "Bo",
        "w"
      ],
      [
        "geb",
        "ung"
      ],
      [
        "viel",
        "e"
      ],
      [
        "fol",
        "gt"
      ],
      [
        "K",
        "ap"
      ],
      [
        "T",
        "anz"
      ],
      [
        "i",
        "ff"
      ],
      [
        "m",
        "ütze"
      ],
      [
        "re",
        "den"
      ],
      [
        "her",
        "aus"
      ],
      [
        "blon",
        "den"
      ],
      [
        "ma",
        "sch"
      ],
      [
        "Gel",
        "d"
      ],
      [
        "zie",
        "hen"
      ],
      [
        "Tennis",
        "ball"
      ],
      [
        "Sur",
        "f"
      ],
      [
        "Kostü",
        "m"
      ],
      [
        "Snow",
        "boarder"
      ],
      [
        "befest",
        "ig"
      ],
      [
        "leuch",
        "ten"
      ],
      [
        "außer",
        "halb"
      ],
      [
        "C",
        "he"
      ],
      [
        "T",
        "au"
      ],
      [
        "V",
        "o"
      ],
      [
        "k",
        "öpf"
      ],
      [
        "m",
        "o"
      ],
      [
        "r",
        "t"
      ],
      [
        "r",
        "u"
      ],
      [
        "wei",
        "ter"
      ],
      [
        "at",
        "ten"
      ],
      [
        "unter",
        "gang"
      ],
      [
        "fer",
        "n"
      ],
      [
        "for",
        "men"
      ],
      [
        "Basketball",
        "spieler"
      ],
      [
        "Kostü",
        "men"
      ],
      [
        "Snow",
        "board"
      ],
      [
        "Tur",
        "n"
      ],
      [
        "Pla",
        "st"
      ],
      [
        "Tel",
        "efon"
      ],
      [
        "bärt",
        "iger"
      ],
      [
        "S",
        "we"
      ],
      [
        "a",
        "kt"
      ],
      [
        "d",
        "o"
      ],
      [
        "k",
        "äufer"
      ],
      [
        "p",
        "hon"
      ],
      [
        "s",
        "k"
      ],
      [
        "s",
        "ucht"
      ],
      [
        "sch",
        "ir"
      ],
      [
        "il",
        "len"
      ],
      [
        "St",
        "atue"
      ],
      [
        "blau",
        "es"
      ],
      [
        "Ge",
        "b"
      ],
      [
        "lan",
        "ge"
      ],
      [
        "Fahr",
        "zeug"
      ],
      [
        "des",
        "sen"
      ],
      [
        "Sonnen",
        "untergang"
      ],
      [
        "dr",
        "eh"
      ],
      [
        "zur",
        "ück"
      ],
      [
        "Ski",
        "fahrer"
      ],
      [
        "Instr",
        "umen"
      ],
      [
        "Bik",
        "ini"
      ],
      [
        "grei",
        "ft"
      ],
      [
        "Lebens",
        "mittel"
      ],
      [
        "sur",
        "ft"
      ],
      [
        "Bow",
        "ling"
      ],
      [
        "Plast",
        "ik"
      ],
      [
        "T",
        "an"
      ],
      [
        "V",
        "ater"
      ],
      [
        "a",
        "pp"
      ],
      [
        "m",
        "auer"
      ],
      [
        "o",
        "ten"
      ],
      [
        "u",
        "ster"
      ],
      [
        "ch",
        "ter"
      ],
      [
        "um",
        "e"
      ],
      [
        "ol",
        "l"
      ],
      [
        "Kl",
        "assen"
      ],
      [
        "pf",
        "laster"
      ],
      [
        "Br",
        "unnen"
      ],
      [
        "kletter",
        "n"
      ],
      [
        "Auf",
        "schrift"
      ],
      [
        "hän",
        "gen"
      ],
      [
        "gelb",
        "em"
      ],
      [
        "As",
        "i"
      ],
      [
        "schrei",
        "bt"
      ],
      [
        "Schü",
        "ler"
      ],
      [
        "sh",
        "irt"
      ],
      [
        "fotograf",
        "iert"
      ],
      [
        "hil",
        "ft"
      ],
      [
        "Klei",
        "dern"
      ],
      [
        "Kap",
        "u"
      ],
      [
        "B",
        "ei"
      ],
      [
        "st",
        "än"
      ],
      [
        "on",
        "t"
      ],
      [
        "Sch",
        "ie"
      ],
      [
        "bei",
        "den"
      ],
      [
        "be",
        "ugt"
      ],
      [
        "at",
        "shirt"
      ],
      [
        "aus",
        "rüstung"
      ],
      [
        "re",
        "ck"
      ],
      [
        "bo",
        "ot"
      ],
      [
        "lich",
        "es"
      ],
      [
        "ow",
        "n"
      ],
      [
        "ob",
        "il"
      ],
      [
        "Dam",
        "en"
      ],
      [
        "Hü",
        "ten"
      ],
      [
        "männ",
        "liche"
      ],
      [
        "Poliz",
        "ist"
      ],
      [
        "Kampf",
        "sport"
      ],
      [
        "städt",
        "ischen"
      ],
      [
        "Vo",
        "gel"
      ],
      [
        "Swe",
        "atshirt"
      ],
      [
        "B",
        "al"
      ],
      [
        "K",
        "e"
      ],
      [
        "L",
        "eiter"
      ],
      [
        "P",
        "ass"
      ],
      [
        "f",
        "ei"
      ],
      [
        "j",
        "ak"
      ],
      [
        "s",
        "il"
      ],
      [
        "s",
        "kleidung"
      ],
      [
        "w",
        "a"
      ],
      [
        "un",
        "befestig"
      ],
      [
        "le",
        "sen"
      ],
      [
        "Kl",
        "etter"
      ],
      [
        "Haar",
        "e"
      ],
      [
        "Se",
        "chs"
      ],
      [
        "überqu",
        "ert"
      ],
      [
        "schö",
        "nen"
      ],
      [
        "Poliz",
        "isten"
      ],
      [
        "Hoch",
        "zeit"
      ],
      [
        "gebäu",
        "de"
      ],
      [
        "Masch",
        "ine"
      ],
      [
        "K",
        "rei"
      ],
      [
        "f",
        "äl"
      ],
      [
        "g",
        "uckt"
      ],
      [
        "l",
        "ei"
      ],
      [
        "w",
        "ander"
      ],
      [
        "ch",
        "ten"
      ],
      [
        "un",
        "k"
      ],
      [
        "Sch",
        "rei"
      ],
      [
        "zen",
        "tr"
      ],
      [
        "ück",
        "t"
      ],
      [
        "ing",
        "s"
      ],
      [
        "ün",
        "ger"
      ],
      [
        "schw",
        "immen"
      ],
      [
        "versamm",
        "eln"
      ],
      [
        "Ka",
        "jak"
      ],
      [
        "stre",
        "ckt"
      ],
      [
        "hör",
        "t"
      ],
      [
        "nack",
        "tem"
      ],
      [
        "spre",
        "chen"
      ],
      [
        "K",
        "er"
      ],
      [
        "d",
        "u"
      ],
      [
        "h",
        "ol"
      ],
      [
        "bl",
        "asen"
      ],
      [
        "da",
        "ten"
      ],
      [
        "gestreif",
        "tem"
      ],
      [
        "gem",
        "einsam"
      ],
      [
        "Kon",
        "zert"
      ],
      [
        "L",
        "eine"
      ],
      [
        "R",
        "utsche"
      ],
      [
        "i",
        "f"
      ],
      [
        "i",
        "p"
      ],
      [
        "i",
        "ppe"
      ],
      [
        "j",
        "ünger"
      ],
      [
        "r",
        "and"
      ],
      [
        "tr",
        "ad"
      ],
      [
        "Sch",
        "m"
      ],
      [
        "Sch",
        "uhen"
      ],
      [
        "le",
        "eren"
      ],
      [
        "gel",
        "e"
      ],
      [
        "asiat",
        "ischen"
      ],
      [
        "schl",
        "afen"
      ],
      [
        "Regen",
        "schirm"
      ],
      [
        "Geträn",
        "k"
      ],
      [
        "masch",
        "ine"
      ],
      [
        "B",
        "ul"
      ],
      [
        "C",
        "af"
      ],
      [
        "K",
        "at"
      ],
      [
        "W",
        "ohn"
      ],
      [
        "l",
        "assen"
      ],
      [
        "m",
        "ar"
      ],
      [
        "s",
        "el"
      ],
      [
        "Sch",
        "lä"
      ],
      [
        "at",
        "hon"
      ],
      [
        "il",
        "it"
      ],
      [
        "il",
        "der"
      ],
      [
        "bo",
        "den"
      ],
      [
        "Kopf",
        "hör"
      ],
      [
        "zei",
        "ch"
      ],
      [
        "blon",
        "der"
      ],
      [
        "Pfer",
        "de"
      ],
      [
        "ko",
        "stü"
      ],
      [
        "Wei",
        "ß"
      ],
      [
        "West",
        "en"
      ],
      [
        "genie",
        "ßen"
      ],
      [
        "lil",
        "afarben"
      ],
      [
        "ief",
        "eln"
      ],
      [
        "War",
        "en"
      ],
      [
        "Sol",
        "daten"
      ],
      [
        "Eim",
        "er"
      ],
      [
        "trad",
        "ition"
      ],
      [
        "A",
        "ben"
      ],
      [
        "L",
        "ie"
      ],
      [
        "R",
        "ot"
      ],
      [
        "T",
        "änzer"
      ],
      [
        "W",
        "ellen"
      ],
      [
        "j",
        "agt"
      ],
      [
        "m",
        "ä"
      ],
      [
        "s",
        "ä"
      ],
      [
        "t",
        "op"
      ],
      [
        "ö",
        "cken"
      ],
      [
        "ei",
        "be"
      ],
      [
        "st",
        "u"
      ],
      [
        "wei",
        "blich"
      ],
      [
        "be",
        "wachsen"
      ],
      [
        "St",
        "ühlen"
      ],
      [
        "lä",
        "t"
      ],
      [
        "re",
        "cht"
      ],
      [
        "af",
        "r"
      ],
      [
        "os",
        "sen"
      ],
      [
        "Die",
        "se"
      ],
      [
        "otor",
        "rad"
      ],
      [
        "Mikro",
        "phon"
      ],
      [
        "Sei",
        "fen"
      ],
      [
        "Bade",
        "anzug"
      ],
      [
        "Um",
        "gebung"
      ],
      [
        "Schlag",
        "zeug"
      ],
      [
        "Schutzh",
        "elm"
      ],
      [
        "sil",
        "ber"
      ],
      [
        "K",
        "aff"
      ],
      [
        "L",
        "ap"
      ],
      [
        "M",
        "a"
      ],
      [
        "a",
        "chen"
      ],
      [
        "b",
        "ung"
      ],
      [
        "h",
        "alle"
      ],
      [
        "ö",
        "pfen"
      ],
      [
        "as",
        "ke"
      ],
      [
        "gr",
        "as"
      ],
      [
        "lä",
        "n"
      ],
      [
        "ent",
        "spann"
      ],
      [
        "gekleide",
        "ten"
      ],
      [
        "oh",
        "ne"
      ],
      [
        "bel",
        "euch"
      ],
      [
        "Motorrad",
        "fahrer"
      ],
      [
        "Gelän",
        "dem"
      ],
      [
        "Le",
        "der"
      ],
      [
        "Ro",
        "deo"
      ],
      [
        "gelbe",
        "s"
      ],
      [
        "wo",
        "bei"
      ],
      [
        "En",
        "de"
      ],
      [
        "Kor",
        "b"
      ],
      [
        "afr",
        "ikan"
      ],
      [
        "Lap",
        "top"
      ],
      [
        "F",
        "ah"
      ],
      [
        "F",
        "inger"
      ],
      [
        "G",
        "ei"
      ],
      [
        "K",
        "ünstler"
      ],
      [
        "O",
        "hr"
      ],
      [
        "b",
        "au"
      ],
      [
        "p",
        "ul"
      ],
      [
        "s",
        "ingen"
      ],
      [
        "ü",
        "m"
      ],
      [
        "in",
        "der"
      ],
      [
        "in",
        "str"
      ],
      [
        "in",
        "mitten"
      ],
      [
        "sch",
        "af"
      ],
      [
        "sch",
        "uh"
      ],
      [
        "der",
        "t"
      ],
      [
        "as",
        "e"
      ],
      [
        "rei",
        "ten"
      ],
      [
        "ur",
        "f"
      ],
      [
        "aus",
        "e"
      ],
      [
        "isch",
        "t"
      ],
      [
        "lan",
        "zen"
      ],
      [
        "ul",
        "p"
      ],
      [
        "grau",
        "em"
      ],
      [
        "ss",
        "el"
      ],
      [
        "gegen",
        "über"
      ],
      [
        "Kr",
        "aw"
      ],
      [
        "braun",
        "em"
      ],
      [
        "schw",
        "ingt"
      ],
      [
        "Erwachsen",
        "en"
      ],
      [
        "Erwachsen",
        "er"
      ],
      [
        "Mar",
        "athon"
      ],
      [
        "ries",
        "igen"
      ],
      [
        "star",
        "rt"
      ],
      [
        "dreh",
        "t"
      ],
      [
        "ilit",
        "är"
      ],
      [
        "C",
        "h"
      ],
      [
        "H",
        "ö"
      ],
      [
        "S",
        "ohn"
      ],
      [
        "V",
        "i"
      ],
      [
        "a",
        "den"
      ],
      [
        "g",
        "n"
      ],
      [
        "k",
        "a"
      ],
      [
        "r",
        "ein"
      ],
      [
        "or",
        "en"
      ],
      [
        "ber",
        "ühr"
      ],
      [
        "Ge",
        "gend"
      ],
      [
        "gel",
        "t"
      ],
      [
        "ander",
        "es"
      ],
      [
        "Hand",
        "schuhen"
      ],
      [
        "Fahr",
        "er"
      ],
      [
        "älter",
        "en"
      ],
      [
        "Park",
        "platz"
      ],
      [
        "Uni",
        "formen"
      ],
      [
        "fall",
        "en"
      ],
      [
        "Instr",
        "ument"
      ],
      [
        "pink",
        "farben"
      ],
      [
        "Wer",
        "k"
      ],
      [
        "Par",
        "ade"
      ],
      [
        "L",
        "auf"
      ],
      [
        "s",
        "sen"
      ],
      [
        "tr",
        "ain"
      ],
      [
        "ad",
        "d"
      ],
      [
        "eu",
        "z"
      ],
      [
        "ver",
        "kleide"
      ],
      [
        "Kinder",
        "wagen"
      ],
      [
        "fü",
        "t"
      ],
      [
        "Gebäu",
        "den"
      ],
      [
        "Shirt",
        "s"
      ],
      [
        "Ber",
        "gen"
      ],
      [
        "Ber",
        "eich"
      ],
      [
        "Straßen",
        "ecke"
      ],
      [
        "Straßen",
        "rand"
      ],
      [
        "är",
        "m"
      ],
      [
        "lächeln",
        "d"
      ],
      [
        "rä",
        "der"
      ],
      [
        "Arm",
        "e"
      ],
      [
        "ät",
        "ow"
      ],
      [
        "Tre",
        "ppen"
      ],
      [
        "kor",
        "b"
      ],
      [
        "rich",
        "ter"
      ],
      [
        "offen",
        "en"
      ],
      [
        "pink",
        "farbenen"
      ],
      [
        "wen",
        "det"
      ],
      [
        "bal",
        "anc"
      ],
      [
        "Schrei",
        "bt"
      ],
      [
        "F",
        "ern"
      ],
      [
        "K",
        "ir"
      ],
      [
        "L",
        "ast"
      ],
      [
        "S",
        "änger"
      ],
      [
        "T",
        "he"
      ],
      [
        "a",
        "der"
      ],
      [
        "l",
        "ink"
      ],
      [
        "“",
        "."
      ],
      [
        "ei",
        "sch"
      ],
      [
        "ge",
        "pflaster"
      ],
      [
        "or",
        "d"
      ],
      [
        "Sch",
        "oß"
      ],
      [
        "schwarz",
        "es"
      ],
      [
        "St",
        "and"
      ],
      [
        "spr",
        "itzt"
      ],
      [
        "ver",
        "all"
      ],
      [
        "kt",
        "ion"
      ],
      [
        "Bau",
        "stelle"
      ],
      [
        "To",
        "ur"
      ],
      [
        "umar",
        "mt"
      ],
      [
        "Part",
        "y"
      ],
      [
        "Che",
        "erle"
      ],
      [
        "Geländem",
        "otorrad"
      ],
      [
        "E",
        "l"
      ],
      [
        "G",
        "ro"
      ],
      [
        "J",
        "acken"
      ],
      [
        "K",
        "uchen"
      ],
      [
        "O",
        "verall"
      ],
      [
        "P",
        "ause"
      ],
      [
        "W",
        "asch"
      ],
      [
        "b",
        "ik"
      ],
      [
        "k",
        "ann"
      ],
      [
        "k",
        "ten"
      ],
      [
        "s",
        "eite"
      ],
      [
        "u",
        "cken"
      ],
      [
        "ein",
        "ge"
      ],
      [
        "ge",
        "zogen"
      ],
      [
        "or",
        "k"
      ],
      [
        "Sch",
        "w"
      ],
      [
        "ier",
        "te"
      ],
      [
        "aus",
        "gest"
      ],
      [
        "sam",
        "m"
      ],
      [
        "stei",
        "gen"
      ],
      [
        "orangefarben",
        "er"
      ],
      [
        "grüne",
        "s"
      ],
      [
        "dunkelhäut",
        "iger"
      ],
      [
        "set",
        "zt"
      ],
      [
        "Cl",
        "own"
      ],
      [
        "Back",
        "stein"
      ],
      [
        "gras",
        "bewachsen"
      ],
      [
        "ulp",
        "tur"
      ],
      [
        "Kraw",
        "atte"
      ],
      [
        "N",
        "etz"
      ],
      [
        "T",
        "ier"
      ],
      [
        "b",
        "y"
      ],
      [
        "c",
        "o"
      ],
      [
        "g",
        "lie"
      ],
      [
        "o",
        "ber"
      ],
      [
        "s",
        "o"
      ],
      [
        "ge",
        "gner"
      ],
      [
        "ich",
        "er"
      ],
      [
        "Sch",
        "atten"
      ],
      [
        "um",
        "m"
      ],
      [
        "ut",
        "zen"
      ],
      [
        "Sp",
        "iegel"
      ],
      [
        "ver",
        "kaufen"
      ],
      [
        "schau",
        "k"
      ],
      [
        "ho",
        "ckey"
      ],
      [
        "ros",
        "kop"
      ],
      [
        "Tennis",
        "spieler"
      ],
      [
        "Gelän",
        "de"
      ],
      [
        "iv",
        "e"
      ],
      [
        "repar",
        "iert"
      ],
      [
        "Jugend",
        "licher"
      ],
      [
        "Vorder",
        "grund"
      ],
      [
        "Schreibt",
        "isch"
      ],
      [
        "F",
        "ell"
      ],
      [
        "M",
        "obil"
      ],
      [
        "S",
        "icher"
      ],
      [
        "g",
        "anz"
      ],
      [
        "h",
        "and"
      ],
      [
        "l",
        "ung"
      ],
      [
        "p",
        "utzt"
      ],
      [
        "t",
        "au"
      ],
      [
        "ä",
        "um"
      ],
      [
        "ö",
        "n"
      ],
      [
        "gr",
        "ill"
      ],
      [
        "ist",
        "e"
      ],
      [
        "la",
        "ge"
      ],
      [
        "Fahrrad",
        "fahrer"
      ],
      [
        "Bl",
        "au"
      ],
      [
        "gekleide",
        "tes"
      ],
      [
        "An",
        "z"
      ],
      [
        "gl",
        "ück"
      ],
      [
        "Sand",
        "alen"
      ],
      [
        "vol",
        "len"
      ],
      [
        "hell",
        "häut"
      ],
      [
        "gegen",
        "einander"
      ],
      [
        "kur",
        "zer"
      ],
      [
        "Schl",
        "itten"
      ],
      [
        "Ta",
        "schen"
      ],
      [
        "stell",
        "ung"
      ],
      [
        "gew",
        "or"
      ],
      [
        "amerikan",
        "ische"
      ],
      [
        "Schn",
        "au"
      ],
      [
        "Schul",
        "ter"
      ],
      [
        "füll",
        "ten"
      ],
      [
        "Flug",
        "zeug"
      ],
      [
        "pr",
        "ü"
      ],
      [
        "Einkaufs",
        "wagen"
      ],
      [
        "verschieden",
        "e"
      ],
      [
        "gestell",
        "t"
      ],
      [
        "F",
        "ü"
      ],
      [
        "H",
        "u"
      ],
      [
        "I",
        "m"
      ],
      [
        "K",
        "unden"
      ],
      [
        "e",
        "ben"
      ],
      [
        "i",
        "pp"
      ],
      [
        "p",
        "l"
      ],
      [
        "u",
        "fer"
      ],
      [
        "un",
        "n"
      ],
      [
        "ei",
        "den"
      ],
      [
        "te",
        "am"
      ],
      [
        "die",
        "s"
      ],
      [
        "at",
        "z"
      ],
      [
        "at",
        "ur"
      ],
      [
        "we",
        "sten"
      ],
      [
        "Fahr",
        "rädern"
      ],
      [
        "ab",
        "ge"
      ],
      [
        "ange",
        "zogen"
      ],
      [
        "ank",
        "en"
      ],
      [
        "führ",
        "ung"
      ],
      [
        "Foto",
        "graf"
      ],
      [
        "asiat",
        "isches"
      ],
      [
        "bedeck",
        "t"
      ],
      [
        "Mik",
        "roskop"
      ],
      [
        "Baum",
        "st"
      ],
      [
        "schl",
        "ossen"
      ],
      [
        "Football",
        "spieler"
      ],
      [
        "stre",
        "cke"
      ],
      [
        "kü",
        "sst"
      ],
      [
        "ds",
        "richter"
      ],
      [
        "jeman",
        "dem"
      ],
      [
        "Schlä",
        "ger"
      ],
      [
        "balanc",
        "iert"
      ],
      [
        "B",
        "ein"
      ],
      [
        "B",
        "lät"
      ],
      [
        "L",
        "ab"
      ],
      [
        "S",
        "te"
      ],
      [
        "b",
        "aum"
      ],
      [
        "i",
        "ent"
      ],
      [
        "k",
        "tr"
      ],
      [
        "u",
        "ppen"
      ],
      [
        "w",
        "inkt"
      ],
      [
        "w",
        "under"
      ],
      [
        "in",
        "dern"
      ],
      [
        "ch",
        "te"
      ],
      [
        "un",
        "i"
      ],
      [
        "st",
        "att"
      ],
      [
        "rau",
        "m"
      ],
      [
        "de",
        "on"
      ],
      [
        "am",
        "en"
      ],
      [
        "Sch",
        "auf"
      ],
      [
        "pp",
        "ich"
      ],
      [
        "St",
[...]
